{
  "version": "1.0",
  "truncation": null,
  "padding": null,
  "added_tokens": [
    {
      "id": 0,
      "content": "[UNK]",
      "single_word": false,
      "lstrip": false,
      "rstrip": false,
      "normalized": false,
      "special": true
    }
  ],
  "normalizer": {
    "type": "NFKC"
  },
  "pre_tokenizer": {
    "type": "Metaspace",
    "replacement": "▁",
    "prepend_scheme": "never",
    "split": true
  },
  "post_processor": null,
  "decoder": {
    "type": "Metaspace",
    "replacement": "▁",
    "prepend_scheme": "never",
    "split": true
  },
  "model": {
    "type": "BPE",
    "dropout": null,
    "unk_token": "[UNK]",
    "continuing_subword_prefix": null,
    "end_of_word_suffix": null,
    "fuse_unk": false,
    "byte_fallback": false,
    "ignore_merges": false,
    "vocab": {
      "[UNK]": 0,
      "\n": 1,
      "!": 2,
      "\"": 3,
      "#": 4,
      "$": 5,
      "%": 6,
      "&": 7,
      "'": 8,
      "(": 9,
      ")": 10,
      "*": 11,
      "+": 12,
      ",": 13,
      "-": 14,
      ".": 15,
      "/": 16,
      "0": 17,
      "1": 18,
      "2": 19,
      "3": 20,
      "4": 21,
      "5": 22,
      "6": 23,
      "7": 24,
      "8": 25,
      "9": 26,
      ":": 27,
      ";": 28,
      "<": 29,
      "=": 30,
      ">": 31,
      "?": 32,
      "A": 33,
      "B": 34,
      "C": 35,
      "D": 36,
      "E": 37,
      "F": 38,
      "G": 39,
      "H": 40,
      "I": 41,
      "J": 42,
      "K": 43,
      "L": 44,
      "M": 45,
      "N": 46,
      "O": 47,
      "P": 48,
      "Q": 49,
      "R": 50,
      "S": 51,
      "T": 52,
      "U": 53,
      "V": 54,
      "W": 55,
      "X": 56,
      "Y": 57,
      "Z": 58,
      "[": 59,
      "\\": 60,
      "]": 61,
      "^": 62,
      "_": 63,
      "`": 64,
      "a": 65,
      "b": 66,
      "c": 67,
      "d": 68,
      "e": 69,
      "f": 70,
      "g": 71,
      "h": 72,
      "i": 73,
      "j": 74,
      "k": 75,
      "l": 76,
      "m": 77,
      "n": 78,
      "o": 79,
      "p": 80,
      "q": 81,
      "r": 82,
      "s": 83,
      "t": 84,
      "u": 85,
      "v": 86,
      "w": 87,
      "x": 88,
      "y": 89,
      "z": 90,
      "{": 91,
      "|": 92,
      "}": 93,
      "~": 94,
      "°": 95,
      "·": 96,
      "Ö": 97,
      "á": 98,
      "â": 99,
      "æ": 100,
      "ç": 101,
      "è": 102,
      "é": 103,
      "í": 104,
      "ñ": 105,
      "ö": 106,
      "ü": 107,
      "ā": 108,
      "ī": 109,
      "İ": 110,
      "Ś": 111,
      "ś": 112,
      "ū": 113,
      "ș": 114,
      "ə": 115,
      "ɦ": 116,
      "ɪ": 117,
      "ɾ": 118,
      "ʊ": 119,
      "ʼ": 120,
      "ˈ": 121,
      "ː": 122,
      "ί": 123,
      "α": 124,
      "δ": 125,
      "θ": 126,
      "ν": 127,
      "π": 128,
      "ς": 129,
      "ό": 130,
      "ँ": 131,
      "ं": 132,
      "ः": 133,
      "अ": 134,
      "आ": 135,
      "इ": 136,
      "ई": 137,
      "उ": 138,
      "ऊ": 139,
      "ऋ": 140,
      "ऍ": 141,
      "ए": 142,
      "ऐ": 143,
      "ऑ": 144,
      "ओ": 145,
      "औ": 146,
      "क": 147,
      "ख": 148,
      "ग": 149,
      "घ": 150,
      "ङ": 151,
      "च": 152,
      "छ": 153,
      "ज": 154,
      "झ": 155,
      "ञ": 156,
      "ट": 157,
      "ठ": 158,
      "ड": 159,
      "ढ": 160,
      "ण": 161,
      "त": 162,
      "थ": 163,
      "द": 164,
      "ध": 165,
      "न": 166,
      "ऩ": 167,
      "प": 168,
      "फ": 169,
      "ब": 170,
      "भ": 171,
      "म": 172,
      "य": 173,
      "र": 174,
      "ल": 175,
      "ळ": 176,
      "व": 177,
      "श": 178,
      "ष": 179,
      "स": 180,
      "ह": 181,
      "ऻ": 182,
      "़": 183,
      "ऽ": 184,
      "ा": 185,
      "ि": 186,
      "ी": 187,
      "ु": 188,
      "ू": 189,
      "ृ": 190,
      "े": 191,
      "ै": 192,
      "ॉ": 193,
      "ॊ": 194,
      "ो": 195,
      "ौ": 196,
      "्": 197,
      "॔": 198,
      "।": 199,
      "०": 200,
      "१": 201,
      "२": 202,
      "३": 203,
      "४": 204,
      "५": 205,
      "६": 206,
      "७": 207,
      "८": 208,
      "९": 209,
      "॰": 210,
      "ం": 211,
      "ః": 212,
      "అ": 213,
      "ఆ": 214,
      "ఇ": 215,
      "ఈ": 216,
      "ఉ": 217,
      "ఋ": 218,
      "ఎ": 219,
      "ఏ": 220,
      "ఐ": 221,
      "ఒ": 222,
      "ఓ": 223,
      "ఔ": 224,
      "క": 225,
      "ఖ": 226,
      "గ": 227,
      "ఘ": 228,
      "చ": 229,
      "ఛ": 230,
      "జ": 231,
      "ఞ": 232,
      "ట": 233,
      "ఠ": 234,
      "డ": 235,
      "ఢ": 236,
      "ణ": 237,
      "త": 238,
      "థ": 239,
      "ద": 240,
      "ధ": 241,
      "న": 242,
      "ప": 243,
      "ఫ": 244,
      "బ": 245,
      "భ": 246,
      "మ": 247,
      "య": 248,
      "ర": 249,
      "ల": 250,
      "ళ": 251,
      "వ": 252,
      "శ": 253,
      "ష": 254,
      "స": 255,
      "హ": 256,
      "ా": 257,
      "ి": 258,
      "ీ": 259,
      "ు": 260,
      "ూ": 261,
      "ృ": 262,
      "ె": 263,
      "ే": 264,
      "ై": 265,
      "ొ": 266,
      "ో": 267,
      "ౌ": 268,
      "్": 269,
      "ṅ": 270,
      "ṇ": 271,
      "Ṛ": 272,
      "ṣ": 273,
      "ṭ": 274,
      "Ἰ": 275,
      "‌": 276,
      "‍": 277,
      "‎": 278,
      "–": 279,
      "—": 280,
      "‘": 281,
      "’": 282,
      "“": 283,
      "”": 284,
      "†": 285,
      "•": 286,
      "′": 287,
      "‹": 288,
      "›": 289,
      "⁡": 290,
      "₹": 291,
      "↑": 292,
      "−": 293,
      "▁": 294,
      "﻿": 295,
      "wi": 296,
      "ki": 297,
      "wiki": 298,
      "ia": 299,
      "dia": 300,
      "or": 301,
      "tt": 302,
      "](": 303,
      ":/": 304,
      "htt": 305,
      "http": 306,
      "://": 307,
      "pe": 308,
      "](http": 309,
      "s://": 310,
      "](https://": 311,
      "g/": 312,
      ".or": 313,
      ".org/": 314,
      "pedia": 315,
      ".wiki": 316,
      ".org/wiki": 317,
      ".org/wiki/": 318,
      ".wikipedia": 319,
      ".wikipedia.org/wiki/": 320,
      "▁[": 321,
      "te": 322,
      "en": 323,
      "▁\"": 324,
      "\")": 325,
      "in": 326,
      "an": 327,
      "on": 328,
      "In": 329,
      "hi": 330,
      "ti": 331,
      "th": 332,
      "](https://en": 333,
      "](https://en.wikipedia.org/wiki/": 334,
      "er": 335,
      "India": 336,
      "ar": 337,
      "20": 338,
      "ार": 339,
      "al": 340,
      "re": 341,
      "▁|": 342,
      "▁क": 343,
      "](https://hi": 344,
      "](https://hi.wikipedia.org/wiki/": 345,
      "्र": 346,
      "es": 347,
      "of": 348,
      "भार": 349,
      "भारत": 350,
      "ci": 351,
      "tion": 352,
      "is": 353,
      "the": 354,
      "ed": 355,
      "▁स": 356,
      "▁-": 357,
      "and": 358,
      "om": 359,
      "te_": 360,
      "it": 361,
      "▁(": 362,
      "్ర": 363,
      "#ci": 364,
      "#cite_": 365,
      "▁of": 366,
      "▁the": 367,
      "](https://te": 368,
      "](https://te.wikipedia.org/wiki/": 369,
      "ou": 370,
      "as": 371,
      "▁म": 372,
      "201": 373,
      "्य": 374,
      "](https://en.wikipedia.org/wiki/India": 375,
      "ార": 376,
      "ic": 377,
      "19": 378,
      "▁India": 379,
      "le": 380,
      "OT": 381,
      "रा": 382,
      "no": 383,
      "▁प": 384,
      "oo": 385,
      "**": 386,
      "id": 387,
      "▁in": 388,
      "ra": 389,
      "ान": 390,
      "200": 391,
      "ent": 392,
      "▁s": 393,
      "ate": 394,
      "-0": 395,
      "](https://en.wikipedia.org/wiki/India#cite_": 396,
      "▁and": 397,
      "र्": 398,
      "▁p": 399,
      "ें": 400,
      "et": 401,
      "ాల": 402,
      "ri": 403,
      "\\_": 404,
      "-1": 405,
      "्त": 406,
      "ac": 407,
      "ing": 408,
      "▁के": 409,
      "ation": 410,
      "▁C": 411,
      "](https://hi.wikipedia.org/wiki/भारत": 412,
      "us": 413,
      "am": 414,
      "▁ह": 415,
      "at": 416,
      "▁c": 417,
      "్య": 418,
      "ref": 419,
      "ag": 420,
      "▁A": 421,
      "note": 422,
      ").": 423,
      "\n\n": 424,
      "భార": 425,
      "భారత": 426,
      "या": 427,
      "▁S": 428,
      "దే": 429,
      "[[": 430,
      "▁t": 431,
      "ook": 432,
      "దేశ": 433,
      "స్": 434,
      "ang": 435,
      "ref-": 436,
      "note-": 437,
      "ad": 438,
      "▁f": 439,
      "िक": 440,
      "▁ప": 441,
      "ve": 442,
      "78": 443,
      "lo": 444,
      "▁b": 445,
      "li": 446,
      "ीय": 447,
      "సా": 448,
      "▁अ": 449,
      "um": 450,
      "ర్": 451,
      "▁में": 452,
      "\"),": 453,
      "ur": 454,
      "▁P": 455,
      "న్": 456,
      "we": 457,
      "com": 458,
      "▁1": 459,
      "▁m": 460,
      "IS": 461,
      "ul": 462,
      "lin": 463,
      "ww": 464,
      "ver": 465,
      "he": 466,
      "ist": 467,
      "FO": 468,
      "NOT": 469,
      "OTNOT": 470,
      "FOOTNOT": 471,
      "FOOTNOTE": 472,
      "of_": 473,
      "_of_": 474,
      "▁[↑": 475,
      "ों": 476,
      "978": 477,
      "BN": 478,
      "ISBN": 479,
      "st": 480,
      "ch": 481,
      "ial": 482,
      "वि": 483,
      "red": 484,
      "ाल": 485,
      "्ष": 486,
      "fi": 487,
      "ory": 488,
      "ro": 489,
      "ce": 490,
      "▁201": 491,
      "िया": 492,
      "▁ज": 493,
      "ना": 494,
      "न्": 495,
      "▁**": 496,
      "00": 497,
      "un": 498,
      "▁द": 499,
      "21": 500,
      "ेश": 501,
      "_क": 502,
      "లు": 503,
      "=1": 504,
      "link": 505,
      "ons": 506,
      "▁d": 507,
      "il": 508,
      "▁w": 509,
      "enti": 510,
      "▁है": 511,
      "त्र": 512,
      "రా": 513,
      "edit": 514,
      "our": 515,
      ".\n": 516,
      "ter": 517,
      "action": 518,
      "▁T": 519,
      "राज": 520,
      "]](https://en.wikipedia.org/wiki/India#cite_": 521,
      "▁|\n": 522,
      "ol": 523,
      "▁|\n|": 524,
      "action=": 525,
      "▁M": 526,
      "](https://hi.wikipedia.org/wiki/भारत#cite_": 527,
      "action=edit": 528,
      "&red": 529,
      "?action=edit": 530,
      "](https://en.wikipedia.org/wiki/India#cite_ref-": 531,
      "link=1": 532,
      "]](https://en.wikipedia.org/wiki/India#cite_note-": 533,
      "&redlink=1": 534,
      "?action=edit&redlink=1": 535,
      "ma": 536,
      "tic": 537,
      "भा": 538,
      "identi": 539,
      "fier": 540,
      "identifier": 541,
      "web": 542,
      "▁R": 543,
      "భారతదేశ": 544,
      "-0)": 545,
      "identifier)": 546,
      "chi": 547,
      ".శ": 548,
      ".శ.": 549,
      "లో": 550,
      "సా.శ.": 551,
      "्व": 552,
      "res": 553,
      "▁ब": 554,
      "▁to": 555,
      "ंग": 556,
      "ला": 557,
      "और": 558,
      "▁भारत": 559,
      "▁प्र": 560,
      "ment": 561,
      "book": 562,
      "▁క": 563,
      "age": 564,
      "ति": 565,
      "),": 566,
      "pg": 567,
      "▁की": 568,
      "mp": 569,
      "▁न": 570,
      ".j": 571,
      "▁B": 572,
      "▁a": 573,
      "25": 574,
      "ता": 575,
      "es/": 576,
      "ni": 577,
      "త్ర": 578,
      "·**": 579,
      "▁**·**": 580,
      "23": 581,
      "▁से": 582,
      "ig": 583,
      "10": 584,
      "_स": 585,
      "्ट": 586,
      "ాలు": 587,
      "books": 588,
      "_(": 589,
      "cial": 590,
      "రి": 591,
      ".g": 592,
      "26": 593,
      "క్": 594,
      "▁D": 595,
      "्रे": 596,
      "IT": 597,
      "ంద": 598,
      "▁और": 599,
      "angu": 600,
      ".com": 601,
      "▁e": 602,
      "ని": 603,
      "ind": 604,
      "▁వ": 605,
      "24": 606,
      "▁का": 607,
      "ER": 608,
      "▁l": 609,
      "ity": 610,
      "▁•": 611,
      "EF": 612,
      "ITER": 613,
      ".com/": 614,
      "ir": 615,
      "ITEREF": 616,
      "india": 617,
      "▁\"S": 618,
      "ay": 619,
      "▁India\")": 620,
      "sia": 621,
      "me": 622,
      "स्त": 623,
      "ల్": 624,
      "▁\"भारत": 625,
      "षा": 626,
      "ly": 627,
      "భారతదేశం": 628,
      "▁*": 629,
      "▁E": 630,
      "▁[↑](https://en.wikipedia.org/wiki/India#cite_ref-": 631,
      "ion": 632,
      "199": 633,
      "न्द": 634,
      "pecial": 635,
      "ित": 636,
      "▁व": 637,
      "राज्य": 638,
      "ంగ": 639,
      "con": 640,
      "ourc": 641,
      "क्ष": 642,
      "▁స": 643,
      "28": 644,
      "▁आ": 645,
      "_India": 646,
      "_S": 647,
      "\").": 648,
      "▁మ": 649,
      "pecial:": 650,
      "ld": 651,
      "tu": 652,
      "ास": 653,
      "oun": 654,
      "cal": 655,
      "up": 656,
      "#C": 657,
      "Uni": 658,
      "भाषा": 659,
      "▁H": 660,
      "#CITEREF": 661,
      "్రా": 662,
      "gory": 663,
      "ategory": 664,
      "ha": 665,
      "www": 666,
      "978-0": 667,
      "_in": 668,
      "ved": 669,
      "ources/": 670,
      "ategory:": 671,
      "ber": 672,
      "Book": 673,
      "err": 674,
      "11": 675,
      "▁G": 676,
      "पु": 677,
      "outh": 678,
      "▁N": 679,
      "▁त": 680,
      "Sources/": 681,
      "ీయ": 682,
      "pecial:Book": 683,
      "978-0-": 684,
      "pecial:BookSources/": 685,
      "rom": 686,
      "50": 687,
      "op": 688,
      "archi": 689,
      "for": 690,
      "ండ": 691,
      "sh": 692,
      "www.": 693,
      "स्": 694,
      "▁200": 695,
      "देश": 696,
      "-3": 697,
      "ational": 698,
      "ew": 699,
      "anguage": 700,
      "ct": 701,
      "el": 702,
      "_A": 703,
      "జ్య": 704,
      "-4": 705,
      "ress": 706,
      "▁చ": 707,
      "\n-": 708,
      "मा": 709,
      "archive": 710,
      "▁g": 711,
      "▁20": 712,
      ".in": 713,
      "री": 714,
      "▁on": 715,
      "ary": 716,
      "--": 717,
      "ची": 718,
      "णी": 719,
      "22": 720,
      "se": 721,
      "था": 722,
      "▁ग": 723,
      "▁re": 724,
      "ry": 725,
      "ి.": 726,
      "calf": 727,
      "▁---": 728,
      "తా": 729,
      "-8": 730,
      "ము": 731,
      "etcalf": 732,
      ".jpg": 733,
      "30": 734,
      "ub": 735,
      "నా": 736,
      ".[[": 737,
      "్ట": 738,
      "n_": 739,
      "ड़": 740,
      "తి": 741,
      "▁को": 742,
      "▁19": 743,
      "error": 744,
      "18": 745,
      "ष्ट": 746,
      "▁h": 747,
      "ab": 748,
      "](https://en.wikipedia.org/wiki/India#CITEREF": 749,
      "ast": 750,
      "▁.": 751,
      "సి": 752,
      "]](https://hi.wikipedia.org/wiki/भारत#cite_": 753,
      "▁उ": 754,
      "త్": 755,
      "vers": 756,
      "The": 757,
      "ak": 758,
      "ाद": 759,
      "▁ए": 760,
      "archive.org/": 761,
      "od": 762,
      "Har": 763,
      "29": 764,
      "ge": 765,
      "▁[S": 766,
      "▁or": 767,
      "▁n": 768,
      "▁[\"": 769,
      "▁पर": 770,
      "ष्ट्र": 771,
      "est": 772,
      "_of_India": 773,
      "ted": 774,
      "▁F": 775,
      "श्रे": 776,
      "▁[म": 777,
      "ish": 778,
      "▁(identifier)": 779,
      "_(identifier)": 780,
      "▁(identifier)\")": 781,
      "का": 782,
      "श्रेणी": 783,
      "▁J": 784,
      "rit": 785,
      "13": 786,
      "▁सं": 787,
      "web.": 788,
      "](https://web.": 789,
      "/http": 790,
      "▁(సా.శ.": 791,
      "web/": 792,
      "archive.org/web/": 793,
      "](https://web.archive.org/web/": 794,
      "▁है।": 795,
      "श्रेणी:": 796,
      "]](https://en.wikipedia.org/wiki/India#cite_note-FOOTNOTE": 797,
      "_म": 798,
      "ने": 799,
      "▁from": 800,
      "15": 801,
      "40": 802,
      "యా": 803,
      "▁श": 804,
      "orld": 805,
      "ov": 806,
      "प्र": 807,
      "िल": 808,
      "ेत्र": 809,
      "ain": 810,
      "over": 811,
      "ులు": 812,
      "▁రా": 813,
      "ep": 814,
      "_के": 815,
      "mai": 816,
      "▁./": 817,
      "▁p.": 818,
      "gh": 819,
      "im": 820,
      "Metcalf": 821,
      "हि": 822,
      "–సా.శ.": 823,
      "](https://mai": 824,
      "ount": 825,
      "_and": 826,
      "_P": 827,
      "▁by": 828,
      "List": 829,
      "म्": 830,
      "▁for": 831,
      "](https://mai.wikipedia.org/wiki/": 832,
      "▁అ": 833,
      "ust": 834,
      "ले": 835,
      "▁वि": 836,
      "ud": 837,
      "mpl": 838,
      "\"))": 839,
      "27": 840,
      "▁In": 841,
      ".jpg)": 842,
      "umb": 843,
      "gle": 844,
      "▁ప్ర": 845,
      "with": 846,
      "ిక": 847,
      "▁([": 848,
      "s/": 849,
      "ther": 850,
      "id=": 851,
      "्या": 852,
      "17": 853,
      "AA": 854,
      "తం": 855,
      "▁इ": 856,
      "versity": 857,
      "16": 858,
      "▁L": 859,
      "▁ar": 860,
      "सं": 861,
      "िय": 862,
      "](https://hi.wikipedia.org/wiki/भारत#cite_ref-": 863,
      "]](https://hi.wikipedia.org/wiki/भारत#cite_note-": 864,
      "oogle": 865,
      "##": 866,
      "▁[A": 867,
      "▁\"C": 868,
      "14": 869,
      "▁is": 870,
      "ort": 871,
      "har": 872,
      "978-1": 873,
      "ిన": 874,
      "జ్యం": 875,
      "▁O": 876,
      "conom": 877,
      "?id=": 878,
      "_C": 879,
      "ens": 880,
      "▁Indian": 881,
      "सा": 882,
      "▁र": 883,
      "](https://en.wikipedia.org/wiki/S": 884,
      "books.g": 885,
      ".com/books": 886,
      "oogle.com/books": 887,
      "books.google.com/books": 888,
      "books.google.com/books?id=": 889,
      "▁[ISBN": 890,
      "జా": 891,
      ".gov": 892,
      "_के_": 893,
      "▁be": 894,
      "px": 895,
      "arg": 896,
      "errors": 897,
      "▁\"ISBN": 898,
      "ISBN_(identifier)": 899,
      "mons": 900,
      "ంచ": 901,
      "కు": 902,
      "-9": 903,
      "त्त": 904,
      "Harv": 905,
      "*.": 906,
      "ी](https://hi.wikipedia.org/wiki/": 907,
      "inal": 908,
      "](https://te.wikipedia.org/wiki/భారతదేశం": 909,
      "media": 910,
      "'s": 911,
      "em": 912,
      "ज़": 913,
      "▁[*": 914,
      "_in_India": 915,
      "▁W": 916,
      "ను": 917,
      "పూ": 918,
      "राष्ट्र": 919,
      "र्व": 920,
      "ap": 921,
      "▁K": 922,
      "ng": 923,
      "▁Asia": 924,
      "nd": 925,
      "](https://books.google.com/books?id=": 926,
      "భా": 927,
      "▁[C": 928,
      "fn": 929,
      "▁भाषा": 930,
      ".in/": 931,
      "ప్ర": 932,
      "▁th": 933,
      "os": 934,
      "्षेत्र": 935,
      "ద్": 936,
      "ింద": 937,
      "load": 938,
      "ff": 939,
      "uc": 940,
      "ut": 941,
      "de": 942,
      "](https://en.wikipedia.org/wiki/C": 943,
      "p.": 944,
      "upload": 945,
      "University": 946,
      "o-": 947,
      "िस": 948,
      ".wikimedia": 949,
      "▁\"म": 950,
      "▁सा": 951,
      "commons": 952,
      "▁The": 953,
      "▁ఉ": 954,
      "![": 955,
      "av": 956,
      "ot": 957,
      "pedia/": 958,
      ".org/wikipedia/": 959,
      "upload.wikimedia": 960,
      "upload.wikimedia.org/wikipedia/": 961,
      "ం:": 962,
      "thumb": 963,
      "log": 964,
      "-2": 965,
      "ी_": 966,
      "](https://upload.wikimedia.org/wikipedia/": 967,
      "ंड": 968,
      "/thumb": 969,
      "per": 970,
      "/thumb/": 971,
      "▁\"M": 972,
      "-7": 973,
      "](https://upload.wikimedia.org/wikipedia/commons": 974,
      "▁ఆ": 975,
      "▁pp.": 976,
      "s,": 977,
      "जा": 978,
      "पा": 979,
      "▁ल": 980,
      "](https://upload.wikimedia.org/wikipedia/commons/thumb/": 981,
      "ong": 982,
      "px-": 983,
      "1.": 984,
      "PA": 985,
      "br": 986,
      "](S": 987,
      "47": 988,
      "मन": 989,
      "▁ర": 990,
      "und": 991,
      "चि": 992,
      "ूची": 993,
      "▁राज्य": 994,
      "tein": 995,
      "aj": 996,
      "ys": 997,
      "▁[↑](https://en.wikipedia.org/wiki/India#cite_ref-FOOTNOTE": 998,
      "umm": 999,
      ")[[": 1000,
      "మా": 1001,
      "▁సా": 1002,
      "భారతీయ": 1003,
      "pecial:BookSources/978-0-": 1004,
      "▁[M": 1005,
      "_D": 1006,
      "వా": 1007,
      "35": 1008,
      "_M": 1009,
      "ance": 1010,
      "गर": 1011,
      "ी\")": 1012,
      "ow": 1013,
      "రు": 1014,
      "](https://en.wikipedia.org/wiki/M": 1015,
      "कार": 1016,
      "▁भ": 1017,
      "▁य": 1018,
      "विश": 1019,
      "श्रेणी:Harv": 1020,
      "%20": 1021,
      "all": 1022,
      "-5": 1023,
      "iginal": 1024,
      "हा": 1025,
      "art": 1026,
      "Category:": 1027,
      "వి": 1028,
      "ష్ట": 1029,
      "ans": 1030,
      "ార్": 1031,
      "పూ.": 1032,
      "%2": 1033,
      "al_": 1034,
      "ages": 1035,
      "▁हैं": 1036,
      "&pg": 1037,
      ".p": 1038,
      "](https://web.archive.org/web/201": 1039,
      "&pg=": 1040,
      "క్ష": 1041,
      "di": 1042,
      "ec": 1043,
      "ht": 1044,
      "ll": 1045,
      "कि": 1046,
      "rie": 1047,
      "हिन्द": 1048,
      "cy": 1049,
      "](http://": 1050,
      "](https://en.wikipedia.org/wiki/ISBN_(identifier)": 1051,
      "స్థ": 1052,
      "lig": 1053,
      "రిత్ర": 1054,
      "▁[ISBN](https://en.wikipedia.org/wiki/ISBN_(identifier)": 1055,
      "2.": 1056,
      "og": 1057,
      "▁as": 1058,
      "▁[B": 1059,
      "ensus": 1060,
      "▁\"B": 1061,
      "ence": 1062,
      "▁original": 1063,
      "36": 1064,
      "oc": 1065,
      "क्त": 1066,
      "ana": 1067,
      "▁st": 1068,
      "tern": 1069,
      "ंग्रे": 1070,
      "ोल": 1071,
      "న్న": 1072,
      "opul": 1073,
      "_T": 1074,
      "मी": 1075,
      "▁[↑](https://hi.wikipedia.org/wiki/भारत#cite_ref-": 1076,
      "mplate": 1077,
      "&pg=PA": 1078,
      "70": 1079,
      ".jp": 1080,
      "पर": 1081,
      "▁I": 1082,
      "स्तान": 1083,
      "38": 1084,
      "▁Category:": 1085,
      "ेला": 1086,
      "▁क्षेत्र": 1087,
      "ture": 1088,
      "land": 1089,
      "▁\"A": 1090,
      "▁\"P": 1091,
      "\n\n##": 1092,
      "rchi": 1093,
      "▁Press": 1094,
      "▁with": 1095,
      "धान": 1096,
      "-10": 1097,
      "overn": 1098,
      "▁no": 1099,
      "nic": 1100,
      "esh": 1101,
      "द्": 1102,
      "िर": 1103,
      "ेल": 1104,
      "▁कर": 1105,
      "▁Ret": 1106,
      "his": 1107,
      "2006": 1108,
      "ata": 1109,
      "](https://te.wikipedia.org/wiki/భారతదేశం#cite_": 1110,
      "rieved": 1111,
      "▁Retrieved": 1112,
      "ेष": 1113,
      "▁te": 1114,
      "र्म": 1115,
      "omm": 1116,
      "2018": 1117,
      ".jpg/": 1118,
      "ृत": 1119,
      "గా": 1120,
      "्रा": 1121,
      "▁अन": 1122,
      "ంట": 1123,
      "కి": 1124,
      "Indian": 1125,
      "2011": 1126,
      "ore": 1127,
      "ke": 1128,
      "वा": 1129,
      "श्": 1130,
      "से": 1131,
      "](https://en.wikipedia.org/wiki/B": 1132,
      "titu": 1133,
      "ates": 1134,
      "opulation": 1135,
      "ile": 1136,
      "మ్రా": 1137,
      "ine": 1138,
      ".\n-": 1139,
      "ష్ట్ర": 1140,
      "48": 1141,
      "ear": 1142,
      "ंध": 1143,
      "ीप": 1144,
      "](https://hi.wikipedia.org/wiki/म": 1145,
      "\")\n-": 1146,
      "arget": 1147,
      "ummit": 1148,
      "ంత": 1149,
      "▁[अ": 1150,
      "ाना": 1151,
      "*](https://books.google.com/books?id=": 1152,
      "60": 1153,
      "90": 1154,
      "▁&": 1155,
      "िण": 1156,
      "▁१": 1157,
      "▁University": 1158,
      "ue": 1159,
      "-6": 1160,
      "धार": 1161,
      "ोत": 1162,
      "▁\"अ": 1163,
      "](https://en.wikipedia.org/wiki/P": 1164,
      "▁*[": 1165,
      "పు": 1166,
      "ts": 1167,
      "istory": 1168,
      "overnment": 1169,
      "▁\"T": 1170,
      "ries": 1171,
      "Stein": 1172,
      "भि": 1173,
      "▁న": 1174,
      "▁[भारत": 1175,
      "ीय_": 1176,
      "▁ने": 1177,
      "ai": 1178,
      "▁[P": 1179,
      "/https://": 1180,
      "language": 1181,
      "ism": 1182,
      "rchived": 1183,
      "మి": 1184,
      "ాన": 1185,
      "ani": 1186,
      "Ind": 1187,
      "ric": 1188,
      "ank": 1189,
      "ubl": 1190,
      "▁\"क": 1191,
      "▁\"स": 1192,
      "ass": 1193,
      "क्षिण": 1194,
      "▁एक": 1195,
      "7.": 1196,
      "9.": 1197,
      "పా": 1198,
      "▁ఇ": 1199,
      "▁త": 1200,
      "భాష": 1201,
      "ard": 1202,
      "Hind": 1203,
      "ire": 1204,
      "▁de": 1205,
      "▁language": 1206,
      "_N": 1207,
      "%2C": 1208,
      "ूल": 1209,
      "▁ति": 1210,
      "▁was": 1211,
      "sher": 1212,
      "लेख": 1213,
      "0%": 1214,
      "_b": 1215,
      "oi": 1216,
      "45": 1217,
      "ोग": 1218,
      "▁[स": 1219,
      "▁\"E": 1220,
      "▁पु": 1221,
      "विशेष": 1222,
      "పాల": 1223,
      "లీ": 1224,
      "ord": 1225,
      "](https://www.": 1226,
      "eral": 1227,
      "33": 1228,
      "CS": 1229,
      "▁ex": 1230,
      "-t": 1231,
      "a_": 1232,
      "▁దేశ": 1233,
      "స్తా": 1234,
      "anguages": 1235,
      "ंद": 1236,
      "ंत्र": 1237,
      "other": 1238,
      "▁are": 1239,
      "▁an": 1240,
      "ingh": 1241,
      "ations": 1242,
      "వర్": 1243,
      "ాయ": 1244,
      "▁प्रदेश": 1245,
      "विशेष:": 1246,
      ")\n\n": 1247,
      "als": 1248,
      "iss": 1249,
      "/http://": 1250,
      "थि": 1251,
      "▁[क": 1252,
      "4.": 1253,
      "46": 1254,
      "ies": 1255,
      "ere": 1256,
      "ach": 1257,
      "यु": 1258,
      "](https://en.wikipedia.org/wiki/A": 1259,
      "tics": 1260,
      "htm": 1261,
      "మ్రాజ్యం": 1262,
      "_B": 1263,
      "ountries": 1264,
      "ss": 1265,
      "](https://en.wikipedia.org/wiki/E": 1266,
      "les": 1267,
      "mber": 1268,
      "ont": 1269,
      "AJ": 1270,
      "_R": 1271,
      "df": 1272,
      "ib": 1273,
      "जन": 1274,
      "▁\"D": 1275,
      "▁\"List": 1276,
      "దేశ్": 1277,
      "onstitu": 1278,
      "▁\"भारतीय": 1279,
      "BAJ": 1280,
      "QBAJ": 1281,
      "ex": 1282,
      "▁Hind": 1283,
      "धिक": 1284,
      "▁\"ब": 1285,
      "](https://hi.wikipedia.org/wiki/क": 1286,
      "ం](https://te.wikipedia.org/wiki/": 1287,
      "▁r": 1288,
      "▁\"G": 1289,
      "](https://en.wikipedia.org/wiki/T": 1290,
      "39": 1291,
      "mb": 1292,
      "ical": 1293,
      "_G": 1294,
      "नी": 1295,
      "्री": 1296,
      "▁जन": 1297,
      "▁देश": 1298,
      "▁it": 1299,
      "artic": 1300,
      "ంబ": 1301,
      "టి": 1302,
      "ian": 1303,
      "ers": 1304,
      "2010": 1305,
      "गमन": 1306,
      "▁ख": 1307,
      "▁तिथि": 1308,
      "▁(P": 1309,
      "udd": 1310,
      "49": 1311,
      "▁V": 1312,
      "tim": 1313,
      "दी": 1314,
      "द्य": 1315,
      "ी_स": 1316,
      "ूर्व": 1317,
      "ంలో": 1318,
      "▁[978-0-": 1319,
      "ines": 1320,
      "▁भारतीय": 1321,
      "▁तथा": 1322,
      "_Asia": 1323,
      "స్తాన్": 1324,
      "ford": 1325,
      "▁[G": 1326,
      "List_of_": 1327,
      "AAQBAJ": 1328,
      "6.": 1329,
      "aki": 1330,
      "ँच": 1331,
      "ून": 1332,
      "](https://en.wikipedia.org/wiki/D": 1333,
      "![](https://upload.wikimedia.org/wikipedia/commons/thumb/": 1334,
      "iv": 1335,
      "గు": 1336,
      "డు": 1337,
      "నే": 1338,
      "్చ": 1339,
      "77": 1340,
      "National": 1341,
      "_p": 1342,
      "ral": 1343,
      "▁whi": 1344,
      "india.gov": 1345,
      "1998": 1346,
      "conomic": 1347,
      "1)": 1348,
      "ate_": 1349,
      "ढ़": 1350,
      "त्": 1351,
      "▁च": 1352,
      "▁[ब": 1353,
      "▁तिथि:": 1354,
      "▁3": 1355,
      "ern": 1356,
      "_s": 1357,
      "మూ": 1358,
      "eng": 1359,
      "్రీ": 1360,
      "జాత": 1361,
      "43": 1362,
      "xford": 1363,
      "a\")": 1364,
      "hm": 1365,
      "2009": 1366,
      ",_": 1367,
      "ati": 1368,
      "▁2011": 1369,
      "MetcalfMetcalf": 1370,
      "cl": 1371,
      "धर्म": 1372,
      "मान": 1373,
      "िट": 1374,
      "्ल": 1375,
      "లా": 1376,
      "omp": 1377,
      "▁अभि": 1378,
      "ంగా": 1379,
      "▁अभिगमन": 1380,
      "5.": 1381,
      "au": 1382,
      "▁–": 1383,
      "icial": 1384,
      "ction": 1385,
      "ती": 1386,
      "वं": 1387,
      "▁[2": 1388,
      "्रोत": 1389,
      "stan": 1390,
      ")\")": 1391,
      "RI": 1392,
      "ik": 1393,
      "డ్": 1394,
      "ిల్": 1395,
      "▁జ": 1396,
      "\n\n[": 1397,
      "end": 1398,
      "ज्": 1399,
      "हर": 1400,
      "-1)": 1401,
      "lop": 1402,
      "स्क": 1403,
      "▁हैं।": 1404,
      "द्ध": 1405,
      "df)": 1406,
      "DF": 1407,
      "ven": 1408,
      "లి": 1409,
      "స్త్ర": 1410,
      "pecial:BookSources/978-1": 1411,
      "-p": 1412,
      "_1": 1413,
      "ions": 1414,
      "new": 1415,
      "गु": 1416,
      "रकार": 1417,
      "हास": 1418,
      "िश": 1419,
      "▁राज": 1420,
      "250": 1421,
      "पुर": 1422,
      "म्ब": 1423,
      "▁[D": 1424,
      "rou": 1425,
      "ం\")": 1426,
      "కా": 1427,
      "ణా": 1428,
      "దక్ష": 1429,
      "ధిక": 1430,
      "▁[1": 1431,
      "ark": 1432,
      "िका": 1433,
      "▁ప్రా": 1434,
      "▁जा": 1435,
      "▁వి": 1436,
      "स्तक": 1437,
      "पुस्तक": 1438,
      "సియా": 1439,
      "राष्ट्रीय": 1440,
      "विशेष:पुस्तक": 1441,
      "జాతీయ": 1442,
      "्रोत/": 1443,
      "conomy": 1444,
      "bot": 1445,
      "s.": 1446,
      "ties": 1447,
      "vi": 1448,
      "▁स्": 1449,
      "▁(PDF": 1450,
      "oli": 1451,
      "▁\"R": 1452,
      "▁సం": 1453,
      "▁చరిత్ర": 1454,
      "4)": 1455,
      "8.": 1456,
      "port": 1457,
      "▁[E": 1458,
      "▁Ch": 1459,
      "हार": 1460,
      "](https://en.wikipedia.org/wiki/G": 1461,
      "](https://en.wikipedia.org/wiki/R": 1462,
      "](https://hi.wikipedia.org/wiki/स": 1463,
      "ult": 1464,
      "_and_": 1465,
      "fe": 1466,
      "▁which": 1467,
      "డి": 1468,
      "albot": 1469,
      "ame": 1470,
      "ింది.": 1471,
      "ublic": 1472,
      "4%": 1473,
      "DP": 1474,
      "्स": 1475,
      "▁\"प": 1476,
      "▁वर्": 1477,
      "▁इस": 1478,
      "▁भाषा\")": 1479,
      ".pdf)": 1480,
      "3.": 1481,
      "E0%": 1482,
      "ope": 1483,
      "2)": 1484,
      "80": 1485,
      "sv": 1486,
      "न\")": 1487,
      "िव": 1488,
      "ुख": 1489,
      "ంధ": 1490,
      "▁मेला": 1491,
      "riti": 1492,
      "స్త": 1493,
      "▁రాజ్యం": 1494,
      "▁సామ్రాజ్యం": 1495,
      "వర్గ": 1496,
      "దక్షి": 1497,
      "56": 1498,
      "▁South": 1499,
      "000": 1500,
      "United": 1501,
      "Asher": 1502,
      "out": 1503,
      "ुस": 1504,
      "्ड": 1505,
      "रालेख": 1506,
      "र्थ": 1507,
      "▁De": 1508,
      "120": 1509,
      "ob": 1510,
      "దీ": 1511,
      "ండి": 1512,
      "వర్గం:": 1513,
      "ated": 1514,
      ").\n": 1515,
      "द्र": 1516,
      "पाल": 1517,
      "ा_": 1518,
      "ोक": 1519,
      "्च": 1520,
      "▁li": 1521,
      "](https://en.wikipedia.org/wiki/List_of_": 1522,
      "▁हु": 1523,
      "_की_स": 1524,
      "्वीप": 1525,
      "_में": 1526,
      "ite": 1527,
      "▁[T": 1528,
      "territ": 1529,
      "3)": 1530,
      "తర": 1531,
      "వం": 1532,
      "▁బ": 1533,
      "▁[R": 1534,
      "ration": 1535,
      "AAQBAJ&pg=PA": 1536,
      "_भारत": 1537,
      "ध्य": 1538,
      "शिया": 1539,
      "](https://hi.wikipedia.org/wiki/अ": 1540,
      "▁सम": 1541,
      "▁India's": 1542,
      "▁has": 1543,
      "▁[Archived": 1544,
      "▁that": 1545,
      "किस्तान": 1546,
      "ंग्रेज़": 1547,
      "रालेखित": 1548,
      "gen": 1549,
      "na": 1550,
      "ree": 1551,
      "▁2014": 1552,
      "eg": 1553,
      "to": 1554,
      "रब": 1555,
      "ట్": 1556,
      "ిత": 1557,
      "▁5": 1558,
      "▁सूची": 1559,
      "ous": 1560,
      "ange": 1561,
      "▁\"Special:BookSources/978-0-": 1562,
      "त्तर": 1563,
      "](Special:BookSources/978-0-": 1564,
      "▁भी": 1565,
      "RICS": 1566,
      "pend": 1567,
      "iki": 1568,
      "ty": 1569,
      "▁pro": 1570,
      "\"](https://web.archive.org/web/201": 1571,
      "थान": 1572,
      "nolog": 1573,
      "2004": 1574,
      "mpire": 1575,
      "चित्र": 1576,
      "_చ": 1577,
      "sland": 1578,
      "ది": 1579,
      "▁\"N": 1580,
      "▁\"మ": 1581,
      "idge": 1582,
      ".nic": 1583,
      "inist": 1584,
      "के": 1585,
      "फ़": 1586,
      "मिल": 1587,
      "](https://hi.wikipedia.org/wiki/ब": 1588,
      "cont": 1589,
      "ile:": 1590,
      "85": 1591,
      "hel": 1592,
      "▁ఎ": 1593,
      "▁[మ": 1594,
      "ali": 1595,
      "rad": 1596,
      "▁(సా.శ.పూ.": 1597,
      "ountry": 1598,
      "ते": 1599,
      "दक्षिण": 1600,
      "ष्": 1601,
      "▁7": 1602,
      "](https://hi.wikipedia.org/wiki/भारत_में": 1603,
      "▁हि": 1604,
      "_E": 1605,
      "hy": 1606,
      "mer": 1607,
      "▁[N": 1608,
      "aste": 1609,
      "10.": 1610,
      "onstitution": 1611,
      "..": 1612,
      "hist": 1613,
      "velop": 1614,
      "elhi": 1615,
      "mplate_": 1616,
      "%E0%": 1617,
      "File:": 1618,
      "man": 1619,
      "मे": 1620,
      "ధ్య": 1621,
      "▁గ": 1622,
      "▁శ": 1623,
      "▁[प": 1624,
      "▁सरकार": 1625,
      "ంద్ర": 1626,
      "ంది.": 1627,
      "ost": 1628,
      "\\_S": 1629,
      "MetcalfMetcalf2006": 1630,
      "dit": 1631,
      "s\")": 1632,
      "times": 1633,
      "ritish": 1634,
      "census": 1635,
      "गण": 1636,
      "रु": 1637,
      "▁घ": 1638,
      "▁[K": 1639,
      "html": 1640,
      "oh": 1641,
      "ైన": 1642,
      "▁at": 1643,
      "](https://te.wikipedia.org/wiki/మ": 1644,
      "rap": 1645,
      "ack": 1646,
      "▁పే": 1647,
      "-b": 1648,
      "-s": 1649,
      "37": 1650,
      "12": 1651,
      "_प्र": 1652,
      "ah": 1653,
      "ove": 1654,
      "हु": 1655,
      "ा:": 1656,
      "ूच": 1657,
      "ूप": 1658,
      "ूर": 1659,
      "▁२": 1660,
      "ase": 1661,
      "amil": 1662,
      "नाम": 1663,
      "bridge": 1664,
      "ज्ञ": 1665,
      "ansk": 1666,
      "ట్ట": 1667,
      "హింద": 1668,
      "▁భారతదేశం": 1669,
      "](File:": 1670,
      "](https://en.wikipedia.org/wiki/N": 1671,
      "196": 1672,
      "ambridge": 1673,
      "ంగ్": 1674,
      "ద్ధ": 1675,
      "कर": 1676,
      "▁pe": 1677,
      "ames": 1678,
      "ाली": 1679,
      "\"))\n": 1680,
      "श्चि": 1681,
      "velopment": 1682,
      "IN": 1683,
      "ces": 1684,
      "2007": 1685,
      "anskrit": 1686,
      "जी": 1687,
      "ण्ड": 1688,
      "ैद": 1689,
      "ించ": 1690,
      "▁ఒ": 1691,
      "▁భాష": 1692,
      "▁[క": 1693,
      "ాల్": 1694,
      "▁cent": 1695,
      "](https://en.wikipedia.org/wiki/India#cite_ref-FOOTNOTE": 1696,
      "▁तक": 1697,
      "साँच": 1698,
      "lia": 1699,
      ".nic.in/": 1700,
      "\"\n": 1701,
      "521": 1702,
      "world": 1703,
      "▁4": 1704,
      "▁v": 1705,
      "▁\"The": 1706,
      "▁History": 1707,
      "outh_Asia": 1708,
      "yson": 1709,
      "la": 1710,
      "qu": 1711,
      "ख्या": 1712,
      "▁\"K": 1713,
      "ant": 1714,
      "](https://hi.wikipedia.org/wiki/भारतीय_": 1715,
      "ury": 1716,
      "न्न": 1717,
      "]](https://te.wikipedia.org/wiki/భారతదేశం#cite_": 1718,
      "చ్చ": 1719,
      "జీ": 1720,
      "ేంద్ర": 1721,
      "▁un": 1722,
      "▁[978-1": 1723,
      "▁\"క": 1724,
      "\")\n\n": 1725,
      "/c": 1726,
      "7)": 1727,
      "duc": 1728,
      "mund": 1729,
      "ug": 1730,
      "usic": 1731,
      "othermund": 1732,
      "\nCategory:": 1733,
      "RC": 1734,
      "Singh": 1735,
      "emplate": 1736,
      "वी": 1737,
      "सम": 1738,
      "▁U": 1739,
      "▁\"Indian": 1740,
      "्रिट": 1741,
      "▁(201": 1742,
      "ों_की_स": 1743,
      "न्द्र": 1744,
      "▁its": 1745,
      "lish": 1746,
      "tive": 1747,
      "\\_errors": 1748,
      "ulke": 1749,
      "_and_S": 1750,
      "help": 1751,
      "త్య": 1752,
      "బ్": 1753,
      "మీ": 1754,
      "orth": 1755,
      "▁[the": 1756,
      "inent": 1757,
      "isation": 1758,
      "](https://te.wikipedia.org/wiki/ద": 1759,
      "▁se": 1760,
      "్యా": 1761,
      "రాష్ట్ర": 1762,
      "▁./వర్గం:": 1763,
      "59": 1764,
      "Dw": 1765,
      "ath": 1766,
      "ंब": 1767,
      "ओं": 1768,
      "न्त": 1769,
      "](https://hi.wikipedia.org/wiki/प": 1770,
      "lection": 1771,
      "ood": 1772,
      "\\_and": 1773,
      "ign": 1774,
      "चीन": 1775,
      "▁reg": 1776,
      "]](https://hi.wikipedia.org/wiki/भारत#cite_note-FOOTNOTE": 1777,
      "जाब": 1778,
      "ligion": 1779,
      "5)": 1780,
      "pu": 1781,
      "▁[![": 1782,
      "ome": 1783,
      "ashm": 1784,
      "ril": 1785,
      "lion": 1786,
      "\n\n###": 1787,
      "roup": 1788,
      "6)": 1789,
      "A4%": 1790,
      "Oxford": 1791,
      "World": 1792,
      "rd": 1793,
      "s-": 1794,
      "▁errors": 1795,
      "\")*": 1796,
      "alay": 1797,
      "ulture": 1798,
      "row": 1799,
      "▁([help": 1800,
      "dition": 1801,
      "akistan": 1802,
      "▁errors\"))\n": 1803,
      "34": 1804,
      "जरा": 1805,
      "ంక": 1806,
      "ప్": 1807,
      "యు": 1808,
      "▁[उ": 1809,
      "any": 1810,
      "▁किया": 1811,
      "ater": 1812,
      "▁हो": 1813,
      "uring": 1814,
      "▁नि": 1815,
      "▁विश": 1816,
      "తంత్ర": 1817,
      "_के_राज्य": 1818,
      "](https://te.wikipedia.org/wiki/భారతదేశం#cite_ref-": 1819,
      "Stein1998": 1820,
      "_by": 1821,
      "ंदिर": 1822,
      "దక్షిణ": 1823,
      "]](https://te.wikipedia.org/wiki/భారతదేశం#cite_note-": 1824,
      "Singh2009": 1825,
      "ef": 1826,
      "▁199": 1827,
      "arch": 1828,
      "▁18": 1829,
      "age/": 1830,
      "alth": 1831,
      "2005": 1832,
      "ुल": 1833,
      "ोर": 1834,
      "ten": 1835,
      "irst": 1836,
      "▁./श्रेणी:": 1837,
      "/https://www.": 1838,
      "ुसार": 1839,
      ".sv": 1840,
      "05": 1841,
      "_స": 1842,
      "తము": 1843,
      "వే": 1844,
      "ష్": 1845,
      "ాన్": 1846,
      "▁8": 1847,
      "స్క": 1848,
      "urope": 1849,
      "matics": 1850,
      "▁languages": 1851,
      "ిల్లీ": 1852,
      "_d": 1853,
      "_language": 1854,
      "fn_": 1855,
      "led": 1856,
      "▁error": 1857,
      "template_": 1858,
      "no-t": 1859,
      "\\_no-t": 1860,
      "▁cont": 1861,
      "▁St": 1862,
      "▁Sfn": 1863,
      "▁target": 1864,
      "fn\\_no-t": 1865,
      "▁template": 1866,
      "arget\\_errors": 1867,
      "\\_Sfn\\_no-t": 1868,
      "_and_Sfn_": 1869,
      "\\_and\\_Sfn\\_no-t": 1870,
      "▁error:": 1871,
      "template_errors": 1872,
      "▁target:": 1873,
      "arget\\_errors\n": 1874,
      "_and_Sfn_template_errors": 1875,
      "\\_and\\_Sfn\\_no-target\\_errors\n": 1876,
      "74": 1877,
      "ंजाब": 1878,
      "ब्": 1879,
      "वन": 1880,
      "सभ": 1881,
      "▁2": 1882,
      "▁ad": 1883,
      "▁[L": 1884,
      "ined": 1885,
      "](https://en.wikipedia.org/wiki/K": 1886,
      "▁sub": 1887,
      "▁wh": 1888,
      "▁खाना": 1889,
      "250px-": 1890,
      "radesh": 1891,
      "ों_की_सूची": 1892,
      "odern": 1893,
      ".;": 1894,
      "ms": 1895,
      "జి": 1896,
      "ధాన": 1897,
      "బె": 1898,
      "\").\n-": 1899,
      "ారు": 1900,
      "▁CITEREF": 1901,
      "▁కా": 1902,
      "▁రాజ": 1903,
      "AARC": 1904,
      "ograp": 1905,
      "-g": 1906,
      "_भाषा": 1907,
      "चल": 1908,
      "प्त": 1909,
      "बसे": 1910,
      "▁26": 1911,
      "ेंद्र": 1912,
      "](https://hi.wikipedia.org/wiki/भारत_क": 1913,
      "ालय": 1914,
      "▁2021": 1915,
      "▁गया": 1916,
      "▁[मूल": 1917,
      "पाकिस्तान": 1918,
      "▁राज्यों": 1919,
      "▁सूची\")": 1920,
      "_F": 1921,
      "▁mil": 1922,
      "ission": 1923,
      "\"](https://www.": 1924,
      "▁were": 1925,
      "tical": 1926,
      "ound": 1927,
      "1_": 1928,
      "Edit": 1929,
      "Page/": 1930,
      "ैन": 1931,
      "దు": 1932,
      "మ్": 1933,
      "శ్": 1934,
      "▁\"उ": 1935,
      "](https://te.wikipedia.org/wiki/క": 1936,
      "▁मान": 1937,
      "usines": 1938,
      "్యవ": 1939,
      "▁प्रा": 1940,
      "स्था": 1941,
      "▁2007": 1942,
      "Stein2010": 1943,
      "युक्त": 1944,
      "स्कृत": 1945,
      "_చరిత్ర": 1946,
      "continent": 1947,
      "EditPage/": 1948,
      "-m": 1949,
      "0.": 1950,
      "data": 1951,
      "rg": 1952,
      "▁le": 1953,
      "erv": 1954,
      "ice": 1955,
      "▁sfn": 1956,
      "Indo-": 1957,
      "▁Hindu": 1958,
      "india.gov.in/": 1959,
      "58": 1960,
      "PP": 1961,
      "doi": 1962,
      "val": 1963,
      "2003": 1964,
      "▁Comm": 1965,
      "-india": 1966,
      "hind": 1967,
      "olog": 1968,
      "▁ha": 1969,
      "▁सबसे": 1970,
      "omb": 1971,
      "une": 1972,
      "ियों": 1973,
      "▁पुरालेखित": 1974,
      "चित्र:": 1975,
      "्रिटिश": 1976,
      "▁पुरालेखित।": 1977,
      "Talbot": 1978,
      "ఢిల్లీ": 1979,
      "పంచ": 1980,
      "▁\"L": 1981,
      "ారి": 1982,
      ".jpg)](File:": 1983,
      "మూస": 1984,
      "AsherTalbot": 1985,
      "_the": 1986,
      "ru": 1987,
      "▁25": 1988,
      "off": 1989,
      "2008": 1990,
      "▁Ap": 1991,
      "](http://www.": 1992,
      "_c": 1993,
      "hand": 1994,
      "ran": 1995,
      "uary": 1996,
      "](https://hi.wikipedia.org/wiki/चित्र:": 1997,
      "याल": 1998,
      "▁अधिक": 1999,
      "ियाँ": 2000,
      "old": 2001,
      "ght": 2002,
      "क्ति": 2003,
      "▁१९": 2004,
      "9)": 2005,
      "History": 2006,
      "_L": 2007,
      "yste": 2008,
      "1,": 2009,
      "62": 2010,
      "వు": 2011,
      "▁\"భారతీయ": 2012,
      "C&pg=PA": 2013,
      "आई": 2014,
      "ज्य": 2015,
      "म्रा": 2016,
      "वरी": 2017,
      "शास": 2018,
      "्ला": 2019,
      "।[[": 2020,
      "▁कि": 2021,
      "rate": 2022,
      "▁जिस": 2023,
      "स्थान": 2024,
      "▁उप": 2025,
      "](https://web.archive.org/web/20": 2026,
      "ternational": 2027,
      "श्मी": 2028,
      "\n\n[![](https://upload.wikimedia.org/wikipedia/commons/thumb/": 2029,
      "%E0%A4%": 2030,
      "-d": 2031,
      "ail": 2032,
      "air": 2033,
      "uk": 2034,
      "on-": 2035,
      "cies": 2036,
      "\").[[": 2037,
      "inistry": 2038,
      "/artic": 2039,
      "330": 2040,
      "▁**[": 2041,
      "Wiki": 2042,
      "vis": 2043,
      "एस": 2044,
      "की": 2045,
      "च्च": 2046,
      "तमिल": 2047,
      "दा": 2048,
      "बंध": 2049,
      "జన": 2050,
      "టు": 2051,
      "టె": 2052,
      "▁धर्म": 2053,
      "eneral": 2054,
      "ari": 2055,
      "](https://en.wikipedia.org/wiki/Indian_": 2056,
      "](https://hi.wikipedia.org/wiki/भारत#CITEREF": 2057,
      "्वर": 2058,
      "तिहास": 2059,
      "▁आधार": 2060,
      "▁చె": 2061,
      "నాయ": 2062,
      "▁संघ": 2063,
      "–సా.శ.పూ.": 2064,
      "▁Asian": 2065,
      "▁साथ": 2066,
      "▁ఆర్": 2067,
      "▁[भारतीय": 2068,
      "పాలిత": 2069,
      "స్త్రం:": 2070,
      "▁ప్రాంత": 2071,
      "](https://hi.wikipedia.org/wiki/भारत_में_": 2072,
      "ేంద్రపాలిత": 2073,
      "](https://te.wikipedia.org/wiki/దస్త్రం:": 2074,
      "म्राज्य": 2075,
      "national": 2076,
      "uly": 2077,
      "ace": 2078,
      "ctor": 2079,
      "-in": 2080,
      "रे": 2081,
      "ागर": 2082,
      "▁था": 2083,
      "▁\"श्रेणी:Harv": 2084,
      "ina": 2085,
      "](https://hi.wikipedia.org/wiki/श्रेणी:Harv": 2086,
      "▁सि": 2087,
      "िया\")": 2088,
      "▁बाद": 2089,
      "माण": 2090,
      "िल्ल": 2091,
      "▁./श्रेणी:Harv": 2092,
      "▁([help](https://hi.wikipedia.org/wiki/श्रेणी:Harv": 2093,
      "▁विश्व": 2094,
      "_and_Sfn_template_errors?action=edit&redlink=1": 2095,
      "▁./श्रेणी:Harv\\_and\\_Sfn\\_no-target\\_errors\n": 2096,
      "▁([help](https://hi.wikipedia.org/wiki/श्रेणी:Harv_and_Sfn_template_errors?action=edit&redlink=1": 2097,
      "/p": 2098,
      "65": 2099,
      "Rothermund": 2100,
      "ఖ్య": 2101,
      "గో": 2102,
      "తో": 2103,
      "బి": 2104,
      "హి": 2105,
      "ories": 2106,
      "▁\"F": 2107,
      "](https://en.wikipedia.org/wiki/L": 2108,
      "▁17": 2109,
      "స్కృ": 2110,
      "▁territ": 2111,
      "ork": 2112,
      "rib": 2113,
      "1/": 2114,
      "Kulke": 2115,
      "shi": 2116,
      "yn": 2117,
      "टी": 2118,
      "णा": 2119,
      "तंत्र": 2120,
      "मुख": 2121,
      "ीन": 2122,
      "ोर्": 2123,
      "ority": 2124,
      "](https://hi.wikipedia.org/wiki/उ": 2125,
      "्यट": 2126,
      "_सं": 2127,
      "nglish": 2128,
      ".jpg/250px-": 2129,
      "ashmir": 2130,
      "57": 2131,
      "69": 2132,
      "cre": 2133,
      "les/": 2134,
      "ori": 2135,
      "ister": 2136,
      "2014": 2137,
      "_Indian_": 2138,
      "ystem": 2139,
      "-l": 2140,
      "121": 2141,
      "8/": 2142,
      "_ప": 2143,
      "fter": 2144,
      "mar": 2145,
      "year": 2146,
      "హా": 2147,
      "▁ను": 2148,
      "▁జాతీయ": 2149,
      "▁pl": 2150,
      "aman": 2151,
      "ాలు\")": 2152,
      "ustry": 2153,
      "%20%20": 2154,
      "▁చరిత్ర\")": 2155,
      "DwAAQBAJ&pg=PA": 2156,
      "్యవస్థ": 2157,
      "ph": 2158,
      "गढ़": 2159,
      "वे": 2160,
      "ांग": 2161,
      "▁[सं": 2162,
      "▁2010": 2163,
      "क्षेत्र": 2164,
      "isher": 2165,
      "▁शास": 2166,
      "ongress": 2167,
      "▁हिन्द": 2168,
      "श्चिम": 2169,
      "lass": 2170,
      "▁6": 2171,
      "▁ri": 2172,
      "](https://en.wikipedia.org/wiki/F": 2173,
      "▁ch": 2174,
      "▁An": 2175,
      "Union": 2176,
      "aint": 2177,
      "/http://www.": 2178,
      "▁April": 2179,
      "KulkeRothermund": 2180,
      "100": 2181,
      "edi": 2182,
      "▁this": 2183,
      "lim": 2184,
      "umber": 2185,
      "▁15": 2186,
      "ople": 2187,
      "ower": 2188,
      "aw": 2189,
      "दे": 2190,
      "में": 2191,
      "वर्": 2192,
      "ही": 2193,
      "డా": 2194,
      "దా": 2195,
      "బడ": 2196,
      "మే": 2197,
      "రణ": 2198,
      "▁थ": 2199,
      "▁లో": 2200,
      "▁[F": 2201,
      "▁कार": 2202,
      "्वार": 2203,
      "▁కూ": 2204,
      "ాలు,": 2205,
      "▁రాష్ట్ర": 2206,
      "▁World": 2207,
      "కిస్తాన్": 2208,
      "Hindi": 2209,
      "गुजरा": 2210,
      "_प्रदेश": 2211,
      "ombined": 2212,
      ".\"\n": 2213,
      "news/": 2214,
      "iver": 2215,
      "uch": 2216,
      "ugh": 2217,
      "▁India,": 2218,
      "ley": 2219,
      "low": 2220,
      "▁New": 2221,
      "imes": 2222,
      "7-1": 2223,
      "_और": 2224,
      "aper": 2225,
      "एं": 2226,
      "धी": 2227,
      "ेर": 2228,
      "▁[न": 2229,
      "▁dis": 2230,
      "ड़ा": 2231,
      "▁यह": 2232,
      "ज्ञान": 2233,
      "att": 2234,
      "uj": 2235,
      "▁ఈ": 2236,
      "▁ag": 2237,
      "▁భారత": 2238,
      "entre": 2239,
      "ats": 2240,
      "uman": 2241,
      "▁10": 2242,
      "త్రి": 2243,
      "ాలు](https://te.wikipedia.org/wiki/": 2244,
      "▁\"Special:BookSources/978-1": 2245,
      "▁./Category:": 2246,
      "fficial": 2247,
      "brary": 2248,
      "](Special:BookSources/978-1": 2249,
      "▁Island": 2250,
      "emplate:": 2251,
      ",000": 2252,
      "2_": 2253,
      "▁[W": 2254,
      "▁[t": 2255,
      "▁countries": 2256,
      "mple": 2257,
      "▁Empire": 2258,
      "Combined": 2259,
      "_m": 2260,
      "तर": 2261,
      "भी": 2262,
      "००": 2263,
      "▁\"विशेष:पुस्तक": 2264,
      "](https://hi.wikipedia.org/wiki/ISBN_(identifier)": 2265,
      "](https://hi.wikipedia.org/wiki/विशेष:पुस्तक": 2266,
      "▁स्रोत/": 2267,
      "▁पा": 2268,
      "](https://hi.wikipedia.org/wiki/भारत_के_": 2269,
      "line": 2270,
      "लाई": 2271,
      "_स्रोत/": 2272,
      "iron": 2273,
      "▁July": 2274,
      "▁रूप": 2275,
      "▁[ISBN](https://hi.wikipedia.org/wiki/ISBN_(identifier)": 2276,
      "_के_आ": 2277,
      "▁Asia\")": 2278,
      "ी_भाषा": 2279,
      "▁लि": 2280,
      "▁यु": 2281,
      "▁not": 2282,
      "त्प": 2283,
      "साँचा:": 2284,
      "ledge": 2285,
      "ांग्ला": 2286,
      "](https://hi.wikipedia.org/wiki/विशेष:पुस्तक_स्रोत/": 2287,
      "75": 2288,
      "_re": 2289,
      "ution": 2290,
      "▁9": 2291,
      "cient": 2292,
      "entral": 2293,
      "▁Pl": 2294,
      "map": 2295,
      "semb": 2296,
      "\"](https://": 2297,
      "Dyson": 2298,
      "_క": 2299,
      "_In": 2300,
      "_at": 2301,
      "ober": 2302,
      "తు": 2303,
      "పతి": 2304,
      "▁ని": 2305,
      "▁స్థ": 2306,
      "▁[అ": 2307,
      "▁[ప": 2308,
      "▁\"భారతదేశం": 2309,
      "hic": 2310,
      "ed.": 2311,
      "్రి": 2312,
      "1947": 2313,
      "now": 2314,
      "radition": 2315,
      "ref-1": 2316,
      "note-1": 2317,
      "ర్వ": 2318,
      "న్ని": 2319,
      "మిళ": 2320,
      "Hindu": 2321,
      "▁(PDF)": 2322,
      "వంశ": 2323,
      "330px-": 2324,
      "2-0)": 2325,
      "51": 2326,
      "a,": 2327,
      "ure": 2328,
      "ंप": 2329,
      "तेल": 2330,
      "बर": 2331,
      "मह": 2332,
      "सद": 2333,
      "िन": 2334,
      "▁24": 2335,
      "▁राष्ट्रीय": 2336,
      "▁नाम": 2337,
      "▁स्व": 2338,
      "▁off": 2339,
      "्यव": 2340,
      "ram": 2341,
      "act": 2342,
      "▁cons": 2343,
      "▁Pro": 2344,
      "▁[↑](https://hi.wikipedia.org/wiki/भारत#cite_": 2345,
      "▁जु": 2346,
      "▁दक्षिण": 2347,
      "ेश्वर": 2348,
      "▁है,": 2349,
      "india/": 2350,
      "▁government": 2351,
      "ूचना": 2352,
      "73": 2353,
      "athe": 2354,
      "dom": 2355,
      "uis": 2356,
      "van": 2357,
      "viron": 2358,
      "king": 2359,
      "tember": 2360,
      "lear": 2361,
      "▁\"South": 2362,
      "eptember": 2363,
      "ummit\")": 2364,
      "vironment": 2365,
      "/0": 2366,
      "pt": 2367,
      "ves": 2368,
      "\")**": 2369,
      "▁En": 2370,
      "_మ": 2371,
      "_पर": 2372,
      "_భాష": 2373,
      "ocial": 2374,
      "pr": 2375,
      "एशिया": 2376,
      "पति": 2377,
      "बाद": 2378,
      "रक्ष": 2379,
      "ली": 2380,
      "सी": 2381,
      "ाष्ट्र": 2382,
      "ఫ్": 2383,
      "▁k": 2384,
      "▁us": 2385,
      "▁స్": 2386,
      "▁[J": 2387,
      "▁[బ": 2388,
      "▁[స": 2389,
      "▁[हिन्द": 2390,
      "▁\"J": 2391,
      "▁\"అ": 2392,
      "▁पूर्व": 2393,
      "ide": 2394,
      "rab": 2395,
      "िक्ष": 2396,
      "▁अप": 2397,
      "▁Pradesh": 2398,
      "న్నాయ": 2399,
      "▁16": 2400,
      "▁दे": 2401,
      "▁కాల": 2402,
      "ional": 2403,
      "▁विक": 2404,
      "▁गण": 2405,
      "_मेला": 2406,
      "नेमा": 2407,
      "ులు](https://te.wikipedia.org/wiki/": 2408,
      ".jpg)](https://te.wikipedia.org/wiki/దస్త్రం:": 2409,
      "▁రై": 2410,
      "धार_पर": 2411,
      "द्योग": 2412,
      "engal": 2413,
      "हाराष्ट्र": 2414,
      "హిందూ": 2415,
      "▁Commission": 2416,
      "▁have": 2417,
      "_के_आधार_पर": 2418,
      "_के_आधार_पर_भारत": 2419,
      "%28": 2420,
      "/A": 2421,
      "76": 2422,
      "also": 2423,
      "-c": 2424,
      "8)": 2425,
      "ote": 2426,
      "▁year": 2427,
      "](https://en.wikipedia.org/wiki/J": 2428,
      "▁into": 2429,
      "_Press": 2430,
      "uclear": 2431,
      ".svg": 2432,
      "uropean": 2433,
      "Dyson2018": 2434,
      "eth": 2435,
      "pib": 2436,
      "खा": 2437,
      "ल\")": 2438,
      "वाद": 2439,
      "स्ट": 2440,
      "▁21": 2441,
      "▁\"इ": 2442,
      "\")*.": 2443,
      "ince": 2444,
      "time": 2445,
      "ार्": 2446,
      "ार्ट": 2447,
      "▁मंदिर": 2448,
      "विधान": 2449,
      "ंगा": 2450,
      "▁न्या": 2451,
      "▁2023": 2452,
      "▁2024": 2453,
      "-80": 2454,
      "▁अनुसार": 2455,
      "ंग्रेज़ी": 2456,
      "▁पुरालेखित।.": 2457,
      "▁जुलाई": 2458,
      "_के_आधार_पर_भारत_के_राज्य": 2459,
      "_K": 2460,
      "mi": 2461,
      "oor": 2462,
      "ఆసియా": 2463,
      "ద్ర": 2464,
      "భూ": 2465,
      "మె": 2466,
      "య్య": 2467,
      "ర్య": 2468,
      "▁ల": 2469,
      "▁\"ప": 2470,
      "▁\"బ": 2471,
      "▁\"స": 2472,
      "annic": 2473,
      "▁their": 2474,
      "▁India:": 2475,
      "▁par": 2476,
      "▁comp": 2477,
      "anges": 2478,
      "▁[↑](https://te.wikipedia.org/wiki/భారతదేశం#cite_ref-": 2479,
      "▁during": 2480,
      "230": 2481,
      "ctober": 2482,
      "త్త": 2483,
      "odi": 2484,
      "ritannic": 2485,
      "▁అధిక": 2486,
      "▁ప్రదేశ్": 2487,
      "▁October": 2488,
      "argest": 2489,
      "ప్రదేశ్": 2490,
      "▁language\")": 2491,
      "india.gov.in": 2492,
      "_summit": 2493,
      "▁(PDF).": 2494,
      "▁[Archived](https://web.archive.org/web/20": 2495,
      "▁నుండి": 2496,
      "న్నాయి.": 2497,
      "84": 2498,
      "jab": 2499,
      "▁22": 2500,
      "inister": 2501,
      "India)": 2502,
      "▁2019": 2503,
      "nologue": 2504,
      "history": 2505,
      "liament": 2506,
      "_H": 2507,
      "_अ": 2508,
      "countries": 2509,
      "par": 2510,
      "son": 2511,
      "जय": 2512,
      "टे": 2513,
      "िन्": 2514,
      "ोन": 2515,
      "ond": 2516,
      "▁मु": 2517,
      "19-8": 2518,
      "idd": 2519,
      "\\_with": 2520,
      "▁Archived": 2521,
      "▁Aug": 2522,
      "▁first": 2523,
      "नाग": 2524,
      "नेपाल": 2525,
      "ffair": 2526,
      "▁[↑](https://hi.wikipedia.org/wiki/भारत#cite_ref-FOOTNOTE": 2527,
      "▁Press\").": 2528,
      "▁देशों": 2529,
      "udden": 2530,
      "outledge": 2531,
      "120px-": 2532,
      "्यवस्था": 2533,
      "▁August": 2534,
      "-re": 2535,
      "fl": 2536,
      "ive": 2537,
      "▁also": 2538,
      "2023": 2539,
      "▁part": 2540,
      "\n\n-": 2541,
      "▁2016": 2542,
      "ayan": 2543,
      ".jpg/330px-": 2544,
      "2-": 2545,
      "87": 2546,
      "gy": 2547,
      "ణి": 2548,
      "తమిళ": 2549,
      "మైన": 2550,
      "హార": 2551,
      "ోర్": 2552,
      "–1": 2553,
      "▁\"ఇ": 2554,
      "▁\"భారత": 2555,
      "arat": 2556,
      "cience": 2557,
      "](https://te.wikipedia.org/wiki/బ": 2558,
      "▁class": 2559,
      "▁Sh": 2560,
      "ill": 2561,
      "▁Re": 2562,
      "▁మొ": 2563,
      "నాగ": 2564,
      "త్తర": 2565,
      "ులు\")": 2566,
      "▁2014.\n": 2567,
      "ారు.": 2568,
      "శ్మీ": 2569,
      "మూస:": 2570,
      "%29": 2571,
      "-language": 2572,
      "ta": 2573,
      "ंक": 2574,
      "क्स": 2575,
      "श्री": 2576,
      "िम": 2577,
      "▁[इ": 2578,
      "▁\"न": 2579,
      "▁\"हिन्द": 2580,
      "er,": 2581,
      "▁Population": 2582,
      "_क्षेत्र": 2583,
      "▁world": 2584,
      "ंगाल": 2585,
      "▁तट": 2586,
      "▁एवं": 2587,
      "▁एशिया": 2588,
      "▁June": 2589,
      ".jpg)\n\n": 2590,
      "▁प्रदेश\")": 2591,
      "धिकार": 2592,
      "▁समय": 2593,
      "श्मीर": 2594,
      "71": 2595,
      "ban": 2596,
      "ibrary": 2597,
      "one": 2598,
      "racy": 2599,
      "▁system": 2600,
      "etwe": 2601,
      "▁September": 2602,
      "chnolog": 2603,
      "210": 2604,
      "▁Th": 2605,
      "hism": 2606,
      "904": 2607,
      "\\_with\\_": 2608,
      "etween": 2609,
      "\".": 2610,
      "▁[I": 2611,
      "▁[[": 2612,
      "estern": 2613,
      "▁con": 2614,
      "adu": 2615,
      "unjab": 2616,
      "▁Metcalf": 2617,
      "ishing": 2618,
      "-2)": 2619,
      "▁[Archived](https://web.archive.org/web/201": 2620,
      "ology": 2621,
      "79": 2622,
      "_%28": 2623,
      "pl": 2624,
      "rans": 2625,
      "tal": 2626,
      "त्य": 2627,
      "दिल्ल": 2628,
      "लोक": 2629,
      "ीस": 2630,
      "ैक": 2631,
      "శా": 2632,
      "ైనా": 2633,
      "▁wi": 2634,
      "▁[ఇ": 2635,
      "▁\"జ": 2636,
      "▁\"सं": 2637,
      "▁केंद्र": 2638,
      "](https://te.wikipedia.org/wiki/ఇ": 2639,
      "](https://te.wikipedia.org/wiki/స": 2640,
      "▁मा": 2641,
      "ool": 2642,
      "र्द": 2643,
      "▁Act": 2644,
      "భారత_": 2645,
      "urr": 2646,
      "ural": 2647,
      "rop": 2648,
      "రాజ": 2649,
      "भाग": 2650,
      "లో](https://te.wikipedia.org/wiki/": 2651,
      "resid": 2652,
      "రిజ": 2653,
      "క్కు": 2654,
      "1994": 2655,
      "pecial:BookSources/978": 2656,
      "ండ్": 2657,
      "ड़ी": 2658,
      "संख्या": 2659,
      "राष्ट्रपति": 2660,
      "▁साम्राज्य": 2661,
      "हासागर": 2662,
      "▁subcontinent": 2663,
      "शासित": 2664,
      "స్కృతి": 2665,
      "गुजरात": 2666,
      "CE": 2667,
      "ne": 2668,
      "ron": 2669,
      "▁population": 2670,
      "▁2006": 2671,
      "ortal": 2672,
      "▁[*A": 2673,
      "sembly": 2674,
      "-20": 2675,
      "_3": 2676,
      "_University": 2677,
      "ee": 2678,
      "lang": 2679,
      "▁per": 2680,
      "wing": 2681,
      "▁[H": 2682,
      "▁\"H": 2683,
      "int": 2684,
      "International": 2685,
      "▁Cambridge": 2686,
      "▁2018": 2687,
      "igh": 2688,
      "formatics": 2689,
      "▁form": 2690,
      "umbai": 2691,
      "-19": 2692,
      "44": 2693,
      "500": 2694,
      "ck": 2695,
      "fr": 2696,
      "oast": 2697,
      "एँ": 2698,
      "गो": 2699,
      "चे": 2700,
      "धु": 2701,
      "ेट": 2702,
      "ोड़": 2703,
      "ess": 2704,
      "▁मूल": 2705,
      "्यता": 2706,
      "ान\")": 2707,
      "ument": 2708,
      "ाला": 2709,
      "▁जो": 2710,
      "oll": 2711,
      "▁बहु": 2712,
      "▁सेना": 2713,
      "▁Ind": 2714,
      ".jpg)](https://hi.wikipedia.org/wiki/चित्र:": 2715,
      "▁भू": 2716,
      "विश्व": 2717,
      "म्बर": 2718,
      "▁स्थ": 2719,
      "▁वर्ष": 2720,
      "्यटन": 2721,
      ".html": 2722,
      "cri": 2723,
      "ం?action=edit&redlink=1": 2724,
      "చే": 2725,
      "బా": 2726,
      "▁[జ": 2727,
      "▁\"O": 2728,
      "are": 2729,
      "omen": 2730,
      "▁India\"),": 2731,
      "raven": 2732,
      "amb": 2733,
      "▁పా": 2734,
      "term": 2735,
      "▁వా": 2736,
      "ండు": 2737,
      "▁చూ": 2738,
      "త్వ": 2739,
      "epublic": 2740,
      "▁been": 2741,
      "ember": 2742,
      "ప్రధాన": 2743,
      "▁తే": 2744,
      "gency": 2745,
      "1-0)": 2746,
      "arh": 2747,
      "ese": 2748,
      "▁but": 2749,
      "cember": 2750,
      "▁1950": 2751,
      "depend": 2752,
      "chnology": 2753,
      "3-0)": 2754,
      "_I": 2755,
      "_W": 2756,
      "oon": 2757,
      "pp": 2758,
      "ya": 2759,
      "डी": 2760,
      "तिक": 2761,
      "भू": 2762,
      "वै": 2763,
      "ृति": 2764,
      "▁[3": 2765,
      "tec": 2766,
      "eser": 2767,
      "▁मे": 2768,
      "rade": 2769,
      "▁between": 2770,
      "नाथ": 2771,
      "▁2009": 2772,
      "▁\"Ch": 2773,
      ".jpg/120px-": 2774,
      "▁अन्य": 2775,
      "earch": 2776,
      "auth": 2777,
      "ritannica": 2778,
      "iddle": 2779,
      "_University_Press": 2780,
      ")\n-": 2781,
      "ok": 2782,
      "rish": 2783,
      "ual": 2784,
      "▁al": 2785,
      "▁ac": 2786,
      "ped": 2787,
      "▁[e": 2788,
      "▁[v": 2789,
      "\")\n": 2790,
      "\"):": 2791,
      "ise": 2792,
      "edic": 2793,
      "andhi": 2794,
      "amp": 2795,
      "ourt": 2796,
      "able": 2797,
      "avid": 2798,
      "ligi": 2799,
      "view": 2800,
      ".as": 2801,
      "GDP": 2802,
      "Template:": 2803,
      "_సా": 2804,
      "a/": 2805,
      "ft": 2806,
      "fric": 2807,
      "lad": 2808,
      "mu": 2809,
      "por": 2810,
      "tates": 2811,
      "ule": 2812,
      "ంప": 2813,
      "కో": 2814,
      "గణ": 2815,
      "దిన": 2816,
      "నై": 2817,
      "రీ": 2818,
      "▁all": 2819,
      "kim": 2820,
      "▁[![](https://upload.wikimedia.org/wikipedia/commons/thumb/": 2821,
      "encies": 2822,
      "▁\"W": 2823,
      "▁\"చ": 2824,
      "ini": 2825,
      "ering": 2826,
      "](https://te.wikipedia.org/wiki/జ": 2827,
      "ారం": 2828,
      "▁more": 2829,
      "▁క్రీ": 2830,
      "క్‌": 2831,
      "నికి": 2832,
      "ల్ల": 2833,
      "ంగీ": 2834,
      "▁సి": 2835,
      "▁National": 2836,
      "నాభా": 2837,
      "Harle": 2838,
      "▁Jan": 2839,
      "harma": 2840,
      "జాబి": 2841,
      ".gov.in/": 2842,
      "▁bec": 2843,
      "▁[Ch": 2844,
      "](https://en.wikipedia.org/wiki/Ch": 2845,
      "%2F": 2846,
      "▁శా": 2847,
      "▁భాష\")": 2848,
      "బెంగ": 2849,
      "ffairs": 2850,
      "జాబితా": 2851,
      "1–": 2852,
      "Ch": 2853,
      "ose": 2854,
      "ssembly": 2855,
      "ंस": 2856,
      "टक": 2857,
      "डिया": 2858,
      "णि": 2859,
      "तु": 2860,
      "पी": 2861,
      "रण": 2862,
      "रो": 2863,
      "िस्तान": 2864,
      "ीत": 2865,
      "ृष्": 2866,
      "▁Y": 2867,
      "▁छ": 2868,
      "▁फ": 2869,
      "▁28": 2870,
      "▁[ज": 2871,
      "-17": 2872,
      "istan": 2873,
      "str": 2874,
      "▁वा": 2875,
      "▁2020": 2876,
      "▁उत्तर": 2877,
      "▁है।\n\n": 2878,
      "म्म": 2879,
      "_De": 2880,
      "हिन्दी": 2881,
      "वंश": 2882,
      "▁जाता": 2883,
      "र्थिक": 2884,
      "▁निर्": 2885,
      "तंत्रता": 2886,
      "वेब": 2887,
      "द्योगिक": 2888,
      "2/": 2889,
      "4-0)": 2890,
      ":[": 2891,
      "country": 2892,
      "p?": 2893,
      ".org/10.": 2894,
      "▁[Indian": 2895,
      "2024": 2896,
      "ade": 2897,
      "▁music": 2898,
      "▁English": 2899,
      "berg": 2900,
      "▁[Stein": 2901,
      "times.com/": 2902,
      "▁century": 2903,
      "doi.org/10.": 2904,
      "4–": 2905,
      "88": 2906,
      "_t": 2907,
      "fic": 2908,
      "pur": 2909,
      "ze": 2910,
      "▁es": 2911,
      "▁27": 2912,
      "peration": 2913,
      "ofindia": 2914,
      "icy": 2915,
      "eport": 2916,
      "censusindia.gov.in/": 2917,
      "Ar": 2918,
      "Vi": 2919,
      "_O": 2920,
      "emple": 2921,
      "पे": 2922,
      "मार": 2923,
      "मंत्र": 2924,
      "रवरी": 2925,
      "ल्": 2926,
      "ाट": 2927,
      "िज़": 2928,
      "చల్": 2929,
      "యన్": 2930,
      "షు": 2931,
      "ూర్": 2932,
      "▁ड": 2933,
      "▁other": 2934,
      "iation": 2935,
      "ttar": 2936,
      "▁[చ": 2937,
      "▁[భారత": 2938,
      "▁[पु": 2939,
      "▁[భారతీయ": 2940,
      "▁\"I": 2941,
      "▁\"आ": 2942,
      "](https://te.wikipedia.org/wiki/ప": 2943,
      "](https://te.wikipedia.org/wiki/భారతీయ": 2944,
      "ార్ట": 2945,
      "2001": 2946,
      "ాలయ": 2947,
      "▁Census": 2948,
      "▁अग": 2949,
      "विज्ञान": 2950,
      "▁dance": 2951,
      "▁after": 2952,
      "క్క": 2953,
      "▁వ్యవస్థ": 2954,
      "▁East": 2955,
      "▁ము": 2956,
      "fore": 2957,
      "ండో": 2958,
      "-81": 2959,
      "ముంబ": 2960,
      "ड़े": 2961,
      "సిన": 2962,
      "]](https://hi.wikipedia.org/wiki/भारत#cite_note-1": 2963,
      "ाद्वीप": 2964,
      "ినల్": 2965,
      "ी](https://hi.wikipedia.org/wiki/अ": 2966,
      "apit": 2967,
      "ద్ద": 2968,
      "▁ఉన్న": 2969,
      "▁ఉంది.": 2970,
      "▁state": 2971,
      "rick": 2972,
      "పాకిస్తాన్": 2973,
      "clud": 2974,
      "ompany": 2975,
      "ంధీ": 2976,
      "▁ఒక": 2977,
      "▁ఒరిజ": 2978,
      "यालय": 2979,
      "వంశం": 2980,
      "▁[↑](https://hi.wikipedia.org/wiki/भारत#cite_ref-1": 2981,
      "langoff": 2982,
      "▁తేదీ": 2983,
      "ార్టీ": 2984,
      "▁ఒరిజినల్": 2985,
      "81": 2986,
      "▁over": 2987,
      "2019": 2988,
      "ing\\_": 2989,
      "▁comm": 2990,
      "lob": 2991,
      "▁ab": 2992,
      "form": 2993,
      "▁For": 2994,
      "▁region": 2995,
      ".india": 2996,
      "67": 2997,
      "wart": 2998,
      "zberg": 2999,
      "anisation": 3000,
      "ones": 3001,
      "](https://en.wikipedia.org/wiki/W": 3002,
      "alley": 3003,
      "▁ind": 3004,
      "chwart": 3005,
      "▁number": 3006,
      "▁Press.": 3007,
      "olitical": 3008,
      "ovement": 3009,
      "tent": 3010,
      "▁years": 3011,
      "chwartzberg": 3012,
      "*,": 3013,
      "-le": 3014,
      "31": 3015,
      "89": 3016,
      "IM": 3017,
      "_न": 3018,
      "_ब": 3019,
      "ges": 3020,
      "lam": 3021,
      "गोल": 3022,
      "ङ्": 3023,
      "डु": 3024,
      "द्वीप": 3025,
      "धि": 3026,
      "िज": 3027,
      "ील": 3028,
      "ूर्": 3029,
      "▁ऊ": 3030,
      "▁[आ": 3031,
      "▁[Metcalf": 3032,
      "\").\n": 3033,
      "2016": 3034,
      "▁pri": 3035,
      "▁Congress": 3036,
      "atus": 3037,
      "▁Ar": 3038,
      "life": 3039,
      "▁अरब": 3040,
      "_of_the": 3041,
      "नाव": 3042,
      "▁द्वार": 3043,
      "माज": 3044,
      "ode": 3045,
      "ustral": 3046,
      "cyc": 3047,
      "सेना": 3048,
      "-to-": 3049,
      "▁चु": 3050,
      "▁Development": 3051,
      "▁December": 3052,
      "▁हुई": 3053,
      "▁थी": 3054,
      "त्पाद": 3055,
      "▁official": 3056,
      "▁विकास": 3057,
      "censusindia.gov.in/2011": 3058,
      "%7": 3059,
      "7/": 3060,
      "ID": 3061,
      "co": 3062,
      "s.[[": 3063,
      "y\")": 3064,
      "జ్": 3065,
      "వరి": 3066,
      "శ్చ": 3067,
      "ిన్న": 3068,
      "ెల": 3069,
      "▁23": 3070,
      "ia\")": 3071,
      "pear": 3072,
      "▁\"భారతదేశ": 3073,
      "](https://en.wikipedia.org/wiki/H": 3074,
      "arb": 3075,
      "్రె": 3076,
      "1950": 3077,
      "anglad": 3078,
      "▁1,": 3079,
      "▁most": 3080,
      "files/": 3081,
      "▁Talbot": 3082,
      "▁May": 3083,
      "నిస్తాన్": 3084,
      "▁మధ్య": 3085,
      "▁(identifier)\"):[": 3086,
      "](https://te.wikipedia.org/wiki/భారతదేశంలో": 3087,
      "▁ఉన్నాయి.": 3088,
      "స్థాన్": 3089,
      "▁states": 3090,
      "obb": 3091,
      "▁పేజీ": 3092,
      "మ్మూ": 3093,
      "▁\"భారతదేశంలో": 3094,
      "resident": 3095,
      "▁చూసిన": 3096,
      "▁January": 3097,
      "▁తేదీ:": 3098,
      "శ్చి": 3099,
      "angladesh": 3100,
      "▁పేజీని": 3101,
      "5_": 3102,
      "CO": 3103,
      "f/": 3104,
      "pa": 3105,
      "eration": 3106,
      "theast": 3107,
      "asia": 3108,
      "2000": 3109,
      "▁Constitution": 3110,
      "▁13": 3111,
      "ross": 3112,
      "olicy": 3113,
      "-f": 3114,
      "Fisher": 3115,
      "_प": 3116,
      "oth": 3117,
      "ईसा": 3118,
      "कल": 3119,
      "खाना": 3120,
      "योग": 3121,
      "हित": 3122,
      "ौद्ध": 3123,
      "▁$": 3124,
      "▁ध": 3125,
      "▁en": 3126,
      "ara": 3127,
      "](https://hi.wikipedia.org/wiki/इ": 3128,
      "्रम": 3129,
      "▁सु": 3130,
      "▁पार्ट": 3131,
      "▁tw": 3132,
      "come": 3133,
      "union": 3134,
      "▁दिया": 3135,
      "ticles": 3136,
      "▁बढ़": 3137,
      "_सा": 3138,
      "▁election": 3139,
      "पुरी": 3140,
      "▁[South": 3141,
      "▁national": 3142,
      "▁संविधान": 3143,
      "म्प": 3144,
      "](https://mai.wikipedia.org/wiki/भारत": 3145,
      "▁क्षेत्र\")": 3146,
      "▁Hindi": 3147,
      "्रीका": 3148,
      "▁[2](https://en.wikipedia.org/wiki/India#cite_ref-FOOTNOTE": 3149,
      "ikshi": 3150,
      "▁[1](https://en.wikipedia.org/wiki/India#cite_ref-FOOTNOTE": 3151,
      "▁हुआ": 3152,
      "फ़रवरी": 3153,
      "गणना": 3154,
      "ंबई": 3155,
      "▁खाना\")": 3156,
      "ographic": 3157,
      "▁territories": 3158,
      "देव": 3159,
      "▁लिए": 3160,
      "nown": 3161,
      "र्दू": 3162,
      ".indiatimes.com/": 3163,
      "Fisher2018": 3164,
      "ikshit": 3165,
      ")\n": 3166,
      "-26": 3167,
      ".b": 3168,
      "c=": 3169,
      "cat": 3170,
      "has": 3171,
      "orther": 3172,
      "ash": 3173,
      "ased": 3174,
      "▁2012": 3175,
      "ight": 3176,
      "-21": 3177,
      ".n": 3178,
      "124": 3179,
      "CN": 3180,
      "_territ": 3181,
      "cent": 3182,
      "get": 3183,
      "lesh": 3184,
      "lations": 3185,
      "ned": 3186,
      "rin": 3187,
      "site": 3188,
      "va": 3189,
      "షన్": 3190,
      "హ్": 3191,
      "ెలు": 3192,
      "ale": 3193,
      "▁|\n\n": 3194,
      "andard": 3195,
      "](https://te.wikipedia.org/wiki/అ": 3196,
      "ics": 3197,
      "inguis": 3198,
      "ama": 3199,
      "wealth": 3200,
      "▁1.": 3201,
      "▁di": 3202,
      "రియా": 3203,
      "▁మార్": 3204,
      ".jpg)\n-": 3205,
      "▁Oxford": 3206,
      "ndaman": 3207,
      "ప్రపంచ": 3208,
      "ow/": 3209,
      "mbol": 3210,
      "▁సంస్కృతి": 3211,
      "దీవ": 3212,
      "AsherTalbot2008": 3213,
      "▁2006](https://en.wikipedia.org/wiki/India#CITEREF": 3214,
      "leshow/": 3215,
      "/auth": 3216,
      "TR": 3217,
      "_आ": 3218,
      "oci": 3219,
      "ंति": 3220,
      "काल": 3221,
      "न](https://hi.wikipedia.org/wiki/": 3222,
      "निक": 3223,
      "नगर": 3224,
      "फल": 3225,
      "रेल": 3226,
      "वार": 3227,
      "pect": 3228,
      "eds.": 3229,
      "▁मार": 3230,
      "राठ": 3231,
      "▁spe": 3232,
      "िक्": 3233,
      "▁Pe": 3234,
      "▁2017": 3235,
      "▁जून": 3236,
      "▁दिस": 3237,
      "राजस्थान": 3238,
      "▁had": 3239,
      "▁इतिहास": 3240,
      "_Centre": 3241,
      "त्तरा": 3242,
      "जाति": 3243,
      "धानमंत्र": 3244,
      "%2C_": 3245,
      "ative": 3246,
      "स्कृति": 3247,
      "ैदान": 3248,
      "माणु": 3249,
      "ed.).": 3250,
      "महाद्वीप": 3251,
      "ligious": 3252,
      "म्मू": 3253,
      "orthern": 3254,
      "▁दिसम्बर": 3255,
      "Uttar": 3256,
      "ae": 3257,
      "back": 3258,
      "cms": 3259,
      "dis": 3260,
      "eh": 3261,
      "rof": 3262,
      "▁res": 3263,
      "▁0.": 3264,
      "](https://doi.org/10.": 3265,
      "ann": 3266,
      "onwealth": 3267,
      "thnologue": 3268,
      "ough": 3269,
      "ched": 3270,
      "▁Times": 3271,
      "▁March": 3272,
      "▁Budd": 3273,
      "▁BCE": 3274,
      "-40": 3275,
      "emoc": 3276,
      "▁[*India": 3277,
      "▁[2](https://en.wikipedia.org/wiki/India#cite_ref-": 3278,
      "▁[1](https://en.wikipedia.org/wiki/India#cite_ref-": 3279,
      "usiness": 3280,
      "▁2010](https://en.wikipedia.org/wiki/India#CITEREF": 3281,
      "▁Commissioner": 3282,
      "countries_by": 3283,
      "4).": 3284,
      "99": 3285,
      "EO": 3286,
      "IA": 3287,
      "WEO": 3288,
      "▁'": 3289,
      "▁30": 3290,
      "\");": 3291,
      "high": 3292,
      "ered": 3293,
      "city": 3294,
      "tionary": 3295,
      "riod": 3296,
      "▁tradition": 3297,
      "▁Reg": 3298,
      "▁2022": 3299,
      "CS1": 3300,
      "▁became": 3301,
      "&s": 3302,
      ",[[": 3303,
      "-78": 3304,
      "2).": 3305,
      "5-0)": 3306,
      "68": 3307,
      "86": 3308,
      "JP": 3309,
      "LA": 3310,
      "_19": 3311,
      "_11": 3312,
      "bi": 3313,
      "han": 3314,
      "ls": 3315,
      "m.nic.in/": 3316,
      "ncl": 3317,
      "गा": 3318,
      "लि": 3319,
      "सभा": 3320,
      "ेस": 3321,
      "ैल": 3322,
      "ैंड": 3323,
      "०१": 3324,
      "ం\"),": 3325,
      "ంత్రి": 3326,
      "ఆఫ్": 3327,
      "కత": 3328,
      "కై": 3329,
      "క్య": 3330,
      "దాయ": 3331,
      "రే": 3332,
      "లంక": 3333,
      "వీ": 3334,
      "శ్రీ": 3335,
      "షి": 3336,
      "సు": 3337,
      "▁ट": 3338,
      "▁ఏ": 3339,
      "▁up": 3340,
      "▁राष्ट्र": 3341,
      "▁time": 3342,
      "▁फ़रवरी": 3343,
      "▁[సి": 3344,
      "ारी": 3345,
      "](https://hi.wikipedia.org/wiki/सं": 3346,
      "ised": 3347,
      "▁सद": 3348,
      "](https://te.wikipedia.org/wiki/చ": 3349,
      "▁पह": 3350,
      "▁sh": 3351,
      "र्स": 3352,
      "र्जा": 3353,
      "etail": 3354,
      "्ता:": 3355,
      "](https://hi.wikipedia.org/wiki/भारतीय": 3356,
      "స్సా": 3357,
      "▁పరి": 3358,
      "▁పార్టీ": 3359,
      "న్‌": 3360,
      "change": 3361,
      "▁दृ": 3362,
      "ters": 3363,
      "olk": 3364,
      "▁बना": 3365,
      "▁प्रमुख": 3366,
      "▁కు": 3367,
      "ताब्": 3368,
      "▁వచ్చ": 3369,
      "ముద్ర": 3370,
      "abad": 3371,
      "harat": 3372,
      "▁रह": 3373,
      "र्वत": 3374,
      "ंडिया": 3375,
      "पात": 3376,
      ".ph": 3377,
      ".png": 3378,
      "ंग्रेस": 3379,
      "▁It": 3380,
      "గాంధీ": 3381,
      "ीपी": 3382,
      "నేపాల": 3383,
      "olitics": 3384,
      "▁పేరు": 3385,
      "హిందీ": 3386,
      "521-80": 3387,
      "%E0%A4%B": 3388,
      "▁చెయ్య": 3389,
      "▁शासन": 3390,
      "▁हिन्दी": 3391,
      "KulkeRothermund2004": 3392,
      "हीं": 3393,
      "▁కూడా": 3394,
      "ughal": 3395,
      "▁Plate": 3396,
      "904-7": 3397,
      "ంగీతం": 3398,
      "वेबैक": 3399,
      "▁अगस्त": 3400,
      "ముంబై": 3401,
      "IMF": 3402,
      "▁द्वारा": 3403,
      "శ్చిమ": 3404,
      "▁two": 3405,
      "inguistic": 3406,
      "▁మార్గ": 3407,
      "▁मार्च": 3408,
      "nclm.nic.in/": 3409,
      "521-80904-7": 3410,
      "▁చెయ్యబడ": 3411,
      "64": 3412,
      "72": 3413,
      "ect": 3414,
      "nam": 3415,
      "teen": 3416,
      "▁India.": 3417,
      "loy": 3418,
      "cean": 3419,
      "▁*The": 3420,
      "rits": 3421,
      "National_In": 3422,
      "-B": 3423,
      "1]](https://en.wikipedia.org/wiki/India#cite_note-FOOTNOTE": 3424,
      "32": 3425,
      "7,": 3426,
      "8-0)": 3427,
      "Asia": 3428,
      "UN": 3429,
      "_f": 3430,
      "cord": 3431,
      "if": 3432,
      "min": 3433,
      "oa": 3434,
      "▁we": 3435,
      "▁ro": 3436,
      "▁end": 3437,
      "▁Union": 3438,
      "▁[O": 3439,
      "enn": 3440,
      "](https://en.wikipedia.org/wiki/The": 3441,
      "ar,": 3442,
      "read": 3443,
      "omin": 3444,
      "ouse": 3445,
      "▁includ": 3446,
      "rah": 3447,
      "rain": 3448,
      "▁summit\")": 3449,
      "ussia": 3450,
      "▁caste": 3451,
      "00)": 3452,
      "illion": 3453,
      "olper": 3454,
      "1997": 3455,
      "_in_S": 3456,
      "1162": 3457,
      "▁general": 3458,
      "▁2025": 3459,
      "Indus": 3460,
      "▁\"Economy": 3461,
      "](https://en.wikipedia.org/wiki/Economy": 3462,
      "ivil": 3463,
      "Wikipedia": 3464,
      "ujarat": 3465,
      ".aspx": 3466,
      "olpert": 3467,
      "-23": 3468,
      ".htm": 3469,
      "/S": 3470,
      "_देश": 3471,
      "vol": 3472,
      "ंट": 3473,
      "खंड": 3474,
      "खण्ड": 3475,
      "भर": 3476,
      "रू": 3477,
      "व्यवस्था": 3478,
      "ाम": 3479,
      "ुरु": 3480,
      "ुंबई": 3481,
      "ोम": 3482,
      "ोष": 3483,
      "ोस": 3484,
      "ौर": 3485,
      "ौद्योगिक": 3486,
      "▁।": 3487,
      "▁या": 3488,
      "▁29": 3489,
      "▁[ओ": 3490,
      "▁\"ओ": 3491,
      "▁संग": 3492,
      "▁(*": 3493,
      "▁incre": 3494,
      "▁जल": 3495,
      "नाडु": 3496,
      "▁दर": 3497,
      "त्रि": 3498,
      "▁बा": 3499,
      "▁प्रति": 3500,
      "स्त्र": 3501,
      "▁Fe": 3502,
      "](https://hi.wikipedia.org/wiki/भारत#cite_ref-FOOTNOTE": 3503,
      "हाय": 3504,
      "▁हैं,": 3505,
      "किम": 3506,
      "पर्यटन": 3507,
      "-108": 3508,
      "-107-1": 3509,
      "दीव": 3510,
      "▁इसके": 3511,
      "ुख्य": 3512,
      "पालिका": 3513,
      "ज्ञा": 3514,
      "▁प्राप्त": 3515,
      "▁सिनेमा": 3516,
      "िक्षा": 3517,
      "19-88": 3518,
      "धिकारिक": 3519,
      "formatics_Centre": 3520,
      "िक्किम": 3521,
      "National_Informatics_Centre": 3522,
      "5–": 3523,
      "En": 3524,
      "_వ": 3525,
      "her": 3526,
      "lag": 3527,
      "గర": 3528,
      "టక": 3529,
      "టా": 3530,
      "దార": 3531,
      "నీ": 3532,
      "రో": 3533,
      "సభ": 3534,
      "ెద్ద": 3535,
      "▁j": 3536,
      "▁[s": 3537,
      "▁[India": 3538,
      "▁[doi": 3539,
      "tel": 3540,
      "▁\"In": 3541,
      "▁\"సి": 3542,
      "](https://en.wikipedia.org/wiki/O": 3543,
      "arna": 3544,
      "religion": 3545,
      "ed/": 3546,
      "omas": 3547,
      "](https://te.wikipedia.org/wiki/భారత_": 3548,
      "ooperation": 3549,
      "atar": 3550,
      "▁పు": 3551,
      "chool": 3552,
      "రాజ్య": 3553,
      "▁Min": 3554,
      "▁కేంద్రపాలిత": 3555,
      "▁BRICS": 3556,
      "_(India)": 3557,
      "1996": 3558,
      "▁మా": 3559,
      "▁2004": 3560,
      "▁చే": 3561,
      "▁group": 3562,
      "ము\")": 3563,
      "▁1947": 3564,
      "త్స": 3565,
      "▁రాజ్య": 3566,
      "▁Language": 3567,
      "bruary": 3568,
      "వాతంత్ర": 3569,
      "▁Press](https://en.wikipedia.org/wiki/": 3570,
      "oi_(identifier)": 3571,
      "▁దేశాల": 3572,
      "▁\"Doi": 3573,
      "](https://en.wikipedia.org/wiki/Doi_(identifier)": 3574,
      "లాదేశ్": 3575,
      "స్తు": 3576,
      "▁సామ్రాజ్యం](https://te.wikipedia.org/wiki/": 3577,
      "ంగ్లాదేశ్": 3578,
      "▁భాషలు": 3579,
      "rganisation": 3580,
      "_ప్రా": 3581,
      "్రిటి": 3582,
      "▁అధికార": 3583,
      "ూర్పు": 3584,
      "lobal": 3585,
      "▁(identifier)\"):[10.": 3586,
      "కైవు": 3587,
      "▁[doi](https://en.wikipedia.org/wiki/Doi_(identifier)": 3588,
      "-28": 3589,
      "6-0)": 3590,
      "7-0": 3591,
      "7-0)": 3592,
      "C).": 3593,
      "oy": 3594,
      "press": 3595,
      "way": 3596,
      "▁und": 3597,
      "tes": 3598,
      "uslim": 3599,
      "▁Sanskrit": 3600,
      "▁2013": 3601,
      "ung": 3602,
      "▁dec": 3603,
      "ilg": 3604,
      "26)": 3605,
      "▁Nations": 3606,
      "imalay": 3607,
      "ublishing": 3608,
      "onstituent": 3609,
      "▁period": 3610,
      "-प": 3611,
      "/d": 3612,
      "4/": 3613,
      "Craven": 3614,
      "_4": 3615,
      "_V": 3616,
      "be": 3617,
      "cul": 3618,
      "gan": 3619,
      "rar": 3620,
      "slam": 3621,
      "tro": 3622,
      "yayan": 3623,
      "इल": 3624,
      "त्व": 3625,
      "तन्त": 3626,
      "भु": 3627,
      "लयाल": 3628,
      "शक": 3629,
      "िला": 3630,
      "▁ओ": 3631,
      "▁ref": 3632,
      "▁rate": 3633,
      "▁\"ज": 3634,
      "than": 3635,
      "](https://en.wikipedia.org/wiki/I": 3636,
      "ars": 3637,
      "▁सभ": 3638,
      "▁(2018": 3639,
      "▁(eds.": 3640,
      "▁महासागर": 3641,
      "19-9": 3642,
      "▁sup": 3643,
      "etra": 3644,
      "▁14": 3645,
      "▁modern": 3646,
      "istrar": 3647,
      "▁दो": 3648,
      "ताज": 3649,
      "▁2003": 3650,
      "▁one": 3651,
      "▁शा": 3652,
      "imf": 3653,
      "िये": 3654,
      "▁than": 3655,
      "ृत्य": 3656,
      "_New": 3657,
      "ूनिव": 3658,
      "ultan": 3659,
      "ूरो": 3660,
      "वीं": 3661,
      "](https://hi.wikipedia.org/wiki/भारत_की_": 3662,
      "](https://hi.wikipedia.org/wiki/भारत_का_": 3663,
      "/articleshow/": 3664,
      "ोर्ड": 3665,
      "_संघ": 3666,
      "ainting": 3667,
      "▁कार्य": 3668,
      "atsyayan": 3669,
      "▁युद्ध": 3670,
      "Hinduism": 3671,
      "तेलु": 3672,
      "▁गणराज्य": 3673,
      "▁न्यायालय": 3674,
      "श्रील": 3675,
      "_Island": 3676,
      "tecture": 3677,
      "▁[पुरालेखित": 3678,
      "ricket": 3679,
      "censusindia.gov.in/2011census": 3680,
      "धानमंत्री": 3681,
      "Craven1997": 3682,
      "तन्त्र": 3683,
      "-of": 3684,
      "93": 3685,
      "II": 3686,
      "_g": 3687,
      "minist": 3688,
      "wal": 3689,
      "▁[19": 3690,
      "ict": 3691,
      "_of_S": 3692,
      "▁2015": 3693,
      "▁Modern": 3694,
      "resent": 3695,
      "266": 3696,
      "24)": 3697,
      ".com/news/": 3698,
      "1990": 3699,
      "cond": 3700,
      "ources": 3701,
      "errit": 3702,
      "▁2008": 3703,
      "▁northern": 3704,
      "▁[\"C": 3705,
      ".gov/": 3706,
      "▁[*The": 3707,
      "duction": 3708,
      "▁States": 3709,
      "-in-": 3710,
      ".IN": 3711,
      ".fr": 3712,
      "6/": 3713,
      "83": 3714,
      "9-0)": 3715,
      "BC": 3716,
      "Main": 3717,
      "_13": 3718,
      "ahar": 3719,
      "ealth": 3720,
      "rm": 3721,
      "ua": 3722,
      "utt": 3723,
      "vatsyayan": 3724,
      "ymbol": 3725,
      "ంజా": 3726,
      "గి": 3727,
      "టీ": 3728,
      "టాన్": 3729,
      "ది.": 3730,
      "మంత్రి": 3731,
      "లను": 3732,
      "వె": 3733,
      "వరణ": 3734,
      "హదార": 3735,
      "ూచ": 3736,
      "▁/": 3737,
      "▁హ": 3738,
      "▁am": 3739,
      "▁భారతదేశ": 3740,
      "▁ther": 3741,
      "arge": 3742,
      "arliament": 3743,
      "▁(1,": 3744,
      "్రమ": 3745,
      "astern": 3746,
      "2012": 3747,
      "▁such": 3748,
      "ammu": 3749,
      "agar": 3750,
      "\n\nMain": 3751,
      "urt": 3752,
      "chin": 3753,
      "rovis": 3754,
      "భారతదేశ_": 3755,
      "ments": 3756,
      "▁కొ": 3757,
      "23)": 3758,
      "▁వ్యా": 3759,
      "▁later": 3760,
      "28)": 3761,
      "▁మత": 3762,
      "▁మతము": 3763,
      "తావరణ": 3764,
      "నాడు": 3765,
      "akh": 3766,
      "aksh": 3767,
      "](https://en.wikipedia.org/wiki/South_Asia": 3768,
      "osed": 3769,
      "ocument": 3770,
      "ankar": 3771,
      "▁ఇతర": 3772,
      "Hindust": 3773,
      "ాయి": 3774,
      "_BRICS": 3775,
      "ikh": 3776,
      "ణాసియా": 3777,
      "\"](https://web.archive.org/web/20160": 3778,
      "ovember": 3779,
      "athak": 3780,
      "pura": 3781,
      "▁million": 3782,
      "inistry_of_": 3783,
      "టెడ్": 3784,
      "▁ఆర్కైవు": 3785,
      "orities": 3786,
      "-lord": 3787,
      "▁Environment": 3788,
      "▁రైలు": 3789,
      "భూటాన్": 3790,
      "▁classical": 3791,
      "_సామ్రాజ్యం": 3792,
      "ehru": 3793,
      "WEO.IN": 3794,
      "IMFWEO.IN": 3795,
      "▁February": 3796,
      "వాతంత్ర్య": 3797,
      "vatsyayan-lord": 3798,
      "▁there": 3799,
      "110": 3800,
      "129": 3801,
      "2,": 3802,
      "Qu": 3803,
      "_ए": 3804,
      "imp": 3805,
      "lor": 3806,
      "rist": 3807,
      "ंका": 3808,
      "कट": 3809,
      "गान": 3810,
      "गंगा": 3811,
      "भो": 3812,
      "शा": 3813,
      "हैद": 3814,
      "िख": 3815,
      "ीमा": 3816,
      "ूह": 3817,
      "tex": 3818,
      "▁कुल": 3819,
      "](https://hi.wikipedia.org/wiki/आ": 3820,
      "ould": 3821,
      "राबाद": 3822,
      "ाने": 3823,
      "र्ज": 3824,
      "र्ष": 3825,
      "र्ना": 3826,
      "-14": 3827,
      "▁Se": 3828,
      "▁अप्र": 3829,
      "▁Pakistan": 3830,
      "_का_": 3831,
      "ticle": 3832,
      "▁बन": 3833,
      "▁नी": 3834,
      "▁वार": 3835,
      "2905": 3836,
      "▁संबंध": 3837,
      "▁संसद": 3838,
      "▁शताब्": 3839,
      "प्रा": 3840,
      "हिमा": 3841,
      "त्तीस": 3842,
      "▁War": 3843,
      "र्वो": 3844,
      "▁भाषाओं": 3845,
      "िस्ट": 3846,
      "avy": 3847,
      "िरपे": 3848,
      "▁करने": 3849,
      "▁अन्त": 3850,
      "वायु": 3851,
      "achal": 3852,
      "articles": 3853,
      "▁3,": 3854,
      "▁मेला\")": 3855,
      "▁हुए": 3856,
      "मेर": 3857,
      "MetcalfMetcalf2006),": 3858,
      "भीम": 3859,
      "▁[हिन्दी](https://hi.wikipedia.org/wiki/": 3860,
      "-780": 3861,
      "1162-2": 3862,
      "-107-11162-2": 3863,
      "19-882905": 3864,
      "National_Informatics_Centre2005": 3865,
      "हैदराबाद": 3866,
      "र्नाटक": 3867,
      "िरपेक्ष": 3868,
      "19-882905-8": 3869,
      "-25": 3870,
      "119": 3871,
      "8–": 3872,
      "Ludden": 3873,
      "_for": 3874,
      "ced": 3875,
      "ele": 3876,
      "ning": 3877,
      "ras": 3878,
      "ures": 3879,
      "▁[United": 3880,
      "arly": 3881,
      "alore": 3882,
      "reat": 3883,
      "rac": 3884,
      "▁south": 3885,
      "right": 3886,
      "atak": 3887,
      "angalore": 3888,
      "▁Per": 3889,
      "▁mathe": 3890,
      "state": 3891,
      "rol": 3892,
      "▁2019.": 3893,
      "ild": 3894,
      "olle": 3895,
      "▁British": 3896,
      "_Sh": 3897,
      "▁GDP": 3898,
      "▁art": 3899,
      "▁K.": 3900,
      "owland": 3901,
      "llchin": 3902,
      "inese": 3903,
      "▁2011.\n-": 3904,
      "▁union": 3905,
      "rowth": 3906,
      "▁who": 3907,
      "limate": 3908,
      "▁2018](https://en.wikipedia.org/wiki/India#CITEREF": 3909,
      "Harle1994": 3910,
      "Articles": 3911,
      "erritory": 3912,
      "0)": 3913,
      "55": 3914,
      "545": 3915,
      "NGDP": 3916,
      "a.": 3917,
      "aus": 3918,
      "ura": 3919,
      "ving": 3920,
      "west": 3921,
      "yan": 3922,
      "tig": 3923,
      "ictionary": 3924,
      "▁Ac": 3925,
      "▁Assembly": 3926,
      "url": 3927,
      "india-g": 3928,
      "▁Economic": 3929,
      "osi": 3930,
      "own": 3931,
      "...": 3932,
      "-language\\_": 3933,
      "▁Act,": 3934,
      "▁under": 3935,
      "\"](https://books.google.com/books?id=": 3936,
      "127": 3937,
      "2]](https://en.wikipedia.org/wiki/India#cite_note-FOOTNOTE": 3938,
      "7_": 3939,
      "Dikshit": 3940,
      "Empire": 3941,
      "European": 3942,
      "Schwartzberg": 3943,
      "_उ": 3944,
      "busines": 3945,
      "can": 3946,
      "du": 3947,
      "eograp": 3948,
      "gram": 3949,
      "languages": 3950,
      "ner": 3951,
      "ria": 3952,
      "ंह": 3953,
      "अन": 3954,
      "गल": 3955,
      "झार": 3956,
      "तट": 3957,
      "फ्रीका": 3958,
      "बा": 3959,
      "मालय": 3960,
      "हन": 3961,
      "हरा": 3962,
      "हरी": 3963,
      "िहार": 3964,
      "१९": 3965,
      "ం.": 3966,
      "ంశ": 3967,
      "ఆర్": 3968,
      "ఉత్తర": 3969,
      "ఒడి": 3970,
      "కీయ": 3971,
      "గలు": 3972,
      "చు": 3973,
      "జరా": 3974,
      "తూర్పు": 3975,
      "భు": 3976,
      "మన్": 3977,
      "యి": 3978,
      "లస": 3979,
      "ీన": 3980,
      "ేక": 3981,
      "▁ऑ": 3982,
      "▁డ": 3983,
      "▁लेख": 3984,
      "▁జాబితా": 3985,
      "▁[m": 3986,
      "▁[च": 3987,
      "▁[978": 3988,
      "▁[భారతదేశ": 3989,
      "▁[सा": 3990,
      "▁\"V": 3991,
      "](https://en.wikipedia.org/wiki/V": 3992,
      "arn": 3993,
      "](https://hi.wikipedia.org/wiki/ओ": 3994,
      "](https://hi.wikipedia.org/wiki/न": 3995,
      "esearch": 3996,
      "tions": 3997,
      "oot": 3998,
      "rative": 3999,
      "\\_देश": 4000,
      "ingdom": 4001,
      "▁केन्द्र": 4002,
      "▁ही": 4003,
      "▁होत": 4004,
      "▁పట్ట": 4005,
      "ర్\")": 4006,
      "▁me": 4007,
      "▁many": 4008,
      "ियां": 4009,
      "न्स": 4010,
      "▁**జాతీయ": 4011,
      "▁नद": 4012,
      "▁नहीं": 4013,
      "254": 4014,
      "▁से](http://": 4015,
      "నిక": 4016,
      "▁long": 4017,
      "▁large": 4018,
      "ంగ్రె": 4019,
      "▁సభ": 4020,
      "▁आधिकारिक": 4021,
      "पुरा": 4022,
      "स्ला": 4023,
      "▁गा": 4024,
      "తాబ్": 4025,
      "ast_Asia": 4026,
      "▁उद्य": 4027,
      "ake": 4028,
      "▁[\"India": 4029,
      "▁संस्कृति": 4030,
      "▁है।[[": 4031,
      "▁ప్రపంచ": 4032,
      "▁ప్రభు": 4033,
      "▁Official": 4034,
      "▁रहा": 4035,
      "utra": 4036,
      "▁ఆసియా": 4037,
      "▁original](https://": 4038,
      "▁original](https://www.": 4039,
      "ंग्रेजी": 4040,
      "_Temple": 4041,
      "మ్రాజ్య": 4042,
      "▁*[The": 4043,
      "Indones": 4044,
      "विशेष:EditPage/": 4045,
      "▁rule": 4046,
      "▁जनगणना": 4047,
      "గుజరా": 4048,
      "▁సామ్రాజ్యం\")": 4049,
      "गणराज्य": 4050,
      "करण": 4051,
      "▁people": 4052,
      "श्चिमी": 4053,
      "త్యేక": 4054,
      "రాష్ట్రపతి": 4055,
      "ప్ప": 4056,
      "▁కాశ్మీ": 4057,
      "▁రాజవంశం": 4058,
      "▁2021.": 4059,
      "▁उपमहाद्वीप": 4060,
      "▁చెంద": 4061,
      "▁ఆర్ధిక": 4062,
      "%20%20%20%20": 4063,
      "▁स्रोत/978-0-": 4064,
      "▁स्रोत/978-1": 4065,
      "](https://hi.wikipedia.org/wiki/विशेष:पुस्तक_स्रोत/978-0-": 4066,
      "](https://hi.wikipedia.org/wiki/विशेष:पुस्तक_स्रोत/978-1": 4067,
      "▁స్థాన": 4068,
      "తమిళనాడు": 4069,
      "▁\"हिन्दी\")": 4070,
      "pecial:BookSources/978-81": 4071,
      "▁भूम": 4072,
      "ప్రధానమంత్రి": 4073,
      "గణతంత్ర": 4074,
      "▁క్రీడ": 4075,
      "_Development": 4076,
      "▁industry": 4077,
      "▁चुनाव": 4078,
      "रेलू": 4079,
      "ఆఫ్ఘ": 4080,
      "శ్రీలంక": 4081,
      "షియా": 4082,
      "న్‌ఫ": 4083,
      "నేపాల్": 4084,
      "▁చెయ్యబడింది.": 4085,
      "](https://en.wikipedia.org/wiki/Economy_of_": 4086,
      "▁(eds.).": 4087,
      "▁[पुरालेखित](https://web.archive.org/web/201": 4088,
      "▁among": 4089,
      "र्वोच्च": 4090,
      "DikshitSchwartzberg": 4091,
      "gramme": 4092,
      "తాబ్ద": 4093,
      "विशेष:EditPage/साँचा:": 4094,
      "DikshitSchwartzberg2023": 4095,
      "/P": 4096,
      "Pages": 4097,
      "_n": 4098,
      "_en": 4099,
      "▁out": 4100,
      "▁high": 4101,
      "\")[[": 4102,
      "ety": 4103,
      "etary": 4104,
      "adi": 4105,
      "▁2011.": 4106,
      "▁Bank": 4107,
      "25)": 4108,
      "▁2005": 4109,
      "erala": 4110,
      "ingham": 4111,
      "rdu": 4112,
      "ervation": 4113,
      "teenth": 4114,
      "219": 4115,
      "5/": 4116,
      "6–": 4117,
      "Report": 4118,
      "eb": 4119,
      "economic": 4120,
      "nal": 4121,
      "y-": 4122,
      "pee": 4123,
      "▁\"India": 4124,
      "▁\"United": 4125,
      "▁\"Indo-": 4126,
      "](https://en.wikipedia.org/wiki/Indo-": 4127,
      "eral_": 4128,
      "cis": 4129,
      "▁some": 4130,
      "ing_": 4131,
      "▁CE": 4132,
      "▁Arab": 4133,
      "▁Afric": 4134,
      "local": 4135,
      "ISO": 4136,
      "ulti": 4137,
      "roj": 4138,
      "ola": 4139,
      "▁economic": 4140,
      "▁land": 4141,
      "▁India\").": 4142,
      "_Summit": 4143,
      "118": 4144,
      "▁General": 4145,
      "▁[Asher": 4146,
      "▁Wiki": 4147,
      "▁Kashmir": 4148,
      "ffice": 4149,
      "ineering": 4150,
      "arket": 4151,
      "meric": 4152,
      ".svg/": 4153,
      "/article": 4154,
      "ynast": 4155,
      ".svg.png": 4156,
      "_in_South_Asia": 4157,
      "ast_Asia_Summit": 4158,
      "-a": 4159,
      "-विज्ञान": 4160,
      "2–": 4161,
      "415": 4162,
      "63": 4163,
      "6).": 4164,
      "94": 4165,
      "Ag": 4166,
      "South": 4167,
      "_इ": 4168,
      "_व": 4169,
      "election": 4170,
      "ix": 4171,
      "ks": 4172,
      "vid": 4173,
      "work": 4174,
      "yle": 4175,
      "ंच": 4176,
      "ंत": 4177,
      "ईरा": 4178,
      "को": 4179,
      "छत्तीस": 4180,
      "टान": 4181,
      "थल": 4182,
      "थिल": 4183,
      "पान": 4184,
      "लग": 4185,
      "वास": 4186,
      "सून": 4187,
      "िप": 4188,
      "िंध": 4189,
      "ीच": 4190,
      "ैथिल": 4191,
      "।\n\n": 4192,
      "▁2.": 4193,
      "▁1998": 4194,
      "▁[दक्षिण": 4195,
      "▁\"[": 4196,
      "▁\"च": 4197,
      "▁\"ल": 4198,
      "▁\"दक्षिण": 4199,
      "tition": 4200,
      "reme": 4201,
      "▁कई": 4202,
      "▁कश्मीर": 4203,
      "](https://hi.wikipedia.org/wiki/च": 4204,
      "▁सभा": 4205,
      "▁सैन": 4206,
      "▁मैदान": 4207,
      "▁मुख्य": 4208,
      "2015": 4209,
      "2017": 4210,
      "▁पर्वत": 4211,
      "▁अव": 4212,
      "▁अर्थ": 4213,
      "वित": 4214,
      "003": 4215,
      "▁दि": 4216,
      "▁द्वीप": 4217,
      "_का": 4218,
      "▁बीच": 4219,
      "▁से](http://www.": 4220,
      "न्दिर": 4221,
      "क्षा": 4222,
      "▁गु": 4223,
      "▁...": 4224,
      "▁उत्पाद": 4225,
      "_मंदिर": 4226,
      "लेट": 4227,
      "▁इन": 4228,
      "त्तरी": 4229,
      "_Delhi": 4230,
      "▁करोड़": 4231,
      "▁अनु": 4232,
      "▁[अंग्रेज़": 4233,
      "▁पुरा": 4234,
      "▁राजनी": 4235,
      "▁स्था": 4236,
      "▁\"पंजाब": 4237,
      "▁वर्ग": 4238,
      "▁[पंजाब": 4239,
      "ohn": 4240,
      "▁होता": 4241,
      "74-108": 4242,
      "ब्ब": 4243,
      "▁जिसमें": 4244,
      "▁territory": 4245,
      "▁कारण": 4246,
      "_मेला?action=edit&redlink=1": 4247,
      "गोआ": 4248,
      "र्सिट": 4249,
      "ूनिवर्सिट": 4250,
      "श्रीलंका": 4251,
      "▁शताब्दी": 4252,
      "-78074-108": 4253,
      "▁[अंग्रेज़ी](https://hi.wikipedia.org/wiki/अ": 4254,
      "-78074-108-6": 4255,
      "01": 4256,
      "300": 4257,
      "3]](https://en.wikipedia.org/wiki/India#cite_note-FOOTNOTE": 4258,
      "54": 4259,
      "6]](https://en.wikipedia.org/wiki/India#cite_note-": 4260,
      "9,": 4261,
      "RL": 4262,
      "Spear": 4263,
      "_J": 4264,
      "_14": 4265,
      "_ప్రదేశ్": 4266,
      "ave": 4267,
      "che": 4268,
      "fgh": 4269,
      "ii": 4270,
      "iri": 4271,
      "ihar": 4272,
      "k:": 4273,
      "known": 4274,
      "pic": 4275,
      "zation": 4276,
      "ం,": 4277,
      "ఉప": 4278,
      "కొ": 4279,
      "కేంద్రపాలిత": 4280,
      "జె": 4281,
      "ఢ్": 4282,
      "నాల": 4283,
      "లే": 4284,
      "ళు": 4285,
      "ౌద్ధ": 4286,
      "▁ra": 4287,
      "▁he": 4288,
      "▁భా": 4289,
      "dian": 4290,
      "▁[V": 4291,
      "▁[వి": 4292,
      "▁\"National": 4293,
      "▁\"Oxford": 4294,
      "ins": 4295,
      "inance": 4296,
      "itary": 4297,
      "▁India*](https://books.google.com/books?id=": 4298,
      "▁social": 4299,
      "▁since": 4300,
      "ాలీ": 4301,
      "ర్చ": 4302,
      "▁maj": 4303,
      "▁minister": 4304,
      "ility": 4305,
      "▁war": 4306,
      "▁R.": 4307,
      "▁Raj": 4308,
      "▁total": 4309,
      "ాలు?action=edit&redlink=1": 4310,
      "pecial:EditPage/": 4311,
      "▁Nadu": 4312,
      "-30": 4313,
      "-317": 4314,
      "22)": 4315,
      "▁her": 4316,
      "ainism": 4317,
      "overe": 4318,
      "epart": 4319,
      "–సా.శ.18": 4320,
      "▁అత్య": 4321,
      "▁article": 4322,
      "apan": 4323,
      "ffer": 4324,
      "def": 4325,
      "logo": 4326,
      "▁ఆధ": 4327,
      "మాఖ్య": 4328,
      "వాణా": 4329,
      "ligence": 4330,
      "ంటి": 4331,
      "▁depend": 4332,
      "▁area": 4333,
      "engali": 4334,
      "డ్డ": 4335,
      "▁జనాభా": 4336,
      "దక్షిణాసియా": 4337,
      "▁గల": 4338,
      "▁భారతదేశంలో": 4339,
      "ంగ్లీ": 4340,
      "qual": 4341,
      "/cb": 4342,
      "యునై": 4343,
      "ష్ణ": 4344,
      "▁2021.\n": 4345,
      "_చరిత్ర?action=edit&redlink=1": 4346,
      "▁రాష్ట్రాలు,": 4347,
      "_మతము": 4348,
      "▁used": 4349,
      "▁మొద": 4350,
      "union_territ": 4351,
      ".aspx?": 4352,
      "telligence": 4353,
      "urton": 4354,
      "arnatak": 4355,
      "Spear1990": 4356,
      "fghan": 4357,
      "pecial:EditPage/Template:": 4358,
      "epartment": 4359,
      "యునైటెడ్": 4360,
      "1-0": 4361,
      "3TR": 4362,
      "98": 4363,
      "_2": 4364,
      "e/": 4365,
      "len": 4366,
      "lance": 4367,
      "nf": 4368,
      "▁history": 4369,
      "▁term": 4370,
      "▁[Oxford": 4371,
      "its": 4372,
      "▁they": 4373,
      "▁Al": 4374,
      "21)": 4375,
      "emon": 4376,
      "▁status": 4377,
      "▁China": 4378,
      "▁left": 4379,
      "_at_the": 4380,
      "rishn": 4381,
      "▁estim": 4382,
      "india-glance": 4383,
      "Pages\\_": 4384,
      "3TRt": 4385,
      "3),": 4386,
      "5%": 4387,
      "DD": 4388,
      "UCN": 4389,
      "ao": 4390,
      "az": 4391,
      "britannica": 4392,
      "go": 4393,
      "owe": 4394,
      "इन": 4395,
      "गू": 4396,
      "तृत": 4397,
      "दिव": 4398,
      "पक": 4399,
      "पद": 4400,
      "मर": 4401,
      "मु": 4402,
      "मो": 4403,
      "वल": 4404,
      "श्य": 4405,
      "शीन": 4406,
      "ीब": 4407,
      "ीगढ़": 4408,
      "ेद": 4409,
      "ॉक": 4410,
      "८५": 4411,
      "▁ci": 4412,
      "▁50": 4413,
      "▁ले": 4414,
      "▁oc": 4415,
      "orest": 4416,
      "orical": 4417,
      "▁[वि": 4418,
      "▁[पाकिस्तान": 4419,
      "▁\"पाकिस्तान": 4420,
      "▁\"History": 4421,
      "▁\"तमिल": 4422,
      "](https://en.wikipedia.org/wiki/In": 4423,
      "](https://en.wikipedia.org/wiki/History": 4424,
      "ared/": 4425,
      "20)": 4426,
      "▁कु": 4427,
      "](https://hi.wikipedia.org/wiki/ल": 4428,
      "भारत)": 4429,
      "them": 4430,
      "▁स्त": 4431,
      "▁सूचना": 4432,
      "ominal": 4433,
      "▁(20": 4434,
      "▁मो": 4435,
      "▁मध्य": 4436,
      "्यान": 4437,
      "19-5": 4438,
      "1970": 4439,
      "rature": 4440,
      "ानव": 4441,
      "\\_articles": 4442,
      "-16": 4443,
      "▁Cons": 4444,
      "ages/": 4445,
      "▁SAARC": 4446,
      "▁trans": 4447,
      "ada": 4448,
      "▁found": 4449,
      "▁both": 4450,
      "urban": 4451,
      "linkim": 4452,
      "ालदीव": 4453,
      "▁जी": 4454,
      "▁दशक": 4455,
      "ेशन": 4456,
      "ेशिया": 4457,
      "onsoon": 4458,
      "mploy": 4459,
      "industry": 4460,
      "▁largest": 4461,
      "ayback": 4462,
      "▁India\")\n\n": 4463,
      "षाण": 4464,
      "ly,": 4465,
      "न्दोल": 4466,
      "क्षर": 4467,
      "shared/": 4468,
      "▁2026": 4469,
      "काश": 4470,
      "▁शक्ति": 4471,
      "▁शिक्षा": 4472,
      "ains": 4473,
      "_Pradesh": 4474,
      "harm": 4475,
      "](https://en.wikipedia.org/wiki/South": 4476,
      "ंडीगढ़": 4477,
      "▁लोग": 4478,
      "▁लोक": 4479,
      "▁राज्य\")": 4480,
      "▁क्षेत्रीय": 4481,
      "riculture": 4482,
      "ssam": 4483,
      "ssoc": 4484,
      "जनसंख्या": 4485,
      "▁जनसंख्या": 4486,
      "ूर्वी": 4487,
      "endra": 4488,
      "]](https://hi.wikipedia.org/wiki/भारत#cite_note-FOOTNOTEStein1998": 4489,
      "]](https://hi.wikipedia.org/wiki/भारत#cite_note-FOOTNOTESingh2009": 4490,
      "मुख्य": 4491,
      "▁play": 4492,
      "▁Islands": 4493,
      "pring": 4494,
      "▁world's": 4495,
      "apita": 4496,
      "ustralia": 4497,
      "▁2006](https://en.wikipedia.org/wiki/India#CITEREFMetcalfMetcalf2006),": 4498,
      "त्तराखण्ड": 4499,
      "nclm.nic.in/shared/": 4500,
      "▁अप्रैल": 4501,
      "हिमाचल": 4502,
      "▁लेख:": 4503,
      "▁article:": 4504,
      "fghanistan": 4505,
      "britannica.com/": 4506,
      "▁occ": 4507,
      "linkimages/": 4508,
      "nclm.nic.in/shared/linkimages/": 4509,
      "\"[[": 4510,
      "130": 4511,
      "3_": 4512,
      "9).": 4513,
      "bank": 4514,
      "detail": 4515,
      "itt": 4516,
      "ront": 4517,
      "ser": 4518,
      "stitu": 4519,
      "ancy": 4520,
      "tice": 4521,
      "itz": 4522,
      "▁12": 4523,
      "▁David": 4524,
      "240": 4525,
      "▁north": 4526,
      "▁From": 4527,
      "](https://web.archive.org/web/200": 4528,
      "▁Press,": 4529,
      "rown": 4530,
      "olden": 4531,
      "formation": 4532,
      "ociety": 4533,
      "*)": 4534,
      "-with": 4535,
      ".world": 4536,
      ":EditPage/": 4537,
      "Ary": 4538,
      "Con": 4539,
      "Ethnologue": 4540,
      "Robb": 4541,
      "Sharma": 4542,
      "Un": 4543,
      "Wolpert": 4544,
      "_న": 4545,
      "dr": 4546,
      "glia": 4547,
      "ities": 4548,
      "ling": 4549,
      "lack": 4550,
      "ris": 4551,
      "sur": 4552,
      "war": 4553,
      "ఖండ": 4554,
      "టిక": 4555,
      "డే": 4556,
      "ద్య": 4557,
      "మార్": 4558,
      "మాలయ": 4559,
      "లలో": 4560,
      "లకు": 4561,
      "ళ్": 4562,
      "వ](https://te.wikipedia.org/wiki/": 4563,
      "ానికి": 4564,
      "ాళు": 4565,
      "ీర్": 4566,
      "▁భ": 4567,
      "▁యు": 4568,
      "oral": 4569,
      "](Category:": 4570,
      "▁\"వి": 4571,
      "hird": 4572,
      "hief": 4573,
      "omes": 4574,
      "▁(India": 4575,
      "icha": 4576,
      "▁power": 4577,
      "ాలో": 4578,
      "▁Con": 4579,
      "▁Company": 4580,
      "▁Summit\")": 4581,
      "▁Science": 4582,
      "స్వ": 4583,
      "స్లా": 4584,
      "▁పాల": 4585,
      "న్\")": 4586,
      "▁member": 4587,
      "states": 4588,
      "road": 4589,
      "217": 4590,
      "▁Mon": 4591,
      "▁కార": 4592,
      "▁కలి": 4593,
      "▁Be": 4594,
      "▁Bengal": 4595,
      "ాలు\n\n": 4596,
      "రిహ": 4597,
      "రికత": 4598,
      "క్నాల": 4599,
      "▁Di": 4600,
      "▁Delhi": 4601,
      "నిమా": 4602,
      "▁సంగీతం": 4603,
      "erry": 4604,
      "▁Gandhi": 4605,
      "-3)": 4606,
      "▁చి": 4607,
      "ubcontinent": 4608,
      "akhand": 4609,
      "ులు\"),": 4610,
      "epal": 4611,
      "–సా.శ.13": 4612,
      "▁అయ": 4613,
      "▁ప్రధాన": 4614,
      "▁Linguistic": 4615,
      "▁\"Category:": 4616,
      "▁began": 4617,
      "emale": 4618,
      "ప్రదాయ": 4619,
      "ప్రత్యేక": 4620,
      "ద్వీ": 4621,
      "▁ఉప": 4622,
      "▁రె": 4623,
      "ock": 4624,
      "న్నడ": 4625,
      "ంటు": 4626,
      "▁దేశంలో": 4627,
      "ాయి.": 4628,
      "ibet": 4629,
      "uddhism": 4630,
      "▁Valley": 4631,
      "కాశ్మీ": 4632,
      "viol": 4633,
      "ultural": 4634,
      "ంధు": 4635,
      "వర్గం:Harv": 4636,
      "ద్ధం": 4637,
      "ద్ధి": 4638,
      "ాల్దీవ": 4639,
      "చ్చే": 4640,
      "ducation": 4641,
      "Oxford_University_Press": 4642,
      "దక్షిణ_": 4643,
      "▁కాంగ్రె": 4644,
      "Stein2010),": 4645,
      "rgani": 4646,
      "hindi": 4647,
      "టెక్నాల": 4648,
      "హిమాలయ": 4649,
      "-largest": 4650,
      "▁Empire\")": 4651,
      "actbook": 4652,
      "▁లే": 4653,
      "త్తరా": 4654,
      "నాగరికత": 4655,
      "క్కువ": 4656,
      "esert": 4657,
      "క్‌సభ": 4658,
      "▁శాస్త్ర": 4659,
      "ెలుగు": 4660,
      "▁2010](https://en.wikipedia.org/wiki/India#CITEREFStein2010),": 4661,
      "▁వచ్చింది.": 4662,
      "▁Press](https://en.wikipedia.org/wiki/Oxford_University_Press": 4663,
      "_ప్రాంత": 4664,
      "etraglia": 4665,
      "ultanate": 4666,
      "ministrative": 4667,
      "yanmar": 4668,
      "ర్చ:": 4669,
      "Spear199024": 4670,
      ":EditPage/మూస:": 4671,
      "ాళుక్య": 4672,
      "ichael": 4673,
      "ప్రత్యేక:EditPage/మూస:": 4674,
      "టెక్నాలజీ": 4675,
      "-an": 4676,
      "1-1": 4677,
      "125": 4678,
      "52": 4679,
      "_राज": 4680,
      "eval": 4681,
      "rid": 4682,
      "uth": 4683,
      "ym": 4684,
      "उप": 4685,
      "क_स": 4686,
      "गत": 4687,
      "जान": 4688,
      "दि": 4689,
      "द्वार": 4690,
      "धन": 4691,
      "धा": 4692,
      "फा": 4693,
      "मक": 4694,
      "म\")": 4695,
      "लिस": 4696,
      "षय": 4697,
      "स\")": 4698,
      "ाटी": 4699,
      "िनेमा": 4700,
      "ी.": 4701,
      "ृद्ध": 4702,
      "ॉल": 4703,
      "▁imp": 4704,
      ".org": 4705,
      "▁[4": 4706,
      "▁[ड": 4707,
      "anc": 4708,
      "aria": 4709,
      "aran": 4710,
      "▁सक": 4711,
      "▁(2006": 4712,
      "as,": 4713,
      "्यों": 4714,
      "lect": 4715,
      "▁sp": 4716,
      "rim": 4717,
      "\\_अ": 4718,
      "▁C.": 4719,
      "ams": 4720,
      "▁co": 4721,
      "\n\n|": 4722,
      "\n\nमुख्य": 4723,
      "urn": 4724,
      "▁made": 4725,
      "ाले": 4726,
      "िया](https://mai.wikipedia.org/wiki/": 4727,
      "ournal": 4728,
      ".\n13": 4729,
      "भाज": 4730,
      "्वतंत्रता": 4731,
      "▁भारत\")": 4732,
      "▁प्रेस": 4733,
      "▁प्रौद्योगिक": 4734,
      "▁D.": 4735,
      "▁Data": 4736,
      "▁व्य": 4737,
      "▁आर्थिक": 4738,
      "elang": 4739,
      "▁शु": 4740,
      "ियार": 4741,
      "▁लग": 4742,
      "परमाणु": 4743,
      "ेली": 4744,
      "▁नेतृत": 4745,
      "▁जनवरी": 4746,
      "ivis": 4747,
      "ज्ज": 4748,
      "▁राजवंश": 4749,
      "▁जाती": 4750,
      "▁स्थान": 4751,
      "▁मेला](https://hi.wikipedia.org/wiki/": 4752,
      "▁२०१": 4753,
      "cess": 4754,
      "\")*,": 4755,
      "▁प्राचीन": 4756,
      "▁धर्म\")": 4757,
      "▁था।": 4758,
      "edieval": 4759,
      "ांग्लादेश": 4760,
      "▁स्थित": 4761,
      ".html)": 4762,
      "ृष्ठ": 4763,
      "धिराज्य": 4764,
      "ूर्ण": 4765,
      "JPG": 4766,
      "▁पहले": 4767,
      "▁[हिन्दी](https://hi.wikipedia.org/wiki/हिन्दी": 4768,
      "▁चुनावों": 4769,
      "▁सैन्य": 4770,
      "▁स्थाप": 4771,
      "Pages\\_us": 4772,
      "3TRtDwAAQBAJ&pg=PA": 4773,
      ",NGDP": 4774,
      "/ark": 4775,
      "CL": 4776,
      "Congress": 4777,
      "IB": 4778,
      "IJ": 4779,
      "af": 4780,
      "ball": 4781,
      "ds": 4782,
      "ho": 4783,
      "ie": 4784,
      "nominal": 4785,
      "rust": 4786,
      "orce": 4787,
      ":/121": 4788,
      "▁[c": 4789,
      "▁[In": 4790,
      "anor": 4791,
      "ances": 4792,
      "eries": 4793,
      "India_": 4794,
      "arl": 4795,
      "aries": 4796,
      "208": 4797,
      "ala": 4798,
      "aldi": 4799,
      "cip": 4800,
      "asing": 4801,
      "-135": 4802,
      "ament": 4803,
      "▁country": 4804,
      "▁Affairs": 4805,
      "vel": 4806,
      "los": 4807,
      "lowing": 4808,
      "urch": 4809,
      "▁mi": 4810,
      "tical_": 4811,
      "sian": 4812,
      "▁rep": 4813,
      "▁relations": 4814,
      ".[[3": 4815,
      "▁[\"The": 4816,
      "▁Fund": 4817,
      "udi": 4818,
      "ots": 4819,
      "otals": 4820,
      "ommonwealth": 4821,
      "48/cb": 4822,
      "order": 4823,
      "rough": 4824,
      "](https://en.wikipedia.org/wiki/List_of_countries_by": 4825,
      "reek": 4826,
      "_East_Asia_Summit": 4827,
      "timesofindia": 4828,
      "▁2,": 4829,
      "AARC_summit": 4830,
      "▁lead": 4831,
      "maputra": 4832,
      "flu": 4833,
      "▁York": 4834,
      "fication": 4835,
      "-lead": 4836,
      "▁prime": 4837,
      ".bnf": 4838,
      "emocracy": 4839,
      "rahmaputra": 4840,
      "▁Minorities": 4841,
      "_Islands": 4842,
      ".fr/ark": 4843,
      "rovisional": 4844,
      "quality": 4845,
      "Aryan": 4846,
      "omestic": 4847,
      "▁(India)\")": 4848,
      "rganization": 4849,
      "nominal)": 4850,
      ":/12148/cb": 4851,
      "aldives": 4852,
      "timesofindia.indiatimes.com/": 4853,
      ".bnf.fr/ark": 4854,
      ".bnf.fr/ark:/12148/cb": 4855,
      ".ni": 4856,
      "122": 4857,
      "7%": 4858,
      "QAAQBAJ&pg=PA": 4859,
      "_9": 4860,
      "_with": 4861,
      "a)": 4862,
      "▁ed.).": 4863,
      "ortheast": 4864,
      "▁[National": 4865,
      "on,": 4866,
      "▁Sec": 4867,
      "[[14": 4868,
      "▁Publishing": 4869,
      "▁Tamil": 4870,
      "identifiers": 4871,
      "▁Republic": 4872,
      "▁Ex": 4873,
      "ounci": 4874,
      "upta": 4875,
      "▁Himalay": 4876,
      "▁report": 4877,
      "▁1960": 4878,
      "▁[\"A": 4879,
      "imachal": 4880,
      "160": 4881,
      "ummer": 4882,
      "ternal": 4883,
      "cript": 4884,
      "rofile": 4885,
      "ymbols": 4886,
      ".svg.png)": 4887,
      "-S": 4888,
      "-29": 4889,
      "-on-": 4890,
      ".పూ.": 4891,
      "/D": 4892,
      "3/": 4893,
      "C-0": 4894,
      "Gua": 4895,
      "JIJ": 4896,
      "Library": 4897,
      "NA": 4898,
      "Rowland": 4899,
      "Taj": 4900,
      "Zva": 4901,
      "_h": 4902,
      "_घ": 4903,
      "_राज्य": 4904,
      "aut": 4905,
      "aury": 4906,
      "bc": 4907,
      "fob": 4908,
      "iz": 4909,
      "kar": 4910,
      "ox": 4911,
      "oint": 4912,
      "s18": 4913,
      "y=": 4914,
      "अभि": 4915,
      "इप्र": 4916,
      "एन": 4917,
      "क्": 4918,
      "कणी": 4919,
      "खन": 4920,
      "ग्व": 4921,
      "च्": 4922,
      "जं": 4923,
      "तम": 4924,
      "नु": 4925,
      "पार": 4926,
      "फोर्ड": 4927,
      "ब्ल": 4928,
      "बेट": 4929,
      "यत": 4930,
      "यर": 4931,
      "रस": 4932,
      "लों": 4933,
      "ैंक": 4934,
      "ॉंग्रेस": 4935,
      "ौसेना": 4936,
      "्म": 4937,
      "२००": 4938,
      "ంతం": 4939,
      "ఆగ": 4940,
      "కళ": 4941,
      "ఖండ్": 4942,
      "గం": 4943,
      "గ్": 4944,
      "గిన": 4945,
      "గఢ్": 4946,
      "జో": 4947,
      "ట్ర": 4948,
      "తెలుగు": 4949,
      "ద్రా": 4950,
      "పద": 4951,
      "భి": 4952,
      "యో": 4953,
      "లక్ష": 4954,
      "వర": 4955,
      "శో": 4956,
      "షా": 4957,
      "హు": 4958,
      "హార్": 4959,
      "హాయ": 4960,
      "ాష్ట్ర": 4961,
      "ీక": 4962,
      "ీహార్": 4963,
      "ుల": 4964,
      "ుల్": 4965,
      "ోల్": 4966,
      "ోత్స": 4967,
      "ౌర్య": 4968,
      "▁·": 4969,
      "▁—": 4970,
      "▁his": 4971,
      "▁ईसा": 4972,
      "▁[p": 4973,
      "▁[ग": 4974,
      "▁[य": 4975,
      "▁[ल": 4976,
      "▁[ह": 4977,
      "▁[హ": 4978,
      "▁\"य": 4979,
      "▁\"హ": 4980,
      "▁\"19": 4981,
      "▁\"ఢిల్లీ": 4982,
      "hical": 4983,
      "thnic": 4984,
      "arli": 4985,
      "](https://hi.wikipedia.org/wiki/पाकिस्तान": 4986,
      "भारतीय": 4987,
      "educ": 4988,
      "▁साल": 4989,
      "్రూ": 4990,
      "](https://te.wikipedia.org/wiki/సి": 4991,
      "▁मौ": 4992,
      "ical_": 4993,
      "leg": 4994,
      "lem": 4995,
      "राम": 4996,
      "-06": 4997,
      "र्क": 4998,
      "ాలా": 4999,
      "ాలలో": 5000,
      "rig": 5001,
      "ripura": 5002,
      "](https://hi.wikipedia.org/wiki/भारत_के": 5003,
      "్యం": 5004,
      "याधी": 5005,
      "ర్ణా": 5006,
      "ర్మే": 5007,
      "▁Public": 5008,
      "▁11": 5009,
      "▁mar": 5010,
      "▁movement": 5011,
      "ists": 5012,
      "ोंकणी": 5013,
      "_की_": 5014,
      "లు\")": 5015,
      "olon": 5016,
      "▁River": 5017,
      "లోక్‌సభ": 5018,
      "ंगाना": 5019,
      "_(भारत)": 5020,
      "ంది": 5021,
      "▁economy": 5022,
      "▁వంశ": 5023,
      "aylor": 5024,
      "▁Europe": 5025,
      "▁व्या": 5026,
      "force": 5027,
      "ండర్": 5028,
      "ड़िया": 5029,
      "ड़ियाँ": 5030,
      "abha": 5031,
      "](https://en.wikipedia.org/wiki/India#CITEREFB": 5032,
      "asting": 5033,
      "▁उन": 5034,
      "త్మా": 5035,
      "▁non-": 5036,
      "काता": 5037,
      "]](https://en.wikipedia.org/wiki/India#cite_note-FOOTNOTEMetcalfMetcalf2006": 5038,
      "overty": 5039,
      "▁అతి": 5040,
      "▁विस्त": 5041,
      "▁विदेश": 5042,
      "ికి": 5043,
      "▁इंडिया": 5044,
      "▁Ocean": 5045,
      "-90": 5046,
      "ద్దు": 5047,
      "o-ope": 5048,
      "ंडोन": 5049,
      "▁రహదార": 5050,
      "▁राज्यक्षेत्र": 5051,
      "మాచల్": 5052,
      "▁సామ్రాజ్య": 5053,
      "రువా": 5054,
      "రుణా": 5055,
      "ंग्रेज": 5056,
      "ोलकाता": 5057,
      "న్నో": 5058,
      "▁क्षेत्रों": 5059,
      "▁tex": 5060,
      "key": 5061,
      "ंध्र": 5062,
      "▁\"अंग्रेज़ी": 5063,
      "మిజో": 5064,
      "▁ఇది": 5065,
      "achine": 5066,
      "▁देश\")": 5067,
      "MetcalfMetcalf201": 5068,
      "▁జరి": 5069,
      "हरिया": 5070,
      "िशा": 5071,
      "▁राजधान": 5072,
      "पुरम": 5073,
      "म्बई": 5074,
      "▁విస్త": 5075,
      "_and_depend": 5076,
      "▁मेला\"),": 5077,
      "ंग्रेज़ी_भाषा": 5078,
      "ष्ण": 5079,
      "▁శతాబ్ద": 5080,
      "ట్టు": 5081,
      "न्नई": 5082,
      "समिया": 5083,
      "రాష్ట్రాలు": 5084,
      "न्तर": 5085,
      "వేద": 5086,
      "▁రాజకీయ": 5087,
      "▁मानसून": 5088,
      "▁पुरालेखित।,": 5089,
      "श्मीरी": 5090,
      "बंधन": 5091,
      "▁ప్రాంతాలు": 5092,
      "హిమాచల్": 5093,
      "ship": 5094,
      "హాత్మా": 5095,
      "_और_संघ": 5096,
      "▁dispu": 5097,
      "▁युग": 5098,
      "तेलंगाना": 5099,
      "▁स्वतंत्रता": 5100,
      "रक्षा": 5101,
      "_के_आधार_पर_भारत_के_राज्यों_की_सूची": 5102,
      "▁ప్రదేశ్\")": 5103,
      "హారాష్ట్ర": 5104,
      "क्सफोर्ड": 5105,
      "दिल्ली": 5106,
      "శాస్త్ర": 5107,
      "రాజస్థాన్": 5108,
      "▁साम्राज्य\")": 5109,
      "चेन्नई": 5110,
      "धुनिक": 5111,
      "▁बहुत": 5112,
      "▁వాతావరణ": 5113,
      "దినోత్స": 5114,
      "బెంగాలీ": 5115,
      "णिपुरी": 5116,
      "पीठ": 5117,
      "▁निर्माण": 5118,
      "View": 5119,
      "యన్మార్": 5120,
      "▁ముఖ్య": 5121,
      "langoff-1": 5122,
      "▁पार्टी": 5123,
      "_साम्राज्य": 5124,
      "hasha": 5125,
      "त्रिपुरा": 5126,
      "हायता": 5127,
      "ज्ञापक": 5128,
      "लयालम": 5129,
      "▁ओर": 5130,
      "▁सभ्यता": 5131,
      "तेलुगू": 5132,
      "ంజాబ్": 5133,
      "▁వ్యాస": 5134,
      "भीमबेट": 5135,
      "duct": 5136,
      "झारखंड": 5137,
      "Indonesia": 5138,
      "గుజరాత్": 5139,
      "ఆఫ్ఘనిస్తాన్": 5140,
      "న్‌ఫర్మే": 5141,
      "छत्तीसगढ़": 5142,
      "िंधु": 5143,
      "ब्बत": 5144,
      "▁[अंग्रेज़ी](https://hi.wikipedia.org/wiki/अंग्रेज़ी_भाषा": 5145,
      "▁कुछ": 5146,
      "Wolpert2003": 5147,
      "వ](https://te.wikipedia.org/wiki/List_of_": 5148,
      "రిహద్దు": 5149,
      "చ్చేరి": 5150,
      "GuaJIJ": 5151,
      "Rowland1970": 5152,
      "ZvaGuaJIJ": 5153,
      "अभिज्ञापक": 5154,
      "च्छ": 5155,
      "education": 5156,
      "याधीश": 5157,
      "ర్ణాటక": 5158,
      "రుణాచల్": 5159,
      "भीमबेटका": 5160,
      "న్‌ఫర్మేషన్": 5161,
      "ZvaGuaJIJgo": 5162,
      "-n": 5163,
      "-and": 5164,
      "-50": 5165,
      "-se": 5166,
      ".0": 5167,
      "/files/": 5168,
      "1-3": 5169,
      "2-4": 5170,
      "320": 5171,
      "66": 5172,
      "91": 5173,
      "9–": 5174,
      "Vu": 5175,
      "ZVu": 5176,
      "eligion": 5177,
      "ime": 5178,
      "kZVu": 5179,
      "rial": 5180,
      "ward": 5181,
      "y,": 5182,
      "yy": 5183,
      "arendra": 5184,
      "alog": 5185,
      "reed": 5186,
      "not": 5187,
      "-00": 5188,
      "▁Centre": 5189,
      "agari": 5190,
      "lopedia": 5191,
      "▁P.": 5192,
      "105": 5193,
      "▁Government": 5194,
      "▁gre": 5195,
      "▁1965": 5196,
      "▁new": 5197,
      "▁J.": 5198,
      "407": 5199,
      ".gov.in": 5200,
      "_Nadu": 5201,
      "article": 5202,
      "atis": 5203,
      "▁life": 5204,
      "amil_Nadu": 5205,
      "official": 5206,
      "vanagari": 5207,
      "cyclopedia": 5208,
      "pectancy": 5209,
      "ildlife": 5210,
      "pringer": 5211,
      "Pages\\_using\\_": 5212,
      "-D": 5213,
      "123": 5214,
      "53": 5215,
      "7.\n": 5216,
      "HA": 5217,
      "New": 5218,
      "St": 5219,
      "_on": 5220,
      "bbc": 5221,
      "ez": 5222,
      "lm": 5223,
      "lurton": 5224,
      "mal": 5225,
      "que": 5226,
      "s_of_India": 5227,
      "yam": 5228,
      "▁°": 5229,
      "▁6.": 5230,
      "▁urban": 5231,
      "▁[Indo-": 5232,
      "tered": 5233,
      "ency": 5234,
      "onom": 5235,
      "](https://en.wikipedia.org/wiki/United": 5236,
      "▁them": 5237,
      "icob": 5238,
      "▁India](https://en.wikipedia.org/wiki/G": 5239,
      "▁influ": 5240,
      "ravi": 5241,
      "▁summit": 5242,
      "▁pre": 5243,
      "▁painting": 5244,
      "ature": 5245,
      "▁All": 5246,
      "▁S.": 5247,
      "▁billion": 5248,
      "lief": 5249,
      "▁dire": 5250,
      "▁western": 5251,
      "▁Territory": 5252,
      "-0)\n": 5253,
      "▁app": 5254,
      "nium": 5255,
      "▁eastern": 5256,
      "▁employ": 5257,
      "index": 5258,
      "akes": 5259,
      "uduch": 5260,
      "27)": 5261,
      "▁Incre": 5262,
      "▁Lank": 5263,
      "emic": 5264,
      "▁Kingdom": 5265,
      "avi": 5266,
      "▁[↑](https://en.wikipedia.org/wiki/India#cite_ref-FOOTNOTEMetcalfMetcalf2006": 5267,
      "overnment_of_India": 5268,
      "anipur": 5269,
      "ikkim": 5270,
      "_128": 5271,
      "olitical_": 5272,
      "feb": 5273,
      "general_": 5274,
      "hya": 5275,
      "ahal": 5276,
      "law": 5277,
      "▁contrib": 5278,
      "india.gov.in/india-glance": 5279,
      "_Indian_general_": 5280,
      "▁right": 5281,
      "▁Islands\")": 5282,
      "▁2024.": 5283,
      "cyclop": 5284,
      "%7C": 5285,
      "%7c": 5286,
      "Uttarakhand": 5287,
      "olkata": 5288,
      "cording": 5289,
      "Wikipedia\\_articles": 5290,
      "volution": 5291,
      "▁Wikidata": 5292,
      "fferent": 5293,
      "ZvaGuaJIJgoC&pg=PA": 5294,
      "uducherry": 5295,
      "_Indian_general_election": 5296,
      "-शासित": 5297,
      "3-8": 5298,
      "577": 5299,
      "7).": 5300,
      "Kashmir": 5301,
      "\\*": 5302,
      "_श": 5303,
      "_24": 5304,
      "_17": 5305,
      "_धर्म": 5306,
      "_एशिया": 5307,
      "gra": 5308,
      "garh": 5309,
      "hra": 5310,
      "mrits": 5311,
      "ple": 5312,
      "tl": 5313,
      "ँची": 5314,
      "अरब": 5315,
      "ईस्ट": 5316,
      "टना": 5317,
      "दर्": 5318,
      "पृष्ठ": 5319,
      "भग": 5320,
      "भिय": 5321,
      "मरी": 5322,
      "रि": 5323,
      "स्व": 5324,
      "िर्": 5325,
      "ुम्बई": 5326,
      "ेक": 5327,
      "ेड": 5328,
      "ोला": 5329,
      "▁औ": 5330,
      "▁५": 5331,
      "▁ला": 5332,
      "▁भाग": 5333,
      "▁[U": 5334,
      "▁[प्र": 5335,
      "▁[तमिल": 5336,
      "▁\"ग": 5337,
      "▁\"ड": 5338,
      "▁\"ह": 5339,
      "hib": 5340,
      "2025": 5341,
      "alam": 5342,
      "▁कम": 5343,
      "▁काल": 5344,
      "▁कॉंग्रेस": 5345,
      "](https://hi.wikipedia.org/wiki/दक्षिण": 5346,
      "](https://hi.wikipedia.org/wiki/तमिल": 5347,
      "्रय": 5348,
      "isl": 5349,
      "▁सह": 5350,
      "▁सित": 5351,
      "▁समाज": 5352,
      "▁मई": 5353,
      "▁मिल": 5354,
      "▁पै": 5355,
      "▁पश्चिम": 5356,
      "entury": 5357,
      "ेंगल": 5358,
      "\\_स": 5359,
      "-15": 5360,
      "](https://hi.wikipedia.org/wiki/भारत_के_राज्य": 5361,
      "▁culture": 5362,
      "▁में,": 5363,
      "ाल्": 5364,
      "▁2014.": 5365,
      "▁जब": 5366,
      "▁दिल्ल": 5367,
      "ource": 5368,
      "भाई": 5369,
      "भाष": 5370,
      "▁Rothermund": 5371,
      "▁प्रस": 5372,
      "10)": 5373,
      "▁व्यवस्था": 5374,
      "▁H.": 5375,
      "hak": 5376,
      "22-9": 5377,
      "search": 5378,
      "▁गई": 5379,
      "archive.org/detail": 5380,
      "▁[मध्य": 5381,
      "▁शहर": 5382,
      "म्भ": 5383,
      "](https://mai.wikipedia.org/wiki/ब": 5384,
      "](https://mai.wikipedia.org/wiki/म": 5385,
      "166": 5386,
      "संधान": 5387,
      "]](https://hi.wikipedia.org/wiki/भारत#cite_note-pib": 5388,
      "_के_अन": 5389,
      "त्ति": 5390,
      "dex": 5391,
      "▁सागर": 5392,
      "▁लिये": 5393,
      "▁यूनिवर्सिट": 5394,
      "्रांस": 5395,
      "issile": 5396,
      "ext": 5397,
      "▁\"ब्रिटिश": 5398,
      "▁जनजाति": 5399,
      "रुणा": 5400,
      "html).": 5401,
      "ालीन": 5402,
      "ुसार_देश": 5403,
      "▁अधिकार": 5404,
      "आईएस": 5405,
      "ोर्ट": 5406,
      "▁शासित": 5407,
      "ेरल": 5408,
      "▁देख": 5409,
      "वादी": 5410,
      "unjabi": 5411,
      "लोकसभा": 5412,
      "urrent": 5413,
      "▁Indus": 5414,
      "हित्य": 5415,
      "catalog": 5416,
      "-4020": 5417,
      "▁(2018),": 5418,
      "ताजमह": 5419,
      "ristian": 5420,
      "प्राचीन": 5421,
      "▁[पाकिस्तान](https://hi.wikipedia.org/wiki/पाकिस्तान": 5422,
      "▁\"पाकिस्तान\")": 5423,
      "क्षरता": 5424,
      "भाजपा": 5425,
      "▁नेतृत्व": 5426,
      "दर्श": 5427,
      "ेंगलुरु": 5428,
      "archive.org/details/": 5429,
      "▁यूनिवर्सिटी": 5430,
      "/g": 5431,
      "1200": 5432,
      "2]](https://en.wikipedia.org/wiki/India#cite_note-": 5433,
      "350": 5434,
      "318": 5435,
      "313": 5436,
      ":**": 5437,
      "B0%": 5438,
      "Census": 5439,
      "De": 5440,
      "Provisional": 5441,
      "S.": 5442,
      "SAARC_summit": 5443,
      "_languages": 5444,
      "ax": 5445,
      "ather": 5446,
      "cog": 5447,
      "c/c": 5448,
      "hat": 5449,
      "lood": 5450,
      "m2": 5451,
      "nc": 5452,
      "oard": 5453,
      "tw": 5454,
      "ంతి": 5455,
      "కాల": 5456,
      "కారం": 5457,
      "ఖ్": 5458,
      "గంగా": 5459,
      "టో": 5460,
      "డిన": 5461,
      "తీ": 5462,
      "ధి": 5463,
      "ధించ": 5464,
      "నల్": 5465,
      "మన": 5466,
      "మర": 5467,
      "ర్యా": 5468,
      "లం": 5469,
      "లతో": 5470,
      "లమె": 5471,
      "ీస్": 5472,
      "ూప": 5473,
      "ూరు": 5474,
      "ెనీ": 5475,
      "ౌక": 5476,
      "▁ద": 5477,
      "▁ఫ": 5478,
      "▁im": 5479,
      "▁దక్షిణ": 5480,
      "▁హిందూ": 5481,
      "▁గాంధీ": 5482,
      "iam": 5483,
      "ors": 5484,
      "tte": 5485,
      "▁[భారతదేశం": 5486,
      "▁[ఢిల్లీ": 5487,
      "template": 5488,
      "ally": 5489,
      "rel": 5490,
      "esti": 5491,
      "thehind": 5492,
      "▁(c": 5493,
      "ారస": 5494,
      "raj": 5495,
      "raz": 5496,
      "ాలను": 5497,
      "\\_cont": 5498,
      "\\_identifiers": 5499,
      "స్](https://te.wikipedia.org/wiki/": 5500,
      "adwe": 5501,
      "▁far": 5502,
      "▁పెద్ద": 5503,
      "ర్లు": 5504,
      "uled": 5505,
      "ver,": 5506,
      "hell": 5507,
      "0000": 5508,
      "00–సా.శ.పూ.": 5509,
      "▁women": 5510,
      ".jpe": 5511,
      "253": 5512,
      "260": 5513,
      "267": 5514,
      "▁వే": 5515,
      "content": 5516,
      "28.": 5517,
      "tures": 5518,
      "hap": 5519,
      "hatt": 5520,
      "▁Gu": 5521,
      "▁November": 5522,
      "▁Nehru": 5523,
      "50th": 5524,
      "architecture": 5525,
      "_Affairs": 5526,
      "aryana": 5527,
      "త్తం": 5528,
      "▁[Singh": 5529,
      "▁(సా.శ.13": 5530,
      "▁(సా.శ.15": 5531,
      "]](https://en.wikipedia.org/wiki/India#cite_note-FOOTNOTEStein2010": 5532,
      "▁forest": 5533,
      "▁అనే": 5534,
      "▁ప్రజ": 5535,
      "తం\")": 5536,
      "ంచి": 5537,
      "aves": 5538,
      "▁ఆఫ్": 5539,
      "undament": 5540,
      "▁సాం": 5541,
      "▁[Ministry": 5542,
      "arty": 5543,
      "ార్లమె": 5544,
      "ecu": 5545,
      "ection": 5546,
      "rief": 5547,
      "▁\"British": 5548,
      "▁technology": 5549,
      "కిస్థాన్": 5550,
      "oreign": 5551,
      "iley": 5552,
      "▁నే": 5553,
      "▁నగర": 5554,
      "▁ext": 5555,
      "▁దేశం": 5556,
      "exis": 5557,
      "_GDP": 5558,
      "టిబె": 5559,
      "▁[Government": 5560,
      "_population": 5561,
      "్రీ.పూ.": 5562,
      "hmed": 5563,
      "ండియా": 5564,
      "](https://en.wikipedia.org/wiki/List_of_SAARC_summit": 5565,
      "▁produc": 5566,
      "▁ఎక్కువ": 5567,
      "▁ఎన్నో": 5568,
      "html)": 5569,
      "anta": 5570,
      "▁second": 5571,
      "▁./వర్గం:Wikipedia\\_articles": 5572,
      "▁regions": 5573,
      "▁[![A": 5574,
      "ashmiri": 5575,
      "_సం": 5576,
      "▁addition": 5577,
      "▁Hinduism": 5578,
      "ological": 5579,
      "టుంబ": 5580,
      "awahar": 5581,
      "▁భారత్": 5582,
      "kingdom": 5583,
      "మెరి": 5584,
      "▁మొత్తం": 5585,
      "బాద్": 5586,
      "eserve": 5587,
      "ంపెనీ": 5588,
      "హ్మ": 5589,
      "](https://doi.org/10.10": 5590,
      "▁ఏర్": 5591,
      ".php?": 5592,
      "omason": 5593,
      "▁groups": 5594,
      "్రిటిషు": 5595,
      "akshadwe": 5596,
      "_BRICS_summit": 5597,
      "▁Persian": 5598,
      "ootball": 5599,
      "overeign": 5600,
      "▁అత్యధిక": 5601,
      "ీర్ణ": 5602,
      "దక్షిణ_ఆసియా": 5603,
      "icobar": 5604,
      "▁summits\")": 5605,
      "\\_contain": 5606,
      "_GDP_(": 5607,
      "](https://en.wikipedia.org/wiki/List_of_SAARC_summits": 5608,
      "awaharl": 5609,
      "akshadweep": 5610,
      "EX": 5611,
      "_v": 5612,
      "_15": 5613,
      "_43": 5614,
      "ek": 5615,
      "p)": 5616,
      "ues": 5617,
      "▁United": 5618,
      "▁Qu": 5619,
      "en,": 5620,
      "cise": 5621,
      "\\_(": 5622,
      "\"),[[": 5623,
      "urity": 5624,
      "▁religious": 5625,
      "▁human": 5626,
      "▁name": 5627,
      "a_d": 5628,
      "ender": 5629,
      "onstitutional": 5630,
      "▁[Kulke": 5631,
      "▁sector": 5632,
      "_Lank": 5633,
      ".html).": 5634,
      "▁Plateau": 5635,
      "rishnan": 5636,
      "uthority": 5637,
      "kZVuDwAAQBAJ&pg=PA": 5638,
      ".](https://upload.wikimedia.org/wikipedia/commons/thumb/": 5639,
      ".\")\n\n": 5640,
      ".uk": 5641,
      "1-4": 5642,
      "2%": 5643,
      "4]](https://en.wikipedia.org/wiki/India#cite_note-": 5644,
      "5).": 5645,
      "674": 5646,
      "9/": 5647,
      "9]](https://en.wikipedia.org/wiki/India#cite_note-": 5648,
      "AG": 5649,
      "ES": 5650,
      "F)": 5651,
      "MC": 5652,
      "MID": 5653,
      "Ministry_of_": 5654,
      "M50th": 5655,
      "NCL": 5656,
      "PO": 5657,
      "Th": 5658,
      "_-": 5659,
      "a-": 5660,
      "ait": 5661,
      "aul": 5662,
      "code": 5663,
      "casting": 5664,
      "ece": 5665,
      "emplate_": 5666,
      "hu": 5667,
      "ham": 5668,
      "had": 5669,
      "hol": 5670,
      "ij": 5671,
      "ker": 5672,
      "lue": 5673,
      "ns": 5674,
      "ncient": 5675,
      "pture": 5676,
      "ंतर": 5677,
      "ईल": 5678,
      "घर": 5679,
      "घालय": 5680,
      "चें": 5681,
      "तुल": 5682,
      "थम": 5683,
      "थियार": 5684,
      "पि": 5685,
      "ल](https://hi.wikipedia.org/wiki/": 5686,
      "वेश": 5687,
      "वैद": 5688,
      "हम": 5689,
      "िबंध": 5690,
      "ृष": 5691,
      "ेन्द्र": 5692,
      "ोट": 5693,
      "ोड": 5694,
      "्लेट": 5695,
      "▁,": 5696,
      "▁z": 5697,
      "▁३": 5698,
      "▁36": 5699,
      "▁low": 5700,
      "▁[f": 5701,
      "▁[राज्य": 5702,
      "▁[World": 5703,
      "▁[नेपाल": 5704,
      "▁[गुजरात": 5705,
      "▁\"सा": 5706,
      "▁\"नेपाल": 5707,
      "infob": 5708,
      "anat": 5709,
      "hili": 5710,
      "thang": 5711,
      "th_BRICS_summit": 5712,
      "arlo": 5713,
      "araj": 5714,
      "ारो": 5715,
      "ारम्भ": 5716,
      "aland": 5717,
      "alli": 5718,
      "ret": 5719,
      "](https://hi.wikipedia.org/wiki/ज": 5720,
      "भारत)\")": 5721,
      "anda": 5722,
      "▁(b": 5723,
      "▁(क": 5724,
      "▁(19": 5725,
      "▁(भारत)\")": 5726,
      "outheast": 5727,
      "▁मन": 5728,
      "icon": 5729,
      "▁India.[[": 5730,
      "राक": 5731,
      "rat": 5732,
      "▁sq": 5733,
      "र्ट": 5734,
      "र्त": 5735,
      "र्भ": 5736,
      "ेंस": 5737,
      "rime": 5738,
      "\\_क": 5739,
      "\\_country": 5740,
      "\\_पृष्ठ": 5741,
      "▁Civil": 5742,
      "](https://hi.wikipedia.org/wiki/भारत_स": 5743,
      "uss": 5744,
      "▁caus": 5745,
      "▁tree": 5746,
      "adhya": 5747,
      "loc": 5748,
      "loth": 5749,
      "lies": 5750,
      "▁अमेर": 5751,
      "▁अलग": 5752,
      "▁man": 5753,
      "▁maint": 5754,
      "ular": 5755,
      "FOOTNOTENational_Informatics_Centre2005": 5756,
      "_of_2011": 5757,
      "वियत": 5758,
      "ालैंड": 5759,
      "▁2012.": 5760,
      "▁जय": 5761,
      "▁जिन": 5762,
      "न्ध": 5763,
      "▁दोन": 5764,
      "links": 5765,
      "▁des": 5766,
      "▁This": 5767,
      "▁M.": 5768,
      "भाजन": 5769,
      "▁Research": 5770,
      "▁बंगाल": 5771,
      "▁बड़े": 5772,
      "▁प्रधानमंत्री": 5773,
      "▁नव": 5774,
      "▁B.;": 5775,
      "▁सेवा": 5776,
      "iger": 5777,
      "103": 5778,
      "109": 5779,
      "_से": 5780,
      "▁काम": 5781,
      "▁आक": 5782,
      "▁आन्दोल": 5783,
      "upt": 5784,
      "_in_New": 5785,
      "115": 5786,
      "oples": 5787,
      "_Act": 5788,
      "▁गठ": 5789,
      "▁कोर": 5790,
      "▁hum": 5791,
      "▁house": 5792,
      "▁परि": 5793,
      "▁संस्थान": 5794,
      "_महासागर": 5795,
      "_Population": 5796,
      "_Paper": 5797,
      "संबर": 5798,
      "ियन": 5799,
      "](https://hi.wikipedia.org/wiki/भारत#cite_ref-pib": 5800,
      "](https://hi.wikipedia.org/wiki/भारत#cite_ref-langoff": 5801,
      "]](https://hi.wikipedia.org/wiki/भारत#cite_note-langoff-1": 5802,
      "▁रक्षा": 5803,
      "ी](https://hi.wikipedia.org/wiki/म": 5804,
      "emographic": 5805,
      "▁these": 5806,
      "▁\"मध्य": 5807,
      "-7mar": 5808,
      "जापान": 5809,
      "▁[↑](https://en.wikipedia.org/wiki/India#cite_ref-FOOTNOTEB": 5810,
      "%20A": 5811,
      "हाँ": 5812,
      "ligions": 5813,
      "▁[British": 5814,
      "ोली": 5815,
      "_Totals": 5816,
      "▁Press](https://en.wikipedia.org/wiki/C": 5817,
      "-107-0": 5818,
      "ंधी": 5819,
      "](https://hi.wikipedia.org/wiki/मध्य": 5820,
      "▁def": 5821,
      "▁development": 5822,
      "▁language\"),": 5823,
      ")\n\nThe": 5824,
      "ibcode": 5825,
      "▁\"Government": 5826,
      "▁जनता": 5827,
      "49-2": 5828,
      "द्यालय": 5829,
      "▁चार": 5830,
      "ikhism": 5831,
      "_1_of_2011": 5832,
      "गुप्त": 5833,
      "▁[Dyson": 5834,
      "ports": 5835,
      "120]](https://hi.wikipedia.org/wiki/भारत#cite_note-langoff-1": 5836,
      "merg": 5837,
      "▁घाट": 5838,
      "▁घाटी": 5839,
      "न्नड़": 5840,
      "न्तु": 5841,
      "](https://hi.wikipedia.org/wiki/पंजाब": 5842,
      "](https://hi.wikipedia.org/wiki/पश्चिम": 5843,
      "Stein1998),": 5844,
      "Singh2009),": 5845,
      "▁1994": 5846,
      "▁./श्रेणी:CS1": 5847,
      "▁languages\")": 5848,
      "▁control": 5849,
      "▁when": 5850,
      "ों_की_सूची?action=edit&redlink=1": 5851,
      "▁CITEREFStein1998": 5852,
      "▁CITEREFSingh2009": 5853,
      "_Force": 5854,
      "PPP": 5855,
      "rancis": 5856,
      "%E0%A4%A": 5857,
      "एसिया": 5858,
      "](https://hi.wikipedia.org/wiki/भारत#CITEREFStein1998),": 5859,
      "](https://hi.wikipedia.org/wiki/भारत#CITEREFSingh2009),": 5860,
      "रेन्द्र": 5861,
      "ynth": 5862,
      "phere": 5863,
      "▁[संयुक्त": 5864,
      "KulkeRothermund200": 5865,
      "वर्त": 5866,
      "▁थे": 5867,
      "धीरे": 5868,
      "▁पाकिस्तान": 5869,
      "त्पत्ति": 5870,
      "▁Programme": 5871,
      "uisine": 5872,
      "▁km2": 5873,
      "▁मंदिर\")": 5874,
      "▁composed": 5875,
      "odiversity": 5876,
      "िन्धु": 5877,
      "ondon": 5878,
      "नागालैंड": 5879,
      "gypt": 5880,
      "▁wide": 5881,
      "▁\"संस्कृत": 5882,
      "ighth": 5883,
      "oastal": 5884,
      "▁वर्षों": 5885,
      "dependence": 5886,
      "▁2009](https://hi.wikipedia.org/wiki/भारत#CITEREFSingh2009),": 5887,
      "▁along": 5888,
      "रोहर": 5889,
      "ृष्ण": 5890,
      "struc": 5891,
      "_न्या": 5892,
      "वार्ता:": 5893,
      "disha": 5894,
      "▁Registrar": 5895,
      "▁दृश्य": 5896,
      "ennai": 5897,
      ".htm)": 5898,
      "▁सिनेमा\"),": 5899,
      "arnatic": 5900,
      "तन्त्रता": 5901,
      "Hindustan": 5902,
      "▁वार्ता:": 5903,
      "Articles\\_contain": 5904,
      "▁होती": 5905,
      "▁भूमिका": 5906,
      "Report.pdf)": 5907,
      "ynasty": 5908,
      "▁1998](https://hi.wikipedia.org/wiki/भारत#CITEREFStein1998),": 5909,
      "▁अर्थव्यवस्था": 5910,
      "▁दिसंबर": 5911,
      "▁स्तर": 5912,
      "ssociation": 5913,
      "nclm.nic.in/shared/linkimages/NCL": 5914,
      "roadcasting": 5915,
      "arliest": 5916,
      "o-operation": 5917,
      "हायता:": 5918,
      "▁Increase": 5919,
      "रुणाचल": 5920,
      "Provisional_Population": 5921,
      "hattis": 5922,
      "M50thReport.pdf)": 5923,
      "चेंज": 5924,
      "वैदिक": 5925,
      "िबंधीय": 5926,
      "infobox": 5927,
      "\\_पृष्ठसभ": 5928,
      "_in_New_Delhi": 5929,
      "_Paper_1_of_2011": 5930,
      "](https://hi.wikipedia.org/wiki/भारत#cite_ref-langoff_128": 5931,
      "-7mar2011": 5932,
      "_Totals_Paper_1_of_2011": 5933,
      "120]](https://hi.wikipedia.org/wiki/भारत#cite_note-langoff-128)": 5934,
      "nclm.nic.in/shared/linkimages/NCLM50thReport.pdf)": 5935,
      "Provisional_Population_Totals_Paper_1_of_2011": 5936,
      "Provisional_Population_Totals_Paper_1_of_2011_India": 5937,
      "*](http://": 5938,
      "-C": 5939,
      "/India": 5940,
      "Ze": 5941,
      "_20": 5942,
      "_38": 5943,
      "day": 5944,
      "each": 5945,
      "hut": 5946,
      "most": 5947,
      "n_A": 5948,
      "ption": 5949,
      "▁old": 5950,
      "\")\"": 5951,
      "him": 5952,
      "of\\_": 5953,
      "▁India*.": 5954,
      "▁prom": 5955,
      "\\_of\\_": 5956,
      "▁Central": 5957,
      "ref-10": 5958,
      "note-10": 5959,
      "_St": 5960,
      "oung": 5961,
      "▁2001": 5962,
      "▁only": 5963,
      "▁near": 5964,
      "▁[\"P": 5965,
      "▁Languages": 5966,
      "709": 5967,
      "▁News": 5968,
      "attle": 5969,
      "▁use": 5970,
      "ethnologue": 5971,
      "▁2019.\n": 5972,
      "▁People": 5973,
      "ilgrim": 5974,
      "▁estimate": 5975,
      "ethnologue.com/": 5976,
      "\"](http://": 5977,
      "-j": 5978,
      "-r": 5979,
      "-India": 5980,
      "-the": 5981,
      "-national": 5982,
      "/b": 5983,
      "2-1": 5984,
      "418": 5985,
      "7C": 5986,
      "7]](https://en.wikipedia.org/wiki/India#cite_note-": 5987,
      "Alig": 5988,
      "Allchin": 5989,
      "Home": 5990,
      "IF": 5991,
      "IUCN": 5992,
      "Language": 5993,
      "Petraglia": 5994,
      "_pe": 5995,
      "_26": 5996,
      "_2004": 5997,
      "_జాబితా": 5998,
      "ault": 5999,
      "cover": 6000,
      "eat": 6001,
      "epend": 6002,
      "equality": 6003,
      "hang": 6004,
      "jan": 6005,
      "mil": 6006,
      "ott": 6007,
      "oin": 6008,
      "ren": 6009,
      "vent": 6010,
      "ఆంధ": 6011,
      "కీ": 6012,
      "కాలు": 6013,
      "క్రమ": 6014,
      "గర్": 6015,
      "డో": 6016,
      "థి": 6017,
      "నె": 6018,
      "నాలు": 6019,
      "పించ": 6020,
      "బడ్డ": 6021,
      "భర": 6022,
      "మహ": 6023,
      "మై": 6024,
      "యన": 6025,
      "రంగ": 6026,
      "లయా": 6027,
      "వార": 6028,
      "శీ": 6029,
      "షనల్": 6030,
      "స్య": 6031,
      "ృద్ధి": 6032,
      "ెంగ": 6033,
      "ేర": 6034,
      "–24": 6035,
      "▁46": 6036,
      "▁hist": 6037,
      "▁దా": 6038,
      "▁నాగరికత": 6039,
      "▁టెక్నాలజీ": 6040,
      "iary": 6041,
      "org": 6042,
      "orn": 6043,
      "](Template:": 6044,
      "hild": 6045,
      "erman": 6046,
      "aro": 6047,
      "ed,": 6048,
      "్రై": 6049,
      "్రప్రదేశ్": 6050,
      "](https://te.wikipedia.org/wiki/ఢిల్లీ": 6051,
      "asi": 6052,
      "ashi": 6053,
      "▁India](https://en.wikipedia.org/wiki/C": 6054,
      "idy": 6055,
      "rahm": 6056,
      "▁si": 6057,
      "▁Cooperation": 6058,
      "atab": 6059,
      "▁colle": 6060,
      "\n\nభారతదేశం": 6061,
      "దేశం": 6062,
      "దేశాల": 6063,
      "దేశాలు": 6064,
      "స్\")": 6065,
      "adras": 6066,
      "▁fam": 6067,
      "vey": 6068,
      "ర్‌": 6069,
      "▁Park": 6070,
      "comm": 6071,
      "▁14.": 6072,
      "_of_B": 6073,
      "లు?action=edit&redlink=1": 6074,
      "రాఠ": 6075,
      "▁Man": 6076,
      "▁Michael": 6077,
      "]](https://en.wikipedia.org/wiki/India#cite_note-Combined": 6078,
      "matic": 6079,
      "▁కి": 6080,
      "▁కో": 6081,
      "238": 6082,
      "ign_": 6083,
      "igarh": 6084,
      "క్టో": 6085,
      "నియా": 6086,
      "▁వర్": 6087,
      "▁వారస": 6088,
      "irth": 6089,
      "india.com/": 6090,
      "ల్వే": 6091,
      "pecially": 6092,
      "▁సరిహద్దు": 6093,
      "▁మన": 6094,
      "▁మూ": 6095,
      "▁Games": 6096,
      "ండమా": 6097,
      "▁చిన్న": 6098,
      "▁growth": 6099,
      "▁rema": 6100,
      "▁religion": 6101,
      "తాన": 6102,
      "ముఖ": 6103,
      "ability": 6104,
      "త్వం": 6105,
      "▁(సా.శ.17": 6106,
      "▁(సా.శ.14": 6107,
      "]](https://en.wikipedia.org/wiki/India#cite_note-FOOTNOTEB": 6108,
      "ులు,": 6109,
      "–సా.శ.15": 6110,
      "–సా.శ.17": 6111,
      "▁ప్రతి": 6112,
      "▁ప్రస్తు": 6113,
      "▁ప్రకారం": 6114,
      "▁ప్రముఖ": 6115,
      "AAJ": 6116,
      "ంచిన": 6117,
      "కుడు": 6118,
      "నుమ": 6119,
      "▁through": 6120,
      "osphere": 6121,
      "▁\"Mughal": 6122,
      "▁రో": 6123,
      "▁రంగ": 6124,
      "▁రవాణా": 6125,
      "▁సాధించ": 6126,
      "_Data": 6127,
      "](https://en.wikipedia.org/wiki/Mugh": 6128,
      "ష్టు": 6129,
      "eccan": 6130,
      "▁within": 6131,
      "](https://en.wikipedia.org/wiki/British": 6132,
      "48)": 6133,
      "ంతో": 6134,
      "▁\"Template:": 6135,
      "▁తరువా": 6136,
      "పాలన": 6137,
      "▁exp": 6138,
      "a_Empire": 6139,
      ")\n\n-": 6140,
      "issing": 6141,
      "ం](https://te.wikipedia.org/wiki/భారతీయ": 6142,
      "iance": 6143,
      "▁[978-0-521": 6144,
      "గుర్": 6145,
      "నేషనల్": 6146,
      ",_కేంద్రపాలిత": 6147,
      "▁ప్రాంతం": 6148,
      "▁రాజ్యం](https://te.wikipedia.org/wiki/": 6149,
      "Asher2006": 6150,
      "AsherAsher2006": 6151,
      "వందే": 6152,
      "▁బా": 6153,
      "▁బహు": 6154,
      "▁బెంగ": 6155,
      "ాల్లో": 6156,
      "శ్వా": 6157,
      "ారిటీ": 6158,
      "AsherTalbot20": 6159,
      "handigarh": 6160,
      "on-Alig": 6161,
      "▁ప్రాంతాలు\")": 6162,
      "గోళ": 6163,
      "8/8": 6164,
      "ediff": 6165,
      "బడిన": 6166,
      "▁ago": 6167,
      "తున్న": 6168,
      "న్నిక": 6169,
      "▁స్వాతంత్ర్య": 6170,
      "▁కాలంలో": 6171,
      "ote:": 6172,
      "Dyson2018),": 6173,
      "mitt": 6174,
      "countries_and_depend": 6175,
      "ortal:": 6176,
      "rishna": 6177,
      "ంపి": 6178,
      "encies_by": 6179,
      "బెంగాల్": 6180,
      "▁especially": 6181,
      "ెలవు": 6182,
      "](https://te.wikipedia.org/wiki/భారతదేశంలో_": 6183,
      ".nlm": 6184,
      "▁Buddhist": 6185,
      "bi.nlm": 6186,
      "_from": 6187,
      "▁increased": 6188,
      "▁అధికారిక": 6189,
      "4/4": 6190,
      "culpture": 6191,
      "](https://en.wikipedia.org/wiki/South_Asian_": 6192,
      "▁2018](https://en.wikipedia.org/wiki/India#CITEREFDyson2018),": 6193,
      "nergy": 6194,
      "ఆర్ధిక": 6195,
      "▁పట్టణ": 6196,
      "▁కాశ్మీరు": 6197,
      "▁dependencies": 6198,
      "ంగ్లీషు": 6199,
      "▁అయిన": 6200,
      "▁రెండు": 6201,
      "violence": 6202,
      "ాల్దీవులు": 6203,
      ".nih": 6204,
      "ట్రో": 6205,
      "ుల్తాన": 6206,
      "రాష్ట్రాలు,_కేంద్రపాలిత": 6207,
      "▁వ్యాసం:": 6208,
      "mritsar": 6209,
      "ncbi.nlm": 6210,
      "ార్లమెంట": 6211,
      "▁./వర్గం:Wikipedia\\_articles\\_with\\_": 6212,
      "▁ఏర్ప": 6213,
      "▁Quote:": 6214,
      "PetragliaAllchin": 6215,
      "ఆంధ్రప్రదేశ్": 6216,
      "లయాళ": 6217,
      "](https://en.wikipedia.org/wiki/Mughal_": 6218,
      "on-Aligned": 6219,
      "countries_and_dependencies_by": 6220,
      "రాష్ట్రాలు,_కేంద్రపాలిత_ప్రాంత": 6221,
      "ncbi.nlm.nih": 6222,
      ".co": 6223,
      "/).": 6224,
      "/india": 6225,
      "09": 6226,
      "126": 6227,
      "2)[[": 6228,
      "338": 6229,
      "4,": 6230,
      ";[[": 6231,
      "AS": 6232,
      "A5%": 6233,
      "Front": 6234,
      "NG": 6235,
      "Pakistan": 6236,
      "_0": 6237,
      "_त": 6238,
      "_36": 6239,
      "kb": 6240,
      "sources": 6241,
      "ंश": 6242,
      "इव": 6243,
      "ईद": 6244,
      "ऍथ": 6245,
      "एल": 6246,
      "ऑक्सफोर्ड": 6247,
      "ख़": 6248,
      "गध": 6249,
      "गाल": 6250,
      "छि": 6251,
      "जपुरी": 6252,
      "जिस्ट": 6253,
      "ताल": 6254,
      "दय": 6255,
      "दल": 6256,
      "दार": 6257,
      "दान": 6258,
      "नोल": 6259,
      "नत्व": 6260,
      "पया": 6261,
      "पीय": 6262,
      "पदी": 6263,
      "फ्रांस": 6264,
      "बू": 6265,
      "मत": 6266,
      "मृत": 6267,
      "शत": 6268,
      "शोक": 6269,
      "हें": 6270,
      "ुक": 6271,
      "ुरा": 6272,
      "ुवै": 6273,
      "ूबर": 6274,
      "ेघालय": 6275,
      "ॉग": 6276,
      "ौपदी": 6277,
      "४७": 6278,
      "५०": 6279,
      "▁:": 6280,
      "▁`": 6281,
      "▁ऐ": 6282,
      "▁रा": 6283,
      "▁ना": 6284,
      "▁[श": 6285,
      "▁\"राष्ट्रीय": 6286,
      "▁\"साँच": 6287,
      "▁\"साँचा:": 6288,
      "anchi": 6289,
      "ties/": 6290,
      "rest": 6291,
      "report": 6292,
      "](https://hi.wikipedia.org/wiki/ग": 6293,
      "](https://hi.wikipedia.org/wiki/हिन्द": 6294,
      "](https://hi.wikipedia.org/wiki/साँच": 6295,
      "](https://hi.wikipedia.org/wiki/साँचा:": 6296,
      "्रार": 6297,
      "▁सूच": 6298,
      "▁सीमा": 6299,
      "▁(S": 6300,
      "▁मह": 6301,
      "▁मन्दिर": 6302,
      "्यूरो": 6303,
      "रात": 6304,
      "▁पड़": 6305,
      "▁पहु": 6306,
      "▁प्लेट": 6307,
      "ानगर": 6308,
      "र्ग": 6309,
      "▁popul": 6310,
      "ets": 6311,
      "▁हाला": 6312,
      "▁हथियार": 6313,
      "ator": 6314,
      "agen": 6315,
      "ager": 6316,
      "▁See": 6317,
      "▁Society": 6318,
      "िकी": 6319,
      "78.": 6320,
      "lock": 6321,
      "lite": 6322,
      "▁अछि": 6323,
      "umeration": 6324,
      "uran": 6325,
      "urry": 6326,
      "_of_Congress": 6327,
      "ालर": 6328,
      "rov": 6329,
      "▁ज़": 6330,
      "▁दी": 6331,
      ".\n11": 6332,
      "▁Muslim": 6333,
      "▁बार": 6334,
      "▁बने": 6335,
      "▁बड़ा": 6336,
      "▁top": 6337,
      "लाओ": 6338,
      "तिब्बत": 6339,
      "▁नौसेना": 6340,
      "्टॉक": 6341,
      "269,": 6342,
      "▁Dictionary": 6343,
      "24.": 6344,
      "ird": 6345,
      "न्दा": 6346,
      "▁वृद्ध": 6347,
      "क्षण": 6348,
      "क्षद्वीप": 6349,
      "287,": 6350,
      "▁आर": 6351,
      "upreme": 6352,
      "स्थ": 6353,
      "-459": 6354,
      "री](https://hi.wikipedia.org/wiki/": 6355,
      "22.": 6356,
      "थाईल": 6357,
      "-85": 6358,
      "▁1962": 6359,
      "]](https://hi.wikipedia.org/wiki/भारत#cite_note-10": 6360,
      "▁[महाराष्ट्र": 6361,
      "कांक": 6362,
      "हिमालय": 6363,
      "म्प्र": 6364,
      "](https://mai.wikipedia.org/wiki/क": 6365,
      "ustrial": 6366,
      "▁विज्ञान": 6367,
      "ियर": 6368,
      "सां": 6369,
      "राष्ट्रीय_": 6370,
      "ndhra": 6371,
      "o-d": 6372,
      "▁\"महा": 6373,
      "▁\"महाराष्ट्र": 6374,
      "ंडमान": 6375,
      "▁लिया": 6376,
      "मन्त": 6377,
      "मीरात": 6378,
      "परेशन": 6379,
      "▁करना": 6380,
      "▁करता": 6381,
      "र्मू": 6382,
      "्राष्ट्र": 6383,
      "्रांति": 6384,
      "](https://hi.wikipedia.org/wiki/महाराष्ट्र": 6385,
      "a_1": 6386,
      "ंदोल": 6387,
      "त्मा": 6388,
      "▁[ब्रिटिश": 6389,
      "▁[2](https://hi.wikipedia.org/wiki/भारत#cite_ref-FOOTNOTE": 6390,
      "पुर\")": 6391,
      "▁[1](https://hi.wikipedia.org/wiki/भारत#cite_ref-FOOTNOTE": 6392,
      "राष्ट्रीय_स": 6393,
      "▁Chand": 6394,
      "हारजिस्ट": 6395,
      "▁वर्षा": 6396,
      "▁भाषा\")[[": 6397,
      "द्रौपदी": 6398,
      "ा_वार्ता:": 6399,
      "_भारतीय_": 6400,
      "मेन": 6401,
      "▁घोष": 6402,
      "▁घरेलू": 6403,
      "amese": 6404,
      "समूह": 6405,
      "▁(2014).": 6406,
      "](https://hi.wikipedia.org/wiki/पूर्व": 6407,
      "alayalam": 6408,
      "जराय": 6409,
      "▁[उत्तर": 6410,
      "▁निभाई": 6411,
      "▁\"उत्तर": 6412,
      "▁मानव": 6413,
      "▁2007\n": 6414,
      "दाख": 6415,
      "▁था,": 6416,
      "▁./श्रेणी:Harv\\_and\\_Sfn\\_no-target\\_errors\n8": 6417,
      "ेर-": 6418,
      "1947)": 6419,
      "ureau": 6420,
      "ंपन": 6421,
      "ंपरा": 6422,
      "▁[↑](https://hi.wikipedia.org/wiki/भारत#cite_ref-10": 6423,
      "▁अपने": 6424,
      "pib.nic.in/": 6425,
      "ार्कट": 6426,
      "जयनगर": 6427,
      "▁तटीय": 6428,
      "▁एशिया\")": 6429,
      "राष्ट्रपति\")": 6430,
      "▁उत्तर-प": 6431,
      "िज़ोर": 6432,
      "f/f": 6433,
      "▁सुरक्षा": 6434,
      "लिंग": 6435,
      "▁सदस": 6436,
      "▁दृष्ट": 6437,
      "पातकाल": 6438,
      "▁जलवायु": 6439,
      "troduction": 6440,
      "▁(1,269,": 6441,
      "भोजपुरी": 6442,
      "text": 6443,
      "▁3,287,": 6444,
      "-language\\_sources": 6445,
      "स्लाम": 6446,
      "▁राजनीतिक": 6447,
      "▁[पंजाब](https://hi.wikipedia.org/wiki/पंजाब": 6448,
      "८५७": 6449,
      "bank.org/": 6450,
      "_राजवंश": 6451,
      "फाएं": 6452,
      "▁शुरू": 6453,
      "▁लगभग": 6454,
      "▁Minorities,": 6455,
      "ouncil": 6456,
      "खनऊ": 6457,
      "▁व्यापार": 6458,
      "हरियाणा": 6459,
      "reedom": 6460,
      "_के_अनुसार_देश": 6461,
      "तुल्य": 6462,
      "ृषि": 6463,
      "▁दोनों": 6464,
      "ऍथनोल": 6465,
      "ुवैत": 6466,
      "▁\"साँचा": 6467,
      "](https://hi.wikipedia.org/wiki/साँचा_वार्ता:": 6468,
      "▁वृद्धि": 6469,
      "▁[महाराष्ट्र](https://hi.wikipedia.org/wiki/महाराष्ट्र": 6470,
      "▁\"महाराष्ट्र\")": 6471,
      "हारजिस्ट्रार": 6472,
      "ार्कटिका": 6473,
      "-language\\_sources\\_(": 6474,
      "ऍथनोलॉग": 6475,
      "%3": 6476,
      "-e": 6477,
      "-i": 6478,
      "-k": 6479,
      "-world": 6480,
      "2),": 6481,
      "5]](https://en.wikipedia.org/wiki/India#cite_note-FOOTNOTE": 6482,
      "534": 6483,
      "677": 6484,
      "C)": 6485,
      "Mumbai": 6486,
      "Official": 6487,
      "Paki": 6488,
      "_&": 6489,
      "_Union": 6490,
      "_2024": 6491,
      "aha": 6492,
      "baki": 6493,
      "caste": 6494,
      "eu": 6495,
      "hl": 6496,
      "hdr": 6497,
      "jpg": 6498,
      "ject": 6499,
      "ka": 6500,
      "khand": 6501,
      "late": 6502,
      "men": 6503,
      "oes": 6504,
      "page": 6505,
      "rance": 6506,
      "round": 6507,
      "s:": 6508,
      "sc": 6509,
      "subcontinent": 6510,
      "tain": 6511,
      "vil": 6512,
      "wana": 6513,
      "▁web": 6514,
      "▁eng": 6515,
      "orship": 6516,
      "](https://id": 6517,
      "](https://www": 6518,
      "▁[n": 6519,
      "tection": 6520,
      "ences": 6521,
      "▁\"U": 6522,
      "▁\"World": 6523,
      "\")\n\n[![](https://upload.wikimedia.org/wikipedia/commons/thumb/": 6524,
      "ants": 6525,
      "](https://en.wikipedia.org/wiki/World": 6526,
      "erved": 6527,
      "artition": 6528,
      "alit": 6529,
      "ederal": 6530,
      "▁(ed.).": 6531,
      "▁(a)": 6532,
      "ichell": 6533,
      "▁sur": 6534,
      "ately": 6535,
      "▁political": 6536,
      "▁Comp": 6537,
      "atna": 6538,
      "▁Asher": 6539,
      "ango": 6540,
      "angam": 6541,
      "▁bu": 6542,
      "umar": 6543,
      "vert": 6544,
      "very": 6545,
      "stani": 6546,
      "iland": 6547,
      "▁work": 6548,
      "ourbaki": 6549,
      "oln": 6550,
      "▁Bi": 6551,
      "▁By": 6552,
      "23.": 6553,
      "286": 6554,
      "▁Health": 6555,
      "hai": 6556,
      "▁Ge": 6557,
      "opland": 6558,
      "▁2007.": 6559,
      "-345": 6560,
      "▁gen": 6561,
      "▁[\"G": 6562,
      "406]](https://en.wikipedia.org/wiki/India#cite_note-": 6563,
      "_Pro": 6564,
      "▁International": 6565,
      "▁\"Cambridge": 6566,
      "harkhand": 6567,
      "_Comm": 6568,
      "▁before": 6569,
      "▁[Cambridge": 6570,
      "oss": 6571,
      "▁[↑](https://en.wikipedia.org/wiki/India#cite_ref-FOOTNOTEStein2010": 6572,
      "_Mahal": 6573,
      "▁original](http://www.": 6574,
      "2011religion": 6575,
      "inema": 6576,
      "arden": 6577,
      "%2C_India": 6578,
      ")\n\n[": 6579,
      "▁range": 6580,
      "aking": 6581,
      "_proj": 6582,
      "class": 6583,
      "vention": 6584,
      "▁Chinese": 6585,
      "▁lite": 6586,
      "▁[New": 6587,
      "onstitution_of_India": 6588,
      "ambridge_University_Press": 6589,
      "▁vill": 6590,
      "▁2007](https://en.wikipedia.org/wiki/India#CITEREF": 6591,
      "erves": 6592,
      "aceu": 6593,
      "▁Pradesh\")": 6594,
      "int:": 6595,
      "ollingham": 6596,
      "▁different": 6597,
      "cheduled": 6598,
      "ritsch": 6599,
      "▁including": 6600,
      "▁[India](https://en.wikipedia.org/wiki/India": 6601,
      "▁(identifier)\"):[10.10": 6602,
      "-of-india": 6603,
      "_of_South_Asia": 6604,
      "IMFWEO.IN-": 6605,
      "vatsyayan-lord-4": 6606,
      "vatsyayan-lord_43": 6607,
      "business/": 6608,
      "eographical": 6609,
      "arnataka": 6610,
      "owever,": 6611,
      "harmaceu": 6612,
      "▁Before": 6613,
      "▁mi)": 6614,
      "olonial": 6615,
      "Census2011religion": 6616,
      "hmedabad": 6617,
      "▁(b)": 6618,
      "▁Press](https://en.wikipedia.org/wiki/Cambridge_University_Press": 6619,
      "hutan": 6620,
      "Pakistani": 6621,
      "▁Asher,": 6622,
      "406]](https://en.wikipedia.org/wiki/India#cite_note-vatsyayan-lord-4": 6623,
      "&ss": 6624,
      "-w": 6625,
      "-ex": 6626,
      "/national": 6627,
      "226": 6628,
      "3,": 6629,
      "34)": 6630,
      "32)": 6631,
      "TO": 6632,
      "_te": 6633,
      "even": 6634,
      "g)": 6635,
      "hal": 6636,
      "es,": 6637,
      "es.": 6638,
      "ica": 6639,
      "ries/": 6640,
      "amy": 6641,
      "▁Ad": 6642,
      "▁Stu": 6643,
      "loped": 6644,
      "stor": 6645,
      "▁Minister": 6646,
      "igved": 6647,
      "▁Day": 6648,
      "bert": 6649,
      "ody": 6650,
      "ountries/": 6651,
      "17.": 6652,
      "▁Asia:": 6653,
      "-symbols": 6654,
      "▁Urdu": 6655,
      "▁contin": 6656,
      "visions": 6657,
      "▁Short": 6658,
      "▁2020.": 6659,
      "▁commun": 6660,
      "▁|\n\nCategory:": 6661,
      "tiger": 6662,
      "...]": 6663,
      "itzel": 6664,
      "/national-symbols": 6665,
      ")\"),": 6666,
      "-R": 6667,
      "-for": 6668,
      "-गंगा": 6669,
      ".ed": 6670,
      "0/0": 6671,
      "1]](https://en.wikipedia.org/wiki/India#cite_note-": 6672,
      "220": 6673,
      "221": 6674,
      "400": 6675,
      "5]](https://en.wikipedia.org/wiki/India#cite_note-": 6676,
      "7-8": 6677,
      "8+": 6678,
      "Collingham": 6679,
      "Ex": 6680,
      "Jha": 6681,
      "KI": 6682,
      "OLA": 6683,
      "S$": 6684,
      "Template": 6685,
      "Tarlo": 6686,
      "_వి": 6687,
      "_industry": 6688,
      "_కాశ్మీ": 6689,
      "aos": 6690,
      "d/": 6691,
      "eligious": 6692,
      "gu": 6693,
      "janta": 6694,
      "mill": 6695,
      "odia": 6696,
      "po": 6697,
      "rune": 6698,
      "s_in_India": 6699,
      "via": 6700,
      "wat": 6701,
      "yd": 6702,
      "yer": 6703,
      "zer": 6704,
      "ँकि": 6705,
      "इटे": 6706,
      "ऊर्जा": 6707,
      "ऋतु": 6708,
      "ऑपरेशन": 6709,
      "क\")": 6710,
      "क\\_पृष्ठसभ": 6711,
      "ख्य": 6712,
      "त्या": 6713,
      "थी": 6714,
      "दु": 6715,
      "दमन": 6716,
      "नत": 6717,
      "बी": 6718,
      "ल्त": 6719,
      "लिम": 6720,
      "वत": 6721,
      "शील": 6722,
      "सत": 6723,
      "स](https://hi.wikipedia.org/wiki/": 6724,
      "सैन": 6725,
      "ाय": 6726,
      "ुट": 6727,
      "ुस्तान": 6728,
      "ूस": 6729,
      "ैली": 6730,
      "ोण": 6731,
      "ोब": 6732,
      "ौक्स": 6733,
      "१८५७": 6734,
      "२६": 6735,
      "४.": 6736,
      "ంస్కృ": 6737,
      "ఉత్తరా": 6738,
      "ఖో": 6739,
      "ఘాలయ": 6740,
      "చ్": 6741,
      "టై": 6742,
      "టర్": 6743,
      "డమ్": 6744,
      "డఖ్": 6745,
      "ణే": 6746,
      "ణంగా": 6747,
      "తే": 6748,
      "తెల": 6749,
      "దరంగ": 6750,
      "నో": 6751,
      "నంద": 6752,
      "బర్": 6753,
      "బార్": 6754,
      "యె": 6755,
      "రె": 6756,
      "లడఖ్": 6757,
      "ళా": 6758,
      "ళి": 6759,
      "శు": 6760,
      "హించ": 6761,
      "ుకు": 6762,
      "ెన్న": 6763,
      "ెట్రో": 6764,
      "ేతి": 6765,
      "ేఘాలయ": 6766,
      "ైనిక": 6767,
      "ొగలు": 6768,
      "ోళ": 6769,
      "‌కా": 6770,
      "‌మహ": 6771,
      "▁९": 6772,
      "▁ఐ": 6773,
      "▁ఖ": 6774,
      "▁40": 6775,
      "▁–సా.శ.": 6776,
      "▁భారతీయ": 6777,
      "▁దినోత్స": 6778,
      "▁kingdom": 6779,
      "tter": 6780,
      "▁[Y": 6781,
      "▁[రాష్ట్ర": 6782,
      "▁[జన": 6783,
      "▁[గో": 6784,
      "▁\"प्र": 6785,
      "▁\"పా": 6786,
      "▁\"జన": 6787,
      "▁\"గో": 6788,
      "▁\"మూస:": 6789,
      "▁\"गुजरात": 6790,
      "▁\"विशेष:EditPage/साँचा:": 6791,
      "ino-": 6792,
      "onk": 6793,
      "tile": 6794,
      "tification": 6795,
      "eri": 6796,
      "India_G": 6797,
      "arth": 6798,
      "arak": 6799,
      "ार्व": 6800,
      "▁कर्ज": 6801,
      "](https://hi.wikipedia.org/wiki/य": 6802,
      "](https://hi.wikipedia.org/wiki/विशेष:EditPage/साँचा:": 6803,
      "्रह": 6804,
      "्रु": 6805,
      "ester": 6806,
      "es.[[": 6807,
      "ofker": 6808,
      "भारत\nCategory:": 6809,
      "▁सूर": 6810,
      "▁सम्प": 6811,
      "omo": 6812,
      "itation": 6813,
      "](https://te.wikipedia.org/wiki/B": 6814,
      "](https://te.wikipedia.org/wiki/G": 6815,
      "](https://te.wikipedia.org/wiki/S": 6816,
      "](https://te.wikipedia.org/wiki/భారతదేశ": 6817,
      "](https://te.wikipedia.org/wiki/గో": 6818,
      "](https://te.wikipedia.org/wiki/మూస:": 6819,
      "asht": 6820,
      "asp?": 6821,
      "asthan": 6822,
      "▁मील": 6823,
      "ారస్వ": 6824,
      "19.": 6825,
      "lease": 6826,
      "▁inte": 6827,
      "ratic": 6828,
      "entr": 6829,
      "▁school": 6830,
      "etry": 6831,
      "ాలె": 6832,
      "\\_or": 6833,
      "\\_मा": 6834,
      "\\_template": 6835,
      "acmill": 6836,
      "ingap": 6837,
      "▁हर": 6838,
      "ating": 6839,
      "▁can": 6840,
      "▁capita": 6841,
      "▁Sabha": 6842,
      "▁third": 6843,
      "స్ట": 6844,
      "స్వాతంత్ర్య": 6845,
      "angered": 6846,
      "▁four": 6847,
      "▁fol": 6848,
      "▁fig": 6849,
      "▁పర": 6850,
      "▁పండు": 6851,
      "▁अधिराज्य": 6852,
      "urk": 6853,
      "▁Punjab": 6854,
      "▁Policy": 6855,
      "well": 6856,
      "▁main": 6857,
      "विद्यालय": 6858,
      "fir": 6859,
      "नाइटे": 6860,
      "unknown": 6861,
      "illi": 6862,
      "▁would": 6863,
      "రాన్": 6864,
      "రాస్య": 6865,
      "ourts": 6866,
      "▁Tim": 6867,
      "▁Temple": 6868,
      "राजनी": 6869,
      "▁Machine": 6870,
      "▁Routledge": 6871,
      "▁बनी": 6872,
      "▁ब्रिटिश": 6873,
      "▁बड़ी": 6874,
      "लावा": 6875,
      "▁प्रण": 6876,
      "▁प्रभा": 6877,
      "▁प्रकार": 6878,
      "▁प्रारम्भ": 6879,
      "▁కే": 6880,
      "▁కోర్": 6881,
      "▁निय": 6882,
      "▁नृत्य": 6883,
      "▁B.": 6884,
      "త్రిక": 6885,
      "igration": 6886,
      "107": 6887,
      "_सागर": 6888,
      "_सिनेमा": 6889,
      "2649": 6890,
      "క్స్": 6891,
      "క్కి": 6892,
      "▁Dyson": 6893,
      "▁emerg": 6894,
      "indhi": 6895,
      "▁వె": 6896,
      "▁వంట": 6897,
      "▁led": 6898,
      "▁\"Sanskrit": 6899,
      "▁\"Special:BookSources/978-81": 6900,
      "स्ता": 6901,
      "▁\"भारतक": 6902,
      "▁*India": 6903,
      "▁[↑](https://en.wikipedia.org/wiki/India#cite_ref-4": 6904,
      "1991": 6905,
      "ित्व": 6906,
      "▁वे": 6907,
      "ంగో": 6908,
      "▁సముద్ర": 6909,
      "▁సూచ": 6910,
      "▁సౌక": 6911,
      "▁आय": 6912,
      "▁आधुनिक": 6913,
      "్రామ": 6914,
      "hailand": 6915,
      "_in_M": 6916,
      "▁N.": 6917,
      "▁Nicobar": 6918,
      "ండా": 6919,
      "ండీ": 6920,
      "ండ్య": 6921,
      "स्लिम": 6922,
      "_A7C": 6923,
      "री\")": 6924,
      "रीक्षण": 6925,
      "2221": 6926,
      "▁गए": 6927,
      "▁rel": 6928,
      "తాజ్": 6929,
      "నాథ": 6930,
      "సింది.": 6931,
      "త్వా": 6932,
      "ादरा": 6933,
      "▁[SAARC": 6934,
      "▁पर्यटन": 6935,
      "▁परमाणु": 6936,
      "▁परंपरा": 6937,
      "▁[महा": 6938,
      "▁संख्या": 6939,
      "▁(సా.శ.16": 6940,
      "नेट": 6941,
      "ులు?action=edit&redlink=1": 6942,
      "ghts": 6943,
      "ountain": 6944,
      "](https://mai.wikipedia.org/wiki/स": 6945,
      "▁అభి": 6946,
      "▁विवाद": 6947,
      "▁विभाग": 6948,
      ".jpg)\n\n[": 6949,
      "▁ప్రజా": 6950,
      "తం?action=edit&redlink=1": 6951,
      "▁Organization": 6952,
      "_के_देश": 6953,
      "monsoon": 6954,
      "ी](https://hi.wikipedia.org/wiki/प": 6955,
      "ी](https://hi.wikipedia.org/wiki/स": 6956,
      "ज़ा": 6957,
      "పూర్": 6958,
      "aph": 6959,
      "ngineering": 6960,
      "](https://books.google.com/books?id=3TRtDwAAQBAJ&pg=PA": 6961,
      "▁[Central": 6962,
      "▁भाषाएँ": 6963,
      "ప్రిల్": 6964,
      "▁ఉంట": 6965,
      "▁ఉత్తర": 6966,
      "otal": 6967,
      "](Special:BookSources/978-81": 6968,
      "▁సామా": 6969,
      "వాద": 6970,
      "कारीब": 6971,
      "విధ": 6972,
      "ార్ఖండ్": 6973,
      "క్షరాస్య": 6974,
      "ogri": 6975,
      "धानमन्त": 6976,
      "▁now": 6977,
      "పుర": 6978,
      "भिन्न": 6979,
      "▁నడి": 6980,
      "▁[भारत](https://hi.wikipedia.org/wiki/भारत": 6981,
      "▁ఇండియా": 6982,
      "33-7": 6983,
      "▁areas": 6984,
      "_Bank": 6985,
      "_River": 6986,
      "▁Ved": 6987,
      "द्यान": 6988,
      "గుప్": 6989,
      "డుకు": 6990,
      "నేషియా": 6991,
      "1):": 6992,
      "मान्य": 6993,
      "ంగాణ": 6994,
      "▁జన": 6995,
      "లియా": 6996,
      "newsite": 6997,
      "▁ప్రాచ": 6998,
      "▁जाते": 6999,
      "▁విభ": 7000,
      "▁వివిధ": 7001,
      "▁సంఘ": 7002,
      "_and_union_territ": 7003,
      "ameez": 7004,
      "▁इसी": 7005,
      "िवेश": 7006,
      "ండిచ్చేరి": 7007,
      "▁like": 7008,
      "ध्यम": 7009,
      "▁समूह": 7010,
      "egistrar": 7011,
      "type": 7012,
      "853": 7013,
      "857": 7014,
      "mergency": 7015,
      "मेव": 7016,
      "1962": 7017,
      "1967": 7018,
      "न्नड": 7019,
      "జీరియా": 7020,
      "orthographic": 7021,
      "DwAAQBAJ": 7022,
      "ंबर": 7023,
      "▁[![The": 7024,
      "alaysia": 7025,
      "ంకేతి": 7026,
      "arch_2004": 7027,
      "▁./श्रेणी:जान": 7028,
      "వేలీ": 7029,
      "_Fund": 7030,
      "▁मान्यता": 7031,
      "58)": 7032,
      "▁१९९": 7033,
      "▁किन्तु": 7034,
      "rates": 7035,
      "▁जिसके": 7036,
      "ukesh": 7037,
      "तिहासिक": 7038,
      "–సా.శ.పూ.3": 7039,
      "▁सिंह": 7040,
      "▁./श्रेणी:Harv\\_and\\_Sfn\\_no-target\\_errors\n6": 7041,
      "బియా": 7042,
      "](https://hi.wikipedia.org/wiki/उत्तर": 7043,
      "्यटन\")": 7044,
      "▁[संस्कृत": 7045,
      "क्षेत्रफल": 7046,
      "▁river": 7047,
      "▁change": 7048,
      "वर्ष": 7049,
      "డామన్": 7050,
      "▁రాష్ట్రపతి": 7051,
      "गुजराती": 7052,
      "iverse": 7053,
      "▁agriculture": 7054,
      "త్రిపుర": 7055,
      "▁[t](https://hi.wikipedia.org/wiki/साँचा_वार्ता:": 7056,
      "_కాల": 7057,
      "athematics": 7058,
      "▁अपनी": 7059,
      "▁రైల్వే": 7060,
      "▁न्यायाधीश": 7061,
      "య్యూ": 7062,
      "230-345": 7063,
      "త్తీస్": 7064,
      "▁ప్రదేశ్](https://te.wikipedia.org/wiki/": 7065,
      "▁[Archived](https://web.archive.org/web/20210": 7066,
      "जयपुर": 7067,
      "–123": 7068,
      "arathi": 7069,
      "నాగాలా": 7070,
      "श्रीनगर": 7071,
      "▁These": 7072,
      "त्यमेव": 7073,
      "दिल्ली](https://hi.wikipedia.org/wiki/": 7074,
      "▁\"జమ్మూ": 7075,
      "▁\"संयुक्त": 7076,
      "▁subcontinent\")": 7077,
      "ambodia": 7078,
      "▁పాకిస్తాన్": 7079,
      "tected": 7080,
      "ually": 7081,
      "▁[e](https://hi.wikipedia.org/wiki/विशेष:EditPage/साँचा:": 7082,
      "▁[v](https://hi.wikipedia.org/wiki/साँचा:": 7083,
      "a/a": 7084,
      "కోవ": 7085,
      "కోబార్": 7086,
      "](https://te.wikipedia.org/wiki/జమ్మూ": 7087,
      "ల్లవ": 7088,
      "Chennai": 7089,
      "तुर्क": 7090,
      "▁वायु": 7091,
      "▁डॉल": 7092,
      "▁Force": 7093,
      "▁ऊर्जा": 7094,
      "माजिक": 7095,
      "▁Talbot,": 7096,
      "_पार्ट": 7097,
      "ईसाई": 7098,
      "हितक\\_पृष्ठसभ": 7099,
      "▁हुआ।": 7100,
      "sites/": 7101,
      "राठी": 7102,
      "▁species": 7103,
      "cms).": 7104,
      "chedule": 7105,
      "emocratic": 7106,
      "రేబియా": 7107,
      "](https://hi.wikipedia.org/wiki/संस्कृत": 7108,
      "▁रहे": 7109,
      "▁rock": 7110,
      "ominion": 7111,
      "▁2025.": 7112,
      "▁प्रतिशत": 7113,
      "టాక్": 7114,
      "ataraj": 7115,
      "▁మాత్ర": 7116,
      "▁2004](https://hi.wikipedia.org/wiki/भारत#CITEREF": 7117,
      "్రిటిష్": 7118,
      "ूरोपीय": 7119,
      "వెను": 7120,
      "ూచి": 7121,
      "భారతదేశ_రాష్ట్రాలు,_కేంద్రపాలిత_ప్రాంత": 7122,
      "▁Environmental": 7123,
      "_का_खाना": 7124,
      "_उत्पाद": 7125,
      "▁[978-81": 7126,
      "\\_देशमे": 7127,
      "▁उद्यान": 7128,
      "▁उद्यान\")": 7129,
      "ప్పటిక": 7130,
      "లేషియా": 7131,
      "▁majority": 7132,
      "▁మొదల": 7133,
      ".aspx?rel": 7134,
      "पदण्ड": 7135,
      "▁शक्तिपीठ": 7136,
      "▁occup": 7137,
      "Sharma2007": 7138,
      "ద్యు": 7139,
      "▁చిత్ర": 7140,
      "ద్వీప్": 7141,
      "▁ఉపఖండ": 7142,
      "ంటుంది.": 7143,
      "▁దేశంలోని": 7144,
      "▁కాంగ్రెసు": 7145,
      "elangana": 7146,
      "▁राजवंश\")": 7147,
      "Taj_Mahal": 7148,
      "_राज्यक्षेत्र": 7149,
      "ఆగష్టు": 7150,
      "లక్షద్వీప్": 7151,
      "హాయం:": 7152,
      "ీకరణ": 7153,
      "ోల్‌కా": 7154,
      "▁विदेशी": 7155,
      "ंडोनेशिया": 7156,
      "మిజోరా": 7157,
      "न्तर्राष्ट्र": 7158,
      "_और_संघ_क्षेत्र": 7159,
      "lurton199": 7160,
      "ravidian": 7161,
      "▁appro": 7162,
      "▁employed": 7163,
      "▁सहयोग": 7164,
      "▁सितंबर": 7165,
      "\\_सहितक\\_पृष्ठसभ": 7166,
      "▁जबकि": 7167,
      "cogni": 7168,
      "ర్యానా": 7169,
      "▁[ఢిల్లీ](https://te.wikipedia.org/wiki/ఢిల్లీ": 7170,
      "thehindu": 7171,
      "razil": 7172,
      "టిబెట్": 7173,
      "మెరికా": 7174,
      "lothing": 7175,
      "▁गठबंधन": 7176,
      "-107-02649": 7177,
      "▁widely": 7178,
      "hattisgarh": 7179,
      "-national-language": 7180,
      "Home_Affairs": 7181,
      "IFT": 7182,
      "బడ్డీ": 7183,
      "ేరళ": 7184,
      "్రైస్త": 7185,
      "ండమాన్": 7186,
      "ెలవుదిన": 7187,
      "pib.nic.in/newsite": 7188,
      "_के_अनुसार_देशों_की_सूची": 7189,
      "olnar": 7190,
      "_Commission": 7191,
      "_projection": 7192,
      ".edu": 7193,
      "Tarlo1996": 7194,
      "runei": 7195,
      "ल्तनत": 7196,
      "सैनिक": 7197,
      "తెలంగాణ": 7198,
      "ెన్నై": 7199,
      "‌మహల్": 7200,
      "India_Goa": 7201,
      "lease.aspx?rel": 7202,
      "\\_मापदण्ड": 7203,
      "acmillan": 7204,
      "ingapore": 7205,
      "नाइटेड": 7206,
      "▁Dyson,": 7207,
      "_in_March_2004": 7208,
      "తాజ్‌మహల్": 7209,
      "कारीबौक्स": 7210,
      "క్షరాస్యత": 7211,
      "_and_union_territories": 7212,
      "orthographic_projection": 7213,
      "▁./श्रेणी:जानकारीबौक्स": 7214,
      "230-34549-2": 7215,
      "నాగాలాండ్": 7216,
      "](https://te.wikipedia.org/wiki/జమ్మూ_కాశ్మీ": 7217,
      "▁डॉलर": 7218,
      "Taj_Mahal_in_March_2004": 7219,
      "ోల్‌కాతా": 7220,
      "\\_सहितक\\_पृष्ठसभ#": 7221,
      "-107-02649-0": 7222,
      "pib.nic.in/newsite/": 7223,
      "\"](https://web.archive.org/web/20": 7224,
      "2nd": 7225,
      "6_": 7226,
      "CH": 7227,
      "_term": 7228,
      "d/d": 7229,
      "gad": 7230,
      "gion": 7231,
      "here": 7232,
      "i,": 7233,
      "▁9.": 7234,
      "▁(2011": 7235,
      "190": 7236,
      "▁India\"](https://web.archive.org/web/201": 7237,
      "raw": 7238,
      "-138": 7239,
      "ations/": 7240,
      "▁men": 7241,
      "ilbert": 7242,
      ".\n10": 7243,
      "▁Mar": 7244,
      "▁Report": 7245,
      "▁Br": 7246,
      "▁ele": 7247,
      "ayana": 7248,
      "▁Economy": 7249,
      "116": 7250,
      "508": 7251,
      "-349": 7252,
      "1857": 7253,
      "ablish": 7254,
      "_and_N": 7255,
      "_Ram": 7256,
      "▁Hindus": 7257,
      "_Gandhi": 7258,
      "iteracy": 7259,
      "vision": 7260,
      "ctorate": 7261,
      "orities/": 7262,
      "/authorities/": 7263,
      "cms)": 7264,
      "IAF": 7265,
      "KulkeRothermund2004),": 7266,
      ".worldbank.org/": 7267,
      "aranth": 7268,
      "Library_of_Congress": 7269,
      "tlas": 7270,
      "-language\\_sources\\_(en": 7271,
      "%)": 7272,
      "*](https://": 7273,
      "*](https://web.archive.org/web/201": 7274,
      "-II": 7275,
      "-logo": 7276,
      "/we": 7277,
      "1%20": 7278,
      "3–": 7279,
      "3).": 7280,
      "41": 7281,
      "5-0": 7282,
      "5-3": 7283,
      "51)": 7284,
      "Countries": 7285,
      "Constituent": 7286,
      "E﻿": 7287,
      "First": 7288,
      "Forest": 7289,
      "Wright": 7290,
      "YS": 7291,
      "_50": 7292,
      "_per": 7293,
      "_1.": 7294,
      "_2011": 7295,
      "aci": 7296,
      "bhasha": 7297,
      "cu": 7298,
      "cod": 7299,
      "cted": 7300,
      "ctive": 7301,
      "fun": 7302,
      "gar": 7303,
      "hā": 7304,
      "mall": 7305,
      "ocal": 7306,
      "rban": 7307,
      "tou": 7308,
      "tate": 7309,
      "u,": 7310,
      "ui": 7311,
      "uries": 7312,
      "upee": 7313,
      "voy": 7314,
      "yth": 7315,
      "▁7.": 7316,
      "▁ob": 7317,
      "iated": 7318,
      "orpor": 7319,
      "pen": 7320,
      "▁[History": 7321,
      "en:": 7322,
      "enj": 7323,
      "enous": 7324,
      "▁\"International": 7325,
      "in-": 7326,
      "ina\")": 7327,
      "inated": 7328,
      "an,": 7329,
      "](https://en.wikipedia.org/wiki/National": 7330,
      "er-": 7331,
      "India.pdf)": 7332,
      "alace": 7333,
      "alk:": 7334,
      "reen": 7335,
      "istered": 7336,
      "itar": 7337,
      "▁(in": 7338,
      "▁(199": 7339,
      "▁(2007": 7340,
      "▁(India)": 7341,
      "▁(nominal)": 7342,
      "2011.": 7343,
      "19)": 7344,
      "▁inter": 7345,
      "▁independence": 7346,
      "raman": 7347,
      "aten": 7348,
      "▁prac": 7349,
      "etwork": 7350,
      "acred": 7351,
      "ation,": 7352,
      "▁Cather": 7353,
      "atch": 7354,
      "▁cre": 7355,
      "▁census": 7356,
      "▁Agency": 7357,
      "▁Sub": 7358,
      "▁talk:": 7359,
      "lose": 7360,
      "▁based": 7361,
      "lima": 7362,
      "ume": 7363,
      "istorical": 7364,
      "▁[↑](https://en.wikipedia.org/wiki/India#cite_": 7365,
      "ficient": 7366,
      "rove": 7367,
      "rowing": 7368,
      "rotected": 7369,
      "rocod": 7370,
      "21.": 7371,
      "▁divis": 7372,
      "▁domestic": 7373,
      "ilk": 7374,
      "ily": 7375,
      "ourism": 7376,
      "▁Trade": 7377,
      "](https://en.wikipedia.org/wiki/India#cite_ref-vatsyayan-lord_43": 7378,
      "maint:": 7379,
      "igenous": 7380,
      "263": 7381,
      "▁Dance": 7382,
      "▁east": 7383,
      "▁last": 7384,
      "▁\"Special:EditPage/Template:": 7385,
      "lymp": 7386,
      "▁*B": 7387,
      "1999": 7388,
      "Univers": 7389,
      "beral": 7390,
      "▁Ganges": 7391,
      "▁Gujarat": 7392,
      "▁Greek": 7393,
      "sey": 7394,
      ".[[23": 7395,
      "](https://en.wikipedia.org/wiki/India#CITEREFM": 7396,
      "aks": 7397,
      "akers": 7398,
      "geoh": 7399,
      "_of_India.svg": 7400,
      "135": 7401,
      "15/": 7402,
      "40px-": 7403,
      "_and_C": 7404,
      "_and_Development": 7405,
      "▁\"Central": 7406,
      "▁\"Climate": 7407,
      "14.": 7408,
      "_Ch": 7409,
      "_Cooperation": 7410,
      "▁become": 7411,
      "Harv\\_and\\_Sfn\\_no-target\\_errors\n": 7412,
      "▁though": 7413,
      "osa": 7414,
      "▁\"Ministry": 7415,
      "](Special:BookSources/": 7416,
      "](Special:EditPage/Template:": 7417,
      "undarb": 7418,
      "ajasthan": 7419,
      "_Mon": 7420,
      "](https://en.wikipedia.org/wiki/Ministry_of_": 7421,
      "-5196": 7422,
      "dies": 7423,
      "lled": 7424,
      "▁str": 7425,
      "_Times": 7426,
      "rchitecture": 7427,
      "▁tea": 7428,
      "orea": 7429,
      "489": 7430,
      "▁\"Template": 7431,
      "_Nations": 7432,
      "▁ancient": 7433,
      "_Re": 7434,
      "▁\"Delhi": 7435,
      "](https://en.wikipedia.org/wiki/Template_": 7436,
      "398": 7437,
      "mblem": 7438,
      "▁Vol": 7439,
      "▁Vedic": 7440,
      "▁[GDP": 7441,
      "](https://en.wikipedia.org/wiki/Delhi": 7442,
      "▁31": 7443,
      "▁2011](https://en.wikipedia.org/wiki/India#CITEREF": 7444,
      "▁\"Routledge": 7445,
      "](https://en.wikipedia.org/wiki/Routledge": 7446,
      "▁[Tamil": 7447,
      "▁[Routledge": 7448,
      "general": 7449,
      "▁2014](https://en.wikipedia.org/wiki/India#CITEREF": 7450,
      "angetic": 7451,
      "▁\"Special:BookSources/978-0-521": 7452,
      "](Special:BookSources/978-0-521": 7453,
      "hyan": 7454,
      "times.indiatimes.com/": 7455,
      "▁centuries": 7456,
      "▁US$": 7457,
      "▁(2017).": 7458,
      "▁sever": 7459,
      "34238": 7460,
      "▁adop": 7461,
      "▁milk": 7462,
      "▁military": 7463,
      "▁millen": 7464,
      "▁leg": 7465,
      "-in-india": 7466,
      "ina](https://en.wikipedia.org/wiki/Ch": 7467,
      ".jpg/250px-S": 7468,
      "▁plain": 7469,
      "▁[Fisher": 7470,
      "▁[t](https://en.wikipedia.org/wiki/Template_": 7471,
      "▁notation": 7472,
      "▁known": 7473,
      "▁parliament": 7474,
      "place": 7475,
      "talk:": 7476,
      "ronom": 7477,
      "▁[*An": 7478,
      "▁Indo-": 7479,
      "▁[e](Special:EditPage/Template:": 7480,
      "▁[v](Template:": 7481,
      "▁[China](https://en.wikipedia.org/wiki/Ch": 7482,
      "2001),": 7483,
      "▁numbers": 7484,
      "-level": 7485,
      "resident_of_India": 7486,
      "Fisher2018),": 7487,
      ".net": 7488,
      "▁Buddha": 7489,
      "▁upper": 7490,
      "Environment": 7491,
      "▁refor": 7492,
      "/articleshow/5": 7493,
      "rmy": 7494,
      "arliamentary": 7495,
      "Hindustani": 7496,
      "11934238": 7497,
      "▁mathematics": 7498,
      "▁2018](https://en.wikipedia.org/wiki/India#CITEREFFisher2018),": 7499,
      "-language\\_text": 7500,
      "business-": 7501,
      "eography": 7502,
      "economictimes.indiatimes.com/": 7503,
      "merican": 7504,
      "-a-b": 7505,
      "ksai": 7506,
      "default": 7507,
      "](https://en.wikipedia.org/wiki/History_of_": 7508,
      "▁Conservation": 7509,
      "▁Monetary": 7510,
      "ibetan": 7511,
      "ield": 7512,
      "▁republic": 7513,
      "forcement": 7514,
      "▁India](https://en.wikipedia.org/wiki/Government_of_India": 7515,
      "▁direct": 7516,
      "rajbhasha": 7517,
      "undamental": 7518,
      "_Lanka": 7519,
      "AGE": 7520,
      "▁zone": 7521,
      "▁maint:": 7522,
      "▁1994](https://en.wikipedia.org/wiki/India#CITEREF": 7523,
      "struction": 7524,
      "▁Games\")": 7525,
      "▁engineering": 7526,
      "▁village": 7527,
      "8+5": 7528,
      "first": 7529,
      "Wright2010": 7530,
      "touch": 7531,
      "▁(2007).": 7532,
      "▁Catherine": 7533,
      "limate_": 7534,
      "geohack": 7535,
      "undarbans": 7536,
      "▁\"Routledge\").": 7537,
      "▁[Routledge](https://en.wikipedia.org/wiki/Routledge": 7538,
      "▁millennium": 7539,
      "▁[t](https://en.wikipedia.org/wiki/Template_talk:": 7540,
      "▁[China](https://en.wikipedia.org/wiki/China": 7541,
      "-asia": 7542,
      ".\"": 7543,
      ".t": 7544,
      ".JPG": 7545,
      "0&s": 7546,
      "3-7": 7547,
      "4-3": 7548,
      "623": 7549,
      "613": 7550,
      "96": 7551,
      "9-6": 7552,
      ":IN": 7553,
      "=`": 7554,
      "DR": 7555,
      "Gum": 7556,
      "HQ": 7557,
      "Republic": 7558,
      "Yum": 7559,
      "_10": 7560,
      "_45": 7561,
      "_यु": 7562,
      "_map": 7563,
      "fos": 7564,
      "mand": 7565,
      "p.org/": 7566,
      "ंजन": 7567,
      "आर": 7568,
      "एम": 7569,
      "कालीन": 7570,
      "चार": 7571,
      "जल": 7572,
      "तमान": 7573,
      "त\\_मापदण्ड": 7574,
      "द्रा": 7575,
      "धर्": 7576,
      "नि": 7577,
      "नो": 7578,
      "पूर्ण": 7579,
      "फगान": 7580,
      "बन": 7581,
      "मस": 7582,
      "मिर": 7583,
      "मूल": 7584,
      "यपालिका": 7585,
      "र-": 7586,
      "ल्ड": 7587,
      "विक": 7588,
      "वली": 7589,
      "शी": 7590,
      "शक्ति": 7591,
      "सर": 7592,
      "हू": 7593,
      "िरा": 7594,
      "िंह": 7595,
      "ीं": 7596,
      "ीक": 7597,
      "ीकरण": 7598,
      "ूनाइटेड": 7599,
      "ेय": 7600,
      "ोत्तर": 7601,
      "ोडिया": 7602,
      "२.": 7603,
      "–120": 7604,
      "▁<": 7605,
      "▁X": 7606,
      "▁७": 7607,
      "▁ता": 7608,
      "▁ईस्ट": 7609,
      "▁धीरे": 7610,
      "orial": 7611,
      "tten": 7612,
      "▁[ए": 7613,
      "▁[ख": 7614,
      "▁[राष्ट्रीय": 7615,
      "▁[चीन": 7616,
      "▁[लोक": 7617,
      "▁[भू": 7618,
      "▁[राजस्थान": 7619,
      "▁[दिल्ली](https://hi.wikipedia.org/wiki/": 7620,
      "▁\"श": 7621,
      "▁\"वि": 7622,
      "▁\"पु": 7623,
      "▁\"ची": 7624,
      "▁\"का": 7625,
      "▁\"दिल्ल": 7626,
      "▁\"विश्व": 7627,
      "▁\"राजस्थान": 7628,
      "in,": 7629,
      "Infos": 7630,
      "▁कह": 7631,
      "▁क्रम": 7632,
      "](https://hi.wikipedia.org/wiki/वि": 7633,
      "](https://hi.wikipedia.org/wiki/प्र": 7634,
      "](https://hi.wikipedia.org/wiki/गुजरात": 7635,
      "](https://hi.wikipedia.org/wiki/राजस्थान": 7636,
      "्रिस": 7637,
      "▁सँ": 7638,
      "▁सश": 7639,
      "▁समा": 7640,
      "▁समान": 7641,
      "▁सल्तनत": 7642,
      "▁महा": 7643,
      "▁मंत्र": 7644,
      "▁मिला": 7645,
      "्यु": 7646,
      "्यपालिका": 7647,
      "ices": 7648,
      "icator": 7649,
      "▁पहा": 7650,
      "ानी": 7651,
      "ानून": 7652,
      "▁pur": 7653,
      "▁poll": 7654,
      "\\_par": 7655,
      "▁Century": 7656,
      "ustice": 7657,
      "uscript": 7658,
      "▁हिल": 7659,
      "\n\n**": 7660,
      "[[18": 7661,
      "िकता": 7662,
      "िकेट": 7663,
      "▁अभी": 7664,
      "▁अभिय": 7665,
      "▁Portal": 7666,
      "style": 7667,
      "ाली](https://hi.wikipedia.org/wiki/": 7668,
      "्षिक": 7669,
      "▁जै": 7670,
      "▁जिन्": 7671,
      "una": 7672,
      "▁दिव": 7673,
      "ेशिया\")": 7674,
      "_केंद्र": 7675,
      ".\n15": 7676,
      "▁Tw": 7677,
      "▁बि": 7678,
      "▁बौद्ध": 7679,
      "▁बैंक": 7680,
      "ंगड": 7681,
      "ंगल": 7682,
      "ंगीत": 7683,
      "ला\")": 7684,
      "▁प्रशास": 7685,
      "▁नगर": 7686,
      "▁Book": 7687,
      "▁से](https://": 7688,
      "_सु": 7689,
      "_स्": 7690,
      "indicator": 7691,
      "▁आप": 7692,
      "▁आंदोल": 7693,
      "_in_": 7694,
      "पुत्र": 7695,
      "▁Ne": 7696,
      "▁ती": 7697,
      "▁तो": 7698,
      "▁तुल": 7699,
      "▁तीस": 7700,
      "opal": 7701,
      "स्‍": 7702,
      "स्चेंज": 7703,
      "-39": 7704,
      "elated": 7705,
      "▁गति": 7706,
      "ड़िशा": 7707,
      "▁1971": 7708,
      "▁उस": 7709,
      "▁उद्योग": 7710,
      "29)": 7711,
      "establish": 7712,
      "▁John": 7713,
      "▁संयुक्त": 7714,
      "▁संस्कृत": 7715,
      "ovt": 7716,
      "270": 7717,
      "▁Informatics": 7718,
      "s/p": 7719,
      "्याचल": 7720,
      "▁Library": 7721,
      "]](https://hi.wikipedia.org/wiki/भारत#cite_note-Combined": 7722,
      "▁On": 7723,
      ".gov.": 7724,
      "त्ता": 7725,
      "ी](https://hi.wikipedia.org/wiki/न": 7726,
      "▁West": 7727,
      "▁भाषाएं": 7728,
      "▁\"मुंबई": 7729,
      "ंडल": 7730,
      "पांड": 7731,
      "ysHQ": 7732,
      ")[[13": 7733,
      "_Modi": 7734,
      "कार्यपालिका": 7735,
      "_Tamil_Nadu": 7736,
      "मी2": 7737,
      "▁[↑](https://hi.wikipedia.org/wiki/भारत#cite_ref-Combined": 7738,
      "384": 7739,
      "द्वित": 7740,
      "्राम": 7741,
      "वाँ": 7742,
      "▁१५": 7743,
      "ोगरी": 7744,
      "▁पुलिस": 7745,
      "▁expectancy": 7746,
      "ंदर": 7747,
      "▁प्रदेश](https://hi.wikipedia.org/wiki/मध्य": 7748,
      "ssamese": 7749,
      "त्न": 7750,
      "neworld": 7751,
      "ameters": 7752,
      "▁\"पूर्वी": 7753,
      "▁वर्ण": 7754,
      "▁वर्तमान": 7755,
      "\"](https://web.archive.org/web/20140": 7756,
      "फ़िल": 7757,
      "](https://hi.wikipedia.org/wiki/ब्रिटिश": 7758,
      "▁हिस्": 7759,
      "▁हिमालय": 7760,
      "%E0%A5%": 7761,
      "गणतंत्र": 7762,
      "ohan": 7763,
      "▁centre": 7764,
      "▁[उर्दू": 7765,
      "▁किया।": 7766,
      "▁State": 7767,
      "सभ\\_सहितक\\_पृष्ठसभ#": 7768,
      "▁[Ludden": 7769,
      "▁CITEREFKulkeRothermund2004": 7770,
      "▁गया।[[": 7771,
      "▁\"उर्दू": 7772,
      "स्थाप": 7773,
      "▁१९८": 7774,
      "आई.": 7775,
      "ukh": 7776,
      "/articles/": 7777,
      "्वरूप": 7778,
      "▁./श्रेणी:Harv\\_and\\_Sfn\\_no-target\\_errors\n7": 7779,
      "](https://hi.wikipedia.org/wiki/उर्दू": 7780,
      "वर्ल्ड": 7781,
      "▁consid": 7782,
      "ूचना-विज्ञान": 7783,
      "▁पूर्वी": 7784,
      "▁अपना": 7785,
      "▁[↑](https://hi.wikipedia.org/wiki/भारत#cite_ref-FOOTNOTEStein1998": 7786,
      "▁माध्यम": 7787,
      "ड़ीसा": 7788,
      "▁बहुमत": 7789,
      "िस्तान\")": 7790,
      "▁28.": 7791,
      "▁निर्भर": 7792,
      "▁थी।": 7793,
      "कल_घ": 7794,
      "▁धरोहर": 7795,
      "▁सुधार": 7796,
      "](https://mai.wikipedia.org/wiki/भारतक": 7797,
      "cat.org/": 7798,
      "▁इतिहास\")": 7799,
      "▁रहल": 7800,
      "ीपी)": 7801,
      "भरत": 7802,
      "▁संगीत": 7803,
      "हायक": 7804,
      "ज्ञात\\_मापदण्ड": 7805,
      "▁(2018).": 7806,
      "▁शांति": 7807,
      "_एवं": 7808,
      "कटिबंधीय": 7809,
      "▁नीति": 7810,
      "▁वार्षिक": 7811,
      "▁ऑफ": 7812,
      "रेलू_उत्पाद": 7813,
      "वासी": 7814,
      "▁अनुसंधान": 7815,
      "▁लेकर": 7816,
      "▁सूचना-विज्ञान": 7817,
      "▁(2006).": 7818,
      "\\_अज्ञात\\_मापदण्ड": 7819,
      "▁२०११": 7820,
      "इप्रस": 7821,
      "▁मौसम": 7822,
      "▁विस्तृत": 7823,
      "ष्णकटिबंधीय": 7824,
      "Pages\\_using\\_infobox": 7825,
      "▁लाख": 7826,
      "▁दिल्ली": 7827,
      "\\_कड़ियाँ": 7828,
      "\\_country\\_with\\_": 7829,
      "▁अमेरिका": 7830,
      "_सेना": 7831,
      "एसियाक": 7832,
      "िन्धु-गंगा": 7833,
      "FrontView": 7834,
      "_तथा": 7835,
      "▁`|": 7836,
      "anchi2": 7837,
      "▁पहुँच": 7838,
      "▁हालाँकि": 7839,
      "▁दृष्टि": 7840,
      "onkani": 7841,
      "▁[भारत](https://hi.wikipedia.org/wiki/भारत)": 7842,
      "_पार्टी": 7843,
      "▁2004](https://hi.wikipedia.org/wiki/भारत#CITEREFKulkeRothermund2004),": 7844,
      "\\_देशमे\\_अज्ञात\\_मापदण्ड": 7845,
      "▁./श्रेणी:जानकारीबौक्स\\_देशमे\\_अज्ञात\\_मापदण्ड": 7846,
      "Gumpa": 7847,
      "Yumthang": 7848,
      "_map_en": 7849,
      "मूल्य": 7850,
      "▁[राजस्थान](https://hi.wikipedia.org/wiki/राजस्थान": 7851,
      "▁\"दिल्ली\")": 7852,
      "▁\"राजस्थान\")": 7853,
      "InfosysHQ": 7854,
      "्रिसमस": 7855,
      "\\_parameters": 7856,
      "▁हिल्स": 7857,
      "▁तुलना": 7858,
      "▁प्रदेश](https://hi.wikipedia.org/wiki/मध्य_प्रदेश": 7859,
      "▁[उर्दू](https://hi.wikipedia.org/wiki/उर्दू": 7860,
      "कल_घरेलू_उत्पाद": 7861,
      "▁./श्रेणी:जानकारीबौक्स\\_देशमे\\_अज्ञात\\_मापदण्डसभ\\_सहितक\\_पृष्ठसभ#": 7862,
      "InfosysHQFrontView": 7863,
      "\\_parameters#": 7864,
      "*](https://web.archive.org/web/200": 7865,
      "-H": 7866,
      "-T": 7867,
      "-ar": 7868,
      "-27": 7869,
      "1).": 7870,
      "2-0": 7871,
      "2-10": 7872,
      "2%29": 7873,
      "3-": 7874,
      "310": 7875,
      "4_": 7876,
      "6]](https://en.wikipedia.org/wiki/India#cite_note-FOOTNOTE": 7877,
      "9]](https://en.wikipedia.org/wiki/India#cite_note-FOOTNOTE": 7878,
      ";\n": 7879,
      "CA": 7880,
      "CCN": 7881,
      "DS": 7882,
      "David": 7883,
      "Flag": 7884,
      "MAAJ": 7885,
      "Navy": 7886,
      "RA": 7887,
      "SN": 7888,
      "South_Asia": 7889,
      "Web": 7890,
      "_అ": 7891,
      "_ఎ": 7892,
      "_ర": 7893,
      "_30": 7894,
      "_18": 7895,
      "_యు": 7896,
      "_history": 7897,
      "_రాజ": 7898,
      "_శాస్త్ర": 7899,
      "bu": 7900,
      "cia": 7901,
      "dic": 7902,
      "egh": 7903,
      "evanagari": 7904,
      "gi": 7905,
      "hag": 7906,
      "ilies": 7907,
      "ji": 7908,
      "lar": 7909,
      "mas": 7910,
      "more": 7911,
      "oz": 7912,
      "os/": 7913,
      "put": 7914,
      "rian": 7915,
      "rince": 7916,
      "spect": 7917,
      "tle": 7918,
      "top": 7919,
      "uin": 7920,
      "xim": 7921,
      "ఒలి": 7922,
      "కూ": 7923,
      "క్ర": 7924,
      "గే": 7925,
      "గ్ర": 7926,
      "గతి": 7927,
      "జు": 7928,
      "ఞాన": 7929,
      "టం": 7930,
      "టన్": 7931,
      "పో": 7932,
      "పచ్చ": 7933,
      "మ్య": 7934,
      "యి.": 7935,
      "యాలో": 7936,
      "లె": 7937,
      "వై": 7938,
      "వ్": 7939,
      "వత్స": 7940,
      "వృద్ధి": 7941,
      "శ్రమ": 7942,
      "సీ": 7943,
      "స్రా": 7944,
      "హక": 7945,
      "హన": 7946,
      "ాంగ": 7947,
      "ీఠ": 7948,
      "ువు": 7949,
      "ూపా": 7950,
      "ృష్": 7951,
      "ెహ": 7952,
      "ెట్": 7953,
      "ేన": 7954,
      "ైద": 7955,
      "ైగా": 7956,
      "ొయ": 7957,
      "–19": 7958,
      "▁ఘ": 7959,
      "▁ve": 7960,
      "▁జా": 7961,
      "▁local": 7962,
      "▁education": 7963,
      "win": 7964,
      "](https://catalog": 7965,
      ".wikidata": 7966,
      ".org/wiki/Q": 7967,
      "▁[గ": 7968,
      "▁[కు": 7969,
      "▁[పా": 7970,
      "▁[దక్షిణ": 7971,
      "▁[హిందూ": 7972,
      "▁[International": 7973,
      "▁[పాకిస్తాన్": 7974,
      "▁[ముంబై": 7975,
      "ene": 7976,
      "▁\"గ": 7977,
      "▁\"రాష్ట్ర": 7978,
      "▁\"దక్షిణ": 7979,
      "▁\"మూస": 7980,
      "▁\"హిందూ": 7981,
      "▁\"పాకిస్తాన్": 7982,
      "▁\"ప్రపంచ": 7983,
      "▁\"ముంబై": 7984,
      "▁\"Indus": 7985,
      "▁\"వర్గం:Harv": 7986,
      "▁\"ప్రత్యేక:EditPage/మూస:": 7987,
      "\")1": 7988,
      "inan": 7989,
      "an-": 7990,
      "anada": 7991,
      "tis": 7992,
      "till": 7993,
      "](https://en.wikipedia.org/wiki/U": 7994,
      "](https://en.wikipedia.org/wiki/Indus": 7995,
      "arv": 7996,
      "arrow": 7997,
      "2020": 7998,
      "reater": 7999,
      "cid": 8000,
      "cir": 8001,
      "ising": 8002,
      "isted": 8003,
      "ed\\_": 8004,
      "▁(1):": 8005,
      "▁often": 8006,
      "](https://te.wikipedia.org/wiki/హ": 8007,
      "](https://te.wikipedia.org/wiki/మూస": 8008,
      "](https://te.wikipedia.org/wiki/జన": 8009,
      "](https://te.wikipedia.org/wiki/భారతదేశ_": 8010,
      "](https://te.wikipedia.org/wiki/వర్గం:Harv": 8011,
      "](https://te.wikipedia.org/wiki/ప్రత్యేక:EditPage/మూస:": 8012,
      "ico": 8013,
      "lex": 8014,
      "leavy": 8015,
      "200853": 8016,
      "▁su": 8017,
      "▁set": 8018,
      "▁served": 8019,
      "\\_n": 8020,
      "ing,": 8021,
      "▁Cynth": 8022,
      "▁cul": 8023,
      "్యాలె": 8024,
      "▁As": 8025,
      "▁After": 8026,
      "\n\n\n": 8027,
      "▁trade": 8028,
      "స్వా": 8029,
      "adakh": 8030,
      "▁festi": 8031,
      "▁పొ": 8032,
      "▁పద్ధ": 8033,
      "▁పైగా": 8034,
      "▁band": 8035,
      "ర్ద": 8036,
      "ర్ష": 8037,
      "న్ను": 8038,
      "comp": 8039,
      "▁mid": 8040,
      "▁middle": 8041,
      "▁market": 8042,
      "hek": 8043,
      "istrib": 8044,
      "stat": 8045,
      "cha": 8046,
      "chol": 8047,
      "fied": 8048,
      "roduct": 8049,
      "unleavy": 8050,
      "రాజ్యం": 8051,
      ".\n36": 8052,
      ".\n38": 8053,
      "]](https://en.wikipedia.org/wiki/India#cite_note-1": 8054,
      "olia": 8055,
      "▁Mana": 8056,
      "▁Movement": 8057,
      "లోయ": 8058,
      "▁కేంద్ర": 8059,
      "▁కంపెనీ": 8060,
      "ాలుగా": 8061,
      "క్తి": 8062,
      "▁even": 8063,
      "▁early": 8064,
      "▁వై": 8065,
      "ir_Force": 8066,
      "ayashi": 8067,
      "▁India\").[[": 8068,
      "mem": 8069,
      "▁సమా": 8070,
      "▁సర్వ": 8071,
      "▁సుల్తాన": 8072,
      "ldlife": 8073,
      "▁Home": 8074,
      "haw": 8075,
      "_in_the": 8076,
      "bercu": 8077,
      "▁Gana": 8078,
      "▁Nuclear": 8079,
      "ational_P": 8080,
      "_Agency": 8081,
      "-405": 8082,
      "▁చర్చ:": 8083,
      ".in)\n-": 8084,
      "▁religions": 8085,
      "తాక": 8086,
      "నాట": 8087,
      "తి](https://te.wikipedia.org/wiki/": 8088,
      "▁1980": 8089,
      "abel": 8090,
      "astronom": 8091,
      "▁ne": 8092,
      "▁Francis": 8093,
      "ishers": 8094,
      "–సా.శ.14": 8095,
      "–సా.శ.1947)": 8096,
      "▁అను": 8097,
      "ిక,": 8098,
      "AAMAAJ": 8099,
      "▁Law": 8100,
      "▁Indians": 8101,
      "▁being": 8102,
      "ంచింది.": 8103,
      "కుపచ్చ": 8104,
      "](https://te.wikipedia.org/wiki/భారతదేశం#CITEREF": 8105,
      "emi": 8106,
      "emen": 8107,
      "▁[*M": 8108,
      "▁Wiley": 8109,
      "▁[Craven": 8110,
      "ింది": 8111,
      "-2\").": 8112,
      "▁ఆకుపచ్చ": 8113,
      "▁రే": 8114,
      "మాతర": 8115,
      "మాబాద్": 8116,
      "రుపు": 8117,
      "రుగు": 8118,
      "alls": 8119,
      "allav": 8120,
      "dira": 8121,
      "ocs/": 8122,
      "ockey": 8123,
      "ommaraj": 8124,
      "kee": 8125,
      "earning": 8126,
      "▁\"Tamil": 8127,
      "▁నది": 8128,
      "▁[Pakistan": 8129,
      "మించ": 8130,
      "ublishers": 8131,
      "▁తన": 8132,
      "▁deb": 8133,
      "▁deve": 8134,
      "%2C5": 8135,
      "▁\"En": 8136,
      "▁any": 8137,
      "issions": 8138,
      "](https://en.wikipedia.org/wiki/En": 8139,
      "ం](https://te.wikipedia.org/wiki/అ": 8140,
      "ం](https://te.wikipedia.org/wiki/క": 8141,
      "▁rural": 8142,
      "▁rise": 8143,
      "▁rupee": 8144,
      "ంబంధ": 8145,
      "ians": 8146,
      "▁V.": 8147,
      "▁[978-0-521-80904-7": 8148,
      "గువ": 8149,
      "▁[Delhi": 8150,
      "▁సంస్థ": 8151,
      "▁సంవత్స": 8152,
      "డియా": 8153,
      "ట్లు": 8154,
      "_చర్చ:": 8155,
      "▁\"మధ్య": 8156,
      ".nic.in)\n-": 8157,
      "▁ఎన్నిక": 8158,
      "▁ఎన్ను": 8159,
      "▁[మధ్య": 8160,
      "▁(సా.శ.పూ.1200": 8161,
      "_Economic": 8162,
      "%E0%B0%": 8163,
      "▁గణ": 8164,
      "ohenj": 8165,
      "](https://te.wikipedia.org/wiki/మధ్య": 8166,
      "amily": 8167,
      "▁central": 8168,
      "▁uni": 8169,
      "▁./వర్గం:Harv\\_and\\_Sfn\\_no-target\\_errors\n": 8170,
      "▁regional": 8171,
      "alaya": 8172,
      "▁([help](https://te.wikipedia.org/wiki/వర్గం:Harv": 8173,
      "]](https://te.wikipedia.org/wiki/భారతదేశం#cite_note-india.gov.in": 8174,
      "efficient": 8175,
      "▁1997": 8176,
      "tence": 8177,
      "_సంగీతం": 8178,
      "_dance": 8179,
      "▁subject": 8180,
      "▁where": 8181,
      "▁whose": 8182,
      "ography": 8183,
      "ారిగా": 8184,
      "AsherTalbot200853": 8185,
      "rupee": 8186,
      "నాయక": 8187,
      "/profile": 8188,
      "2014-p": 8189,
      "హాస": 8190,
      "KulkeRothermund2016": 8191,
      "దావరి": 8192,
      "▁కూడిన": 8193,
      "▁[t](https://te.wikipedia.org/wiki/మూస": 8194,
      "▁నిర్వ": 8195,
      "▁స్థా": 8196,
      "raditional": 8197,
      "oorkee": 8198,
      "son2014-p": 8199,
      "ోర్చు": 8200,
      "▁Shankar": 8201,
      "ారు.\n\n": 8202,
      "▁Thomas": 8203,
      "శాఖ": 8204,
      "ropped": 8205,
      "▁[జమ్మూ": 8206,
      "▁\"Official": 8207,
      "▁పాత్ర": 8208,
      "_War": 8209,
      "▁[e](https://te.wikipedia.org/wiki/ప్రత్యేక:EditPage/మూస:": 8210,
      "▁[v](https://te.wikipedia.org/wiki/మూస:": 8211,
      "▁\"చైనా": 8212,
      "▁century,": 8213,
      "▁ఒకటి": 8214,
      "▁Art": 8215,
      "cott": 8216,
      "జ్ఞాన": 8217,
      "AsherTalbot2008),": 8218,
      "▁speakers": 8219,
      "_1960": 8220,
      "▁మార్గాలు": 8221,
      "ministered": 8222,
      "▁include": 8223,
      "▁2025.\n": 8224,
      "Wikipedia:": 8225,
      "రోపా": 8226,
      "▁2008](https://en.wikipedia.org/wiki/India#CITEREF": 8227,
      "▁భారతదేశానికి": 8228,
      "▁మతము\")": 8229,
      "▁మతము\"),": 8230,
      "athakali": 8231,
      "Ludden2014": 8232,
      "▁According": 8233,
      "riage": 8234,
      "ీనంలో": 8235,
      "▁ప్రపంచంలో": 8236,
      "▁ప్రభుత్వ": 8237,
      "▁ప్రభుత్వం": 8238,
      "%20%20%20%20%20%20%20%20": 8239,
      "▁Africa": 8240,
      "▁major": 8241,
      "▁మొదటి": 8242,
      "union_territory": 8243,
      "▁cities": 8244,
      "britannica.com/place": 8245,
      "lackb": 8246,
      "స్లామాబాద్": 8247,
      "▁పాలన": 8248,
      "▁కార్య": 8249,
      "▁కారణంగా": 8250,
      "▁కలిగి": 8251,
      "anorama": 8252,
      "arlung": 8253,
      "losis": 8254,
      "శోకుడు": 8255,
      "rigonom": 8256,
      "▁Europe*](https://books.google.com/books?id=": 8257,
      "MetcalfMetcalf2012-": 8258,
      "▁జరిగిన": 8259,
      "వ](https://te.wikipedia.org/wiki/List_of_countries_by": 8260,
      "▁contribu": 8261,
      "▁[భారతదేశంలో": 8262,
      "▁అనేక": 8263,
      "ecutive": 8264,
      "▁ఎక్కువగా": 8265,
      "awaharlal": 8266,
      "a_dynasty": 8267,
      "▁caused": 8268,
      "emographics": 8269,
      "▁oldest": 8270,
      "atabase": 8271,
      "▁వారసత్వ": 8272,
      "▁ప్రస్తుతం": 8273,
      "నుమలు": 8274,
      "▁రోడ్": 8275,
      "▁తరువాత": 8276,
      "▁బెంగాల్": 8277,
      "ంపిక్": 8278,
      "](https://en.wikipedia.org/wiki/Mughal_Empire": 8279,
      "countries_and_dependencies_by_population": 8280,
      "o-daro": 8281,
      "](https://www.wikidata": 8282,
      "▁[India](https://en.wikipedia.org/wiki/India)": 8283,
      "harmaceutical": 8284,
      "ంస్కృతం": 8285,
      "▁దినోత్సవ": 8286,
      "entral_": 8287,
      "▁వెబ్": 8288,
      "▁సౌకర్య": 8289,
      "ండీగఢ్": 8290,
      "▁అభివృద్ధి": 8291,
      "▁నడిపించ": 8292,
      "గుప్త": 8293,
      "sites/default": 8294,
      "భారతదేశ_రాష్ట్రాలు,_కేంద్రపాలిత_ప్రాంతాలు": 8295,
      "Tarlo1996-26": 8296,
      "_and_union_territories_of_India": 8297,
      "▁[↑](https://en.wikipedia.org/wiki/India#cite_ref-1": 8298,
      "beralisation": 8299,
      "Davidson2014-p": 8300,
      "ృష్ణా": 8301,
      "inancial": 8302,
      "▁Cynthia": 8303,
      "berculosis": 8304,
      "▁(సా.శ.పూ.1200–సా.శ.పూ.": 8305,
      "ohenjo-daro": 8306,
      "▁([help](https://te.wikipedia.org/wiki/వర్గం:Harv_and_Sfn_template_errors": 8307,
      "▁[t](https://te.wikipedia.org/wiki/మూస_చర్చ:": 8308,
      "ోర్చుగ": 8309,
      "](https://www.wikidata.org/wiki/Q": 8310,
      "sites/default/files/": 8311,
      "#P": 8312,
      ",6": 8313,
      "/M": 8314,
      "/s": 8315,
      "/india/": 8316,
      "3-3": 8317,
      "425": 8318,
      "428": 8319,
      "7)[[": 8320,
      "NI": 8321,
      "Pe": 8322,
      "Raj": 8323,
      "_28": 8324,
      "_se": 8325,
      "aver": 8326,
      "bd": 8327,
      "dy": 8328,
      "gni": 8329,
      "gration": 8330,
      "music": 8331,
      "pub": 8332,
      "}}": 8333,
      "–17": 8334,
      "▁et": 8335,
      "▁establish": 8336,
      "orse": 8337,
      "https": 8338,
      "▁[28": 8339,
      "2022": 8340,
      "alak": 8341,
      "ison": 8342,
      "▁(J": 8343,
      "ases": 8344,
      "2013": 8345,
      "ick": 8346,
      "197": 8347,
      "▁India\"](https://": 8348,
      "let": 8349,
      "rame": 8350,
      "▁sim": 8351,
      "▁policy": 8352,
      "ritten": 8353,
      "acts": 8354,
      "▁Summit": 8355,
      "▁Present": 8356,
      "▁12.": 8357,
      "stre": 8358,
      "ilar": 8359,
      ".\n9": 8360,
      "▁Te": 8361,
      "▁Modi": 8362,
      "▁Ram": 8363,
      "▁Bengali": 8364,
      "▁air": 8365,
      "108": 8366,
      "▁*A": 8367,
      "abin": 8368,
      "▁nation": 8369,
      "▁[\"M": 8370,
      "15)": 8371,
      "40.": 8372,
      "_and_T": 8373,
      "27.": 8374,
      "▁Ludden": 8375,
      "▁around": 8376,
      "uccess": 8377,
      "dire": 8378,
      "7080": 8379,
      "ue.bnf.fr/ark:/12148/cb": 8380,
      "irectorate": 8381,
      "ublications/": 8382,
      "▁History*](https://books.google.com/books?id=": 8383,
      "data.bnf.fr/ark:/12148/cb": 8384,
      "data.worldbank.org/": 8385,
      "-report": 8386,
      "▁across": 8387,
      "ample": 8388,
      "ause": 8389,
      "5/5": 8390,
      "olden_Temple": 8391,
      ".uk/": 8392,
      "](https://id.": 8393,
      "Library_of_Congress2004": 8394,
      "alakrishnan": 8395,
      "▁similar": 8396,
      "▁Ludden,": 8397,
      "data.worldbank.org/indicator": 8398,
      "\"](http://www.": 8399,
      "%,": 8400,
      "*),": 8401,
      ",_India": 8402,
      "-कार": 8403,
      "/B": 8404,
      "/C-0": 8405,
      "1st": 8406,
      "223": 8407,
      "2-7": 8408,
      "3]](https://en.wikipedia.org/wiki/India#cite_note-": 8409,
      "317": 8410,
      "4]](https://en.wikipedia.org/wiki/India#cite_note-FOOTNOTE": 8411,
      "41)": 8412,
      "520": 8413,
      "528": 8414,
      "5.pdf)": 8415,
      "97": 8416,
      "9857": 8417,
      "=20": 8418,
      "BI": 8419,
      "Gangetic": 8420,
      "HDR": 8421,
      "K:": 8422,
      "LS": 8423,
      "MDD": 8424,
      "OV": 8425,
      "Oj": 8426,
      "PT": 8427,
      "Political_": 8428,
      "States": 8429,
      "Sanchi2": 8430,
      "VII": 8431,
      "W00": 8432,
      "XLS": 8433,
      "Young": 8434,
      "Zor": 8435,
      "_द": 8436,
      "_ध": 8437,
      "_य": 8438,
      "_he": 8439,
      "_वि": 8440,
      "_con": 8441,
      "_जन": 8442,
      "_ex": 8443,
      "_2008": 8444,
      "_शासित": 8445,
      "_द्वीप": 8446,
      "_monsoon": 8447,
      "aur": 8448,
      "aze": 8449,
      "audi": 8450,
      "b/b": 8451,
      "bird": 8452,
      "culture": 8453,
      "cutt": 8454,
      "dministrative": 8455,
      "d=20": 8456,
      "eology": 8457,
      "ful": 8458,
      "government": 8459,
      "jana": 8460,
      "jayan": 8461,
      "lé": 8462,
      "mon": 8463,
      "pi": 8464,
      "pper": 8465,
      "post": 8466,
      "rang": 8467,
      "s](https://en.wikipedia.org/wiki/": 8468,
      "sol": 8469,
      "t-": 8470,
      "tar": 8471,
      "tats": 8472,
      "tripura": 8473,
      "wait": 8474,
      "ypr": 8475,
      "ंची": 8476,
      "ंज़": 8477,
      "ंमार": 8478,
      "अतुल्य": 8479,
      "इतिहास": 8480,
      "उद्यान": 8481,
      "ऋग्व": 8482,
      "ओआई": 8483,
      "कु": 8484,
      "क्रम": 8485,
      "कृष्ण": 8486,
      "ख्": 8487,
      "घा": 8488,
      "घाट": 8489,
      "जवा": 8490,
      "ञ्": 8491,
      "टन": 8492,
      "टा": 8493,
      "ठा": 8494,
      "ठार": 8495,
      "णे": 8496,
      "तः": 8497,
      "तार": 8498,
      "थाली": 8499,
      "थुरा": 8500,
      "दश": 8501,
      "दी_": 8502,
      "दून": 8503,
      "दादरा": 8504,
      "धता": 8505,
      "धोला": 8506,
      "नै": 8507,
      "नजं": 8508,
      "निवेश": 8509,
      "पिय": 8510,
      "पीप": 8511,
      "फिल": 8512,
      "बे": 8513,
      "बलि": 8514,
      "भ्स": 8515,
      "मय": 8516,
      "मोर": 8517,
      "यण": 8518,
      "रत": 8519,
      "ल-": 8520,
      "लक": 8521,
      "लिया": 8522,
      "ल्ल": 8523,
      "लेशिया": 8524,
      "वर": 8525,
      "व\")": 8526,
      "वरा": 8527,
      "वरण": 8528,
      "सित": 8529,
      "़तर": 8530,
      "ाई": 8531,
      "ाग": 8532,
      "ाबा": 8533,
      "िच": 8534,
      "ीर": 8535,
      "ेज": 8536,
      "ैम्ब": 8537,
      "ोज": 8538,
      "ोढ़": 8539,
      "ोसी": 8540,
      "ोटे": 8541,
      "ोवियत": 8542,
      "्मार": 8543,
      "०,": 8544,
      "२०१": 8545,
      "४०": 8546,
      "–18": 8547,
      "–Pakistan": 8548,
      "′′": 8549,
      "▁झ": 8550,
      "▁ढ": 8551,
      "▁६": 8552,
      "▁८": 8553,
      "▁ter": 8554,
      "▁35": 8555,
      "▁4.": 8556,
      "▁5.": 8557,
      "▁8.": 8558,
      "▁times": 8559,
      "▁भाजपा": 8560,
      "kid=20": 8561,
      "ora": 8562,
      "oria": 8563,
      "oram": 8564,
      "orary": 8565,
      "orne": 8566,
      "ttac": 8567,
      "http://": 8568,
      "▁[का": 8569,
      "▁[धर्म": 8570,
      "▁[विश्व": 8571,
      "▁[Harle": 8572,
      "teri": 8573,
      "▁\"ख": 8574,
      "▁\"हैदराबाद": 8575,
      "▁\"ISO": 8576,
      "inna": 8577,
      "anch": 8578,
      "onal": 8579,
      "though": 8580,
      "](https://en.wikipedia.org/wiki/International": 8581,
      "era": 8582,
      "ers,": 8583,
      "ergy": 8584,
      "Indian_": 8585,
      "arati": 8586,
      "ardian": 8587,
      "ारा": 8588,
      "ारनाथ": 8589,
      "alcutt": 8590,
      "▁क्रांति": 8591,
      "▁कंपन": 8592,
      "](https://hi.wikipedia.org/wiki/श": 8593,
      "](https://hi.wikipedia.org/wiki/का": 8594,
      "](https://hi.wikipedia.org/wiki/सा": 8595,
      "](https://hi.wikipedia.org/wiki/चीन": 8596,
      "](https://hi.wikipedia.org/wiki/विश्व": 8597,
      "](https://hi.wikipedia.org/wiki/राष्ट्रीय_स": 8598,
      "्रिज": 8599,
      "भारत_के_राज्य": 8600,
      "tion,": 8601,
      "isa": 8602,
      "istic": 8603,
      "isni": 8604,
      "isak": 8605,
      "ispu": 8606,
      "▁सन्": 8607,
      "▁सर्वोच्च": 8608,
      "▁सहायक": 8609,
      "anding": 8610,
      "omain": 8611,
      "ito": 8612,
      "itor": 8613,
      "itchi": 8614,
      "▁(अ": 8615,
      "▁(union": 8616,
      "▁(अभिज्ञापक": 8617,
      "ought": 8618,
      "asar": 8619,
      "asian": 8620,
      "▁माना": 8621,
      "▁मशीन": 8622,
      "▁महारजिस्ट्रार": 8623,
      "▁India](https://en.wikipedia.org/wiki/P": 8624,
      "रान": 8625,
      "रामा": 8626,
      "▁पू": 8627,
      "▁पत्र": 8628,
      "▁पब्ल": 8629,
      "▁परीक्षण": 8630,
      "▁ins": 8631,
      "▁inequality": 8632,
      "rak": 8633,
      "ानक": 8634,
      "ानेर-": 8635,
      "▁so": 8636,
      "▁stu": 8637,
      "▁sultanate": 8638,
      "▁small": 8639,
      "etnam": 8640,
      "riy": 8641,
      "ricity": 8642,
      "\\_c": 8643,
      "\\_Wiki": 8644,
      "▁हव": 8645,
      "▁char": 8646,
      "▁cap": 8647,
      "agran": 8648,
      "▁Am": 8649,
      "यास": 8650,
      "▁Singh": 8651,
      "▁Social": 8652,
      "▁Schwartzberg": 8653,
      "▁Schedule": 8654,
      "[[15": 8655,
      "▁tril": 8656,
      "▁trib": 8657,
      "ads": 8658,
      "▁fl": 8659,
      "िकेश": 8660,
      "िकास": 8661,
      "िकोब": 8662,
      "library": 8663,
      "▁अब": 8664,
      "▁अमीरात": 8665,
      "▁अलावा": 8666,
      "▁में).": 8667,
      "urg": 8668,
      "urmu": 8669,
      "urasia": 8670,
      "urasian": 8671,
      "▁Prin": 8672,
      "▁Puran": 8673,
      "▁mark": 8674,
      "linkid=20": 8675,
      "verse": 8676,
      "heet": 8677,
      "_of_N": 8678,
      "ों_और": 8679,
      "ially": 8680,
      "ाली\")": 8681,
      "▁2016.": 8682,
      "▁जाना": 8683,
      "▁जीत": 8684,
      "▁जहाँ": 8685,
      "00%20A": 8686,
      "▁दर्": 8687,
      "213": 8688,
      "▁data": 8689,
      "ilt": 8690,
      ".\n23": 8691,
      "olad": 8692,
      "olice": 8693,
      "▁Mani": 8694,
      "▁बल": 8695,
      "▁बह": 8696,
      "▁ब्यूरो": 8697,
      "ंगला": 8698,
      "ंगोल": 8699,
      "▁प्रत्य": 8700,
      "▁प्रयास": 8701,
      "mentin-": 8702,
      "तिरु": 8703,
      "▁की।": 8704,
      "mporary": 8705,
      "▁निर": 8706,
      "▁Britannica": 8707,
      "▁Barb": 8708,
      "▁Bharat": 8709,
      "▁ap": 8710,
      "ताम": 8711,
      "nific": 8712,
      "ignific": 8713,
      "_सभा": 8714,
      "_स्व": 8715,
      "_(अभिज्ञापक": 8716,
      "_(union_territory": 8717,
      "▁Desert": 8718,
      "▁eaten": 8719,
      "indoor": 8720,
      "24_A7C": 8721,
      "▁\"Special:BookSources/978": 8722,
      "▁India\")*.": 8723,
      "स्तिकता": 8724,
      "▁*2011": 8725,
      "▁E.": 8726,
      "▁[↑](https://en.wikipedia.org/wiki/India#cite_ref-3": 8727,
      "▁[↑](https://en.wikipedia.org/wiki/India#cite_ref-Combined": 8728,
      "▁वाला": 8729,
      "▁वीं": 8730,
      "▁आज": 8731,
      "▁आया": 8732,
      "▁आयुक्त": 8733,
      "▁आदि": 8734,
      "_Sindoor": 8735,
      "ासी": 8736,
      "ास्": 8737,
      "_in_T": 8738,
      "113": 8739,
      "▁तीन": 8740,
      "50)": 8741,
      "forest": 8742,
      "स्थल": 8743,
      "▁2002": 8744,
      "▁2009.": 8745,
      "elug": 8746,
      "-45": 8747,
      "-49857": 8748,
      "माख्या": 8749,
      "▁गान": 8750,
      ".[[35": 8751,
      "▁1970": 8752,
      "18)": 8753,
      "abour": 8754,
      "ables/": 8755,
      "](https://en.wikipedia.org/wiki/India#CITEREFCraven1997": 8756,
      "▁उन्": 8757,
      "▁उच्च": 8758,
      "▁[Sri": 8759,
      "▁[\"World": 8760,
      "▁पर्यटन\")": 8761,
      "▁[मराठ": 8762,
      "▁Journal": 8763,
      "_मु": 8764,
      "नेई": 8765,
      "िलों": 8766,
      "ained": 8767,
      "epali": 8768,
      "_केन्द्र": 8769,
      "_President_of_India": 8770,
      "म्न": 8771,
      "लेस": 8772,
      "लेबन": 8773,
      "▁विषय": 8774,
      "▁विभाजन": 8775,
      "▁विभिन्न": 8776,
      "्यांमार": 8777,
      "16]](https://en.wikipedia.org/wiki/India#cite_note-": 8778,
      "▁L.": 8779,
      "▁London": 8780,
      "संस्कृत": 8781,
      "ियम": 8782,
      "▁Organisation": 8783,
      "▁Olymp": 8784,
      "conomist": 8785,
      "▁रु": 8786,
      "](https://en.wikipedia.org/wiki/St": 8787,
      "-981": 8788,
      "Harvard": 8789,
      "ndl": 8790,
      "▁three": 8791,
      "](https://en.wikipedia.org/wiki/Climate_": 8792,
      "िसी": 8793,
      "▁साम": 8794,
      "▁साहित्य": 8795,
      "▁साक्षरता": 8796,
      "ot:": 8797,
      "-2](Special:BookSources/978-1": 8798,
      "-2_Data": 8799,
      "पावा": 8800,
      "पाषाण": 8801,
      "1.asp?": 8802,
      "](Special:BookSources/978": 8803,
      "47)": 8804,
      "47.": 8805,
      "मनिरपेक्ष": 8806,
      "ysis": 8807,
      "▁[↑](https://en.wikipedia.org/wiki/India#cite_ref-FOOTNOTEM": 8808,
      "▁[↑](https://en.wikipedia.org/wiki/India#cite_ref-FOOTNOTECraven1997": 8809,
      "ummary": 8810,
      "▁[Mughal": 8811,
      "_Missile": 8812,
      "ी\")\n-": 8813,
      "%202-": 8814,
      "alled": 8815,
      "हाई": 8816,
      "artial": 8817,
      "किर्ग": 8818,
      "हिन्द_महासागर": 8819,
      "▁[BRICS": 8820,
      "▁\"BRICS": 8821,
      "▁original](http://": 8822,
      "ana-m": 8823,
      "ana-49857": 8824,
      "_Tables/": 8825,
      "मीन": 8826,
      ".jp/auth": 8827,
      "द्दाख": 8828,
      "▁करते": 8829,
      "2006),": 8830,
      "▁अनुस": 8831,
      "opulation_en": 8832,
      "](https://hi.wikipedia.org/wiki/महा": 8833,
      "▁१२": 8834,
      "▁१३": 8835,
      "▁१८": 8836,
      "▁*[B": 8837,
      "▁\"Th": 8838,
      "▁\"सिक्किम": 8839,
      "7.208": 8840,
[...]
