{"merges":[["Ġ","Ġ"],["à","¤"],["à","°"],["ĠĠ","ĠĠ"],["o","r"],["à","¥"],["i","n"],["t","e"],["à","±"],["w","i"],["ĠĠ","Ġ"],["o","n"],["k","i"],["Ġ","t"],["d","i"],["wi","ki"],["h","e"],["Ġ","à¤"],["a","n"],["e","n"],["di","a"],["e","r"],["s","t"],["r","e"],["Ġ","\""],["p","e"],["t","t"],["a","l"],["a","r"],["h","tt"],["htt","p"],["Ċ","ĠĠĠ"],["à¤","¾"],[":","/"],[":/","/"],["]","("],["a","t"],["http","s"],["Ċ","ĠĠĠĠ"],["or","g"],["a","s"],["pe","dia"],["wiki","pedia"],["à±","į"],["e","s"],["Ġt","he"],["Ġ","c"],["Ġ","s"],["i","on"],["à°","¾"],["à¤","°"],["Ġ","["],["\"",")"],["Ġ","="],["Ġ","à°"],["Ġ","f"],["Ġ","i"],["à¥","į"],["l","e"],["Ġ","o"],["I","n"],["d","e"],["o","m"],["ĊĠĠĠĠ","ĠĠĠ"],["-","-"],["Ġ","a"],["Ġ","p"],["Ġ","m"],["à°","°"],["Ġ","b"],["u","r"],["i","c"],["Ġo","f"],["in","g"],["à°","¿"],["s","e"],["Ġ","in"],["à¥","ĩ"],["an","d"],["t","h"],["0","0"],["à¤","¤"],["à°","Ĥ"],["a","m"],["In","dia"],["en","t"],["Ġ","re"],["h","i"],["à±","ģ"],["Ġt","o"],["o","u"],["à°","¤"],["n","o"],["Ġ","w"],["à¤","¿"],["te","r"],["à°","²"],["i","t"],["à¤","Ĥ"],["m","p"],["Ġ","1"],["l","o"],["Ġ","2"],["e","t"],["à¥","Ģ"],["a","c"],["Ġ","h"],["l","i"],["à°","¨"],["Ġ","e"],["Ġ","and"],["à¤","¨"],["a","te"],["r","i"],["a","d"],["c","i"],["or","t"],["i","l"],["Ġà¤","ķ"],["c","e"],["à¤","ķ"],["ĊĠĠĠĠ","ĠĠĠĠ"],["Ġ","T"],["Ġ","("],["v","er"],["à¤","¯"],["as","s"],["u","e"],["r","o"],["\"",","],["e","l"],["--","--"],["\"","\""],["de","f"],["e","d"],["Ġi","s"],["r","om"],["c","t"],["u","n"],["Ġ","g"],["#","#"],[">",">"],["à°","ķ"],["à°","¦"],["a","g"],["Ġ","d"],["<","<"],["Ġf","or"],["o","l"],["Ġ","st"],["à¤","¸"],["mp","ort"],["Ġ","|"],[")",":"],["à°","¯"],["at","ion"],["Ġ","A"],["à¤","®"],["r","a"],["u","t"],["u","l"],["2","0"],["Ċ","ĊĠĠĠ"],["i","s"],["ĊĠĠĠĠĠĠĠĠ","ĠĠĠ"],["ci","te"],["à°","®"],["O","T"],["a","y"],["Ġ","n"],["Ġ","C"],["à°","¸"],["à¤","²"],["u","m"],["no","te"],["on","e"],["à±","ĩ"],["]","]("],["Ġ","N"],["[","["],["u","p"],["Ġ","$"],["o","w"],["c","h"],["à¥","ĭ"],["i","d"],["Ġi","mport"],["al","l"],["à¤","¦"],["Ġ","S"],["Ġà¤","¸"],["n","s"],["Ġ","P"],["am","e"],["à°","µ"],["à°","ª"],["an","g"],["u","s"],["v","e"],["Ċ","Ċ"],["Ġ","India"],["f","i"],["m","e"],["Ġ","l"],["à¤","µ"],["Ġ","H"],["p","t"],["Ġb","e"],["à¤","ª"],["l","ass"],["a","k"],["f","rom"],["\")",","],["o","ur"],["à±","Ģ"],["o","o"],["c","om"],["Ġt","h"],["Ġ","-"],["x","t"],["Ġ\"","\"\""],["y","pe"],["ur","n"],["a","b"],["1","0"],["à°","Ĺ"],["Ġ","te"],["Ġ","*"],["à±","ĭ"],["à¤°","à¤¤"],["i","r"],["Ġ","M"],["Ġ","<<"],["Ġ","def"],["à¥","ģ"],["F","O"],["Ġ","wi"],["or","e"],["à°","¶"],["Ġ","as"],["Ġ","#"],["o","d"],["Ġà¤","®"],["a","p"],["Ġ","no"],["he","r"],["Ġre","t"],["à°","Ł"],["c","on"],["g","h"],["ue","st"],["(",")"],["Ġi","f"],["â","Ģ"],["Ġret","urn"],["v","al"],["ul","t"],["Ġ","'"],["m","ent"],["----","----"],["Ġ","4"],["Ġ","3"],["Ġà¤","ª"],["à¤","Ń"],["er","t"],["1","9"],["à¤","Ĺ"],["5","0"],["ou","n"],["a","in"],["Ġst","r"],["Ġ","`"],["Ġ","B"],["Ġ","r"],["ag","e"],["à¤","ľ"],["m","at"],["1","2"],["hi","s"],["ĠT","he"],["Ġ","R"],["o","de"],["à¤","¶"],["c","es"],["st","r"],["Ġà¤","¹"],["ĠN","one"],["Ġ","F"],["Ġ","."],["Ġc","on"],["s","p"],["2","00"],["Ġà°","ª"],["Ġ","on"],["à¤","¹"],["en","d"],["à¥ĩ","à¤Ĥ"],["ver","s"],[")",","],["c","k"],["à°","¡"],["p","y"],["à°","Ń"],["t","s"],["l","in"],["Ġf","rom"],["l","d"],["à°°","à°¤"],["à¤","·"],["l","y"],["te","d"],["à¥","Ī"],["p","g"],["Ġs","el"],["ion","s"],["Ġ","or"],["Ġ","di"],["Ġ","I"],["6","0"],[".","[["],["Ġ","he"],["ar","k"],["T","he"],["er","s"],["u","b"],["N","OT"],["ar","g"],["Ġ","an"],["à°","ļ"],["j","pg"],["se","l"],["à¤","§"],["um","b"],["OT","NOT"],["OTNOT","E"],["FO","OTNOTE"],["Ġb","y"],["Ġsel","f"],["Ġe","x"],["sel","f"],["(","\""],["\"",":"],["Ġ","D"],["re","s"],["f","or"],["Ġwi","th"],["Ġ","y"],["Ġ","+"],["ĊĠĠĠĠĠĠĠĠ","ĠĠĠĠ"],["o","f"],["4","0"],["di","an"],["w","er"],["Ġ2","0"],["an","ce"],["l","ic"],["Ġ","ass"],["ar","t"],["r","or"],["ac","h"],["e","x"],["a","st"],["Ġh","as"],["i","le"],["In","dian"],["à°","ľ"],["à¤","ļ"],["~","~"],["o","t"],["i","me"],["an","t"],["Ġ","E"],["c","lass"],["m","on"],["Ġth","at"],["c","he"],["ab","le"],["Ġs","e"],["Ġass","ert"],["u","se"],["'","s"],["à±","Ĥ"],[")","."],["ar","s"],["Ġa","re"],["Ġ=","="],["l","l"],["ou","t"],["3","0"],["Ġ","J"],["à¥","¤"],["A","T"],["à¤","¬"],["o","st"],["Ġno","t"],["i","st"],["as","e"],["2","5"],["te","m"],["or","y"],["o","p"],["oo","k"],["âĢ","ĵ"],["ow","n"],["1","8"],["Ġà°","¸"],["Ċ","ĊĠĠĠĠĠĠĠ"],["n","ame"],["an","y"],["ac","k"],["vers","ion"],["##","##"],["uest","ion"],["Ġte","st"],["u","re"],["ns","wer"],["Q","uestion"],["A","nswer"],["à¤","£"],["Ġà¤","Ń"],["Ġ","li"],["al","i"],["Ġ","de"],["ct","ion"],["Ġ-",">"],["d","u"],["à°","§"],["gh","t"],["1","6"],["à¥","Ĥ"],["lo","ad"],["i","m"],["9","7"],["e","w"],["Ġ","5"],["à±","Ĩ"],["à°","¬"],["v","i"],["m","a"],["ak","e"],["=","="],["re","d"],["l","ate"],["it","y"],["at","h"],["t","o"],["t","al"],["Ġ","G"],["q","u"],["Ġ","W"],["k","e"],["'",","],["r","y"],["u","te"],["à°","·"],["ap","p"],["Ġw","e"],["Ġs","he"],["Ġto","tal"],["i","g"],["Ġà¤","¨"],["Ġà°","ķ"],["ĊĠĠĠĠĠĠĠĠĠĠĠĠ","ĠĠĠ"],["U","n"],["Ġ","L"],["te","xt"],["Ġà°","µ"],["à¤","Ł"],["ac","t"],["\"\"","\""],["à¥ĭ","à¤Ĥ"],["e","ct"],["8","0"],["an","s"],["pt","ion"],["ĠĠĠĠ","ĠĠĠĠ"],["Ġ","{"],["Ġà¤","ľ"],["Ġw","h"],["1","1"],["à°","¹"],["r","ror"],["g","et"],["Ġà¤","¦"],["Ġm","any"],["E","rror"],["y","n"],["r","ou"],["val","ue"],["s","i"],["h","a"],["ang","u"],["q","uest"],["Ġw","as"],["Ġ","le"],["lo","g"],["d","own"],["Ġà¤","¬"],["te","ns"],["Ġà¤","µ"],["ar","y"],["th","on"],["o","c"],["e","st"],["1","5"],["Ġc","om"],["re","e"],["\"","]"],["oun","t"],["d","s"],["on","se"],["à¤","¥"],["d","er"],["00","0"],["Ķ","à¤°"],["Ġ$","<<"],["--------","--------"],["à°","£"],["at","a"],["en","er"],["Ġà¤","°"],["Ġ","at"],["ark","down"],["à°¿","à°Ĥ"],["ces","s"],["I","N"],["Ġm","e"],["mat","ter"],["i","mport"],["Ġi","t"],["à¤","¡"],["e","p"],["a","ve"],["Ġre","s"],["Ġp","ro"],["2","4"],["Ġà¤","Ķà¤°"],["Ġc","h"],["j","ect"],["di","t"],["ant","ic"],["à±","Ī"],["u","d"],["tt","r"],["es","s"],["Ġe","ach"],["r","it"],["m","l"],["lo","w"],["d","antic"],["ar","n"],["t","he"],["Ġà¤","ħ"],["ĠP","y"],["Ġp","er"],["o","in"],["(","):"],["r","ue"],["te","n"],["lic","k"],["t","ml"],["Ġm","il"],["y","p"],["ag","es"],["2","8"],["\")","."],["Ġb","o"],["3","5"],["Ġt","ype"],["Ġà°","®"],["Ġw","or"],["Ġ","6"],["à°°à°¤","à°¦"],["lo","ck"],["ur","l"],["u","st"],["p","p"],["Ġ","x"],["Ġ","j"],["y","s"],["ri","b"],["p","ar"],["Ġh","our"],["Ġ","al"],["in","e"],["ic","h"],["Ġs","p"],["te","st"],["mon","s"],["ir","st"],["Ġn","e"],["Ġc","lass"],["Ġ","ra"],["me","dia"],["ent","i"],["ĠH","ow"],["c","ode"],["1","7"],["Ġ","O"],["ation","s"],["Ġ2","00"],["Ġ1","9"],["rou","p"],["Ġg","et"],["Ġ","In"],["p","ro"],["t","a"],["st","ance"],["l","es"],["ic","al"],["i","es"],["Ġà°","°"],["Ġ1","0"],["Ġ","use"],["pe","ci"],["mp","late"],["t","ype"],["FO","R"],["Ġd","ay"],["Ġ","K"],["sp","onse"],["Ġres","ult"],["Ġ","un"],["à°¿","."],["Ġ1","2"],["w","e"],["h","tml"],["f","f"],["Ġp","y"],["ter","n"],["o","s"],["M","AT"],["FOR","MAT"],["1","4"],["de","d"],["c","al"],["ing","s"],["d","ay"],["a","v"],["Ġà¤","¤"],["Ġd","o"],["à¤","¼"],["wiki","media"],["umb","er"],["all","y"],["I","S"],["Ġ","7"],["Ġ",")"],["u","ch"],["lin","k"],["g","i"],["com","mons"],["arg","s"],["Ġwi","ll"],["ĠI","f"],["oun","d"],["en","ce"],["at","or"],["p","h"],["on","g"],["l","s"],["!","["],["Ġr","un"],["up","load"],["re","f"],["o","ver"],["n","er"],["i","ve"],["i","el"],["f","ter"],["ation","al"],["ĠA","n"],["yp","ing"],["th","umb"],["che","ma"],["ac","he"],["1","00"],["Ġc","ost"],["Ġ","Indian"],["p","x"],["p","ut"],["ment","s"],["i","se"],["e","k"],["A","L"],[")","]("],[")","[["],["Ġf","irst"],["i","f"],["Ġs","h"],["ute","s"],["t","ime"],["no","t"],["ar","d"],["Ġwh","ich"],["ter","s"],["enti","fi"],["97","8"],["Ġy","e"],["Ġre","sponse"],["~~","~~"],["v","ed"],["s","on"],["k","en"],["ce","pt"],["Ġ","his"],["w","w"],["cess","or"],["C","on"],["Ġm","in"],["à°¾","à°Ĥ"],["*","*"],["Ġ","v"],["at","s"],["B","N"],["Ġh","ave"],["ate","d"],["angu","age"],["a","j"],["T","ype"],["m","and"],["IS","BN"],["Ġn","umber"],["s","o"],["2","3"],["Ġà°","Ń"],["val","id"],["o","b"],["Ġp","ar"],["p","le"],["fi","le"],["um","ent"],["s","h"],["fi","g"],["am","es"],["R","E"],["A","R"],["our","ce"],["is","h"],["in","d"],["al","le"],["R","e"],["Ġa","pp"],["Ġ","8"],["1","3"],["ĠH","e"],["un","ction"],["F","ile"],["C","h"],["id","entifi"],["Ġ","0"],["à¤","Ī"],["res","s"],["ook","s"],["Ġà°","ħ"],["Ġc","an"],["Ġ","her"],["2","7"],["à±ģ","]("],["ic","s"],["Ġs","o"],["Ġ","9"],["à°","¥"],["s","s"]],"specials":["<pad>","<bos>","<eos>","<sep>"],"vocab":{"!":4,"![":921,"\"":5,"\"\"":392,"\"\"\"":729,"\")":312,"\"),":472,"\").":825,"\",":389,"\":":601,"\"]":767,"#":6,"##":400,"####":671,"$":7,"%":8,"&":9,"'":10,"',":711,"'s":640,"(":11,"(\"":600,"()":511,"():":816,")":12,"),":558,").":642,"):":413,")[[":946,")](":945,"*":13,"**":971,"+":14,",":15,"-":16,"--":324,"----":391,"--------":519,"----------------":776,".":17,".[[":579,"/":18,"0":19,"00":340,"000":773,"1":20,"10":484,"100":936,"11":739,"12":537,"13":1004,"14":893,"15":764,"16":688,"17":857,"18":664,"19":525,"2":21,"20":421,"200":551,"23":984,"24":795,"25":657,"27":1017,"28":824,"3":22,"30":648,"35":827,"4":23,"40":610,"5":24,"50":527,"6":25,"60":578,"7":26,"8":27,"80":732,"9":28,"97":692,"978":957,":":29,":/":293,"://":294,";":30,"<":31,"<<":406,"<bos>":1,"<eos>":2,"<pad>":0,"<sep>":3,"=":32,"==":700,">":33,">>":401,"?":34,"@":35,"A":36,"AL":944,"AR":996,"AT":651,"Answer":677,"B":37,"BN":974,"C":38,"Ch":1008,"Con":968,"D":39,"E":40,"Error":745,"F":41,"FO":495,"FOOTNOTE":595,"FOR":877,"FORMAT":892,"File":1007,"G":42,"H":43,"I":44,"IN":785,"IS":905,"ISBN":981,"In":320,"India":344,"Indian":624,"J":45,"K":46,"L":47,"M":48,"MAT":891,"N":49,"NOT":585,"O":50,"OT":427,"OTNOT":593,"OTNOTE":594,"P":51,"Q":52,"Question":676,"R":53,"RE":995,"Re":1001,"S":54,"T":55,"The":582,"Type":979,"U":56,"Un":723,"V":57,"W":58,"X":59,"Y":60,"Z":61,"[":62,"[[":439,"\\":63,"]":64,"](":295,"]](":437,"^":65,"_":66,"`":67,"a":68,"ab":483,"able":636,"ac":365,"ach":619,"ache":935,"ack":669,"act":728,"ad":374,"ag":404,"age":534,"ages":823,"ain":529,"aj":978,"ak":470,"ake":699,"al":287,"ali":681,"all":447,"alle":1000,"ally":904,"am":343,"ame":453,"ames":994,"an":278,"ance":614,"and":338,"ang":456,"angu":751,"anguage":977,"ans":733,"ant":630,"antic":800,"any":668,"ap":503,"app":715,"ar":288,"ard":953,"arg":586,"args":912,"ark":581,"arkdown":782,"arn":810,"ars":643,"art":617,"ary":760,"as":300,"ase":656,"ass":386,"ast":621,"at":296,"ata":778,"ate":372,"ated":976,"ath":704,"ation":415,"ational":930,"ations":859,"ator":917,"ats":973,"av":898,"ave":792,"ay":428,"b":69,"c":70,"cal":895,"ce":379,"cept":964,"ces":543,"cess":784,"cessor":967,"ch":443,"che":635,"chema":934,"ci":375,"cite":425,"ck":559,"class":632,"code":856,"com":476,"commons":911,"con":508,"ct":397,"ction":683,"d":71,"dantic":809,"day":897,"de":321,"ded":894,"def":393,"der":772,"di":274,"dia":280,"dian":611,"dit":799,"down":756,"ds":769,"du":685,"e":72,"ect":731,"ed":394,"ek":943,"el":390,"en":279,"ence":916,"end":555,"ener":779,"ent":345,"enti":854,"entifi":956,"ep":791,"er":281,"ers":583,"ert":524,"es":304,"ess":804,"est":763,"et":363,"ew":693,"ex":620,"f":73,"ff":887,"fi":461,"fig":993,"file":990,"for":604,"from":471,"fter":929,"g":74,"get":742,"gh":509,"ght":687,"gi":910,"h":75,"ha":750,"he":276,"her":505,"hi":347,"his":538,"html":886,"htt":289,"http":290,"https":297,"i":76,"ic":331,"ical":869,"ich":845,"ics":1019,"id":445,"identifi":1009,"iel":928,"ies":870,"if":948,"ig":719,"il":377,"ile":623,"im":691,"ime":629,"import":788,"in":266,"ind":999,"ine":844,"ing":333,"ings":896,"ion":308,"ions":574,"ir":490,"irst":849,"is":423,"ise":942,"ish":998,"ist":655,"it":357,"ity":703,"ive":927,"j":77,"ject":798,"jpg":589,"k":78,"ke":710,"ken":963,"ki":272,"l":79,"lass":469,"late":702,"ld":566,"le":318,"les":868,"li":367,"lic":615,"lick":819,"lin":564,"link":909,"ll":646,"lo":361,"load":690,"lock":833,"log":755,"low":808,"ls":920,"ly":569,"m":80,"ma":698,"mand":980,"mat":536,"matter":787,"me":462,"media":853,"ment":518,"ments":941,"ml":807,"mon":633,"mons":848,"mp":359,"mplate":875,"mport":411,"n":81,"name":667,"ner":926,"no":352,"not":952,"note":434,"ns":451,"nswer":675,"o":82,"ob":987,"oc":762,"od":501,"ode":541,"of":609,"oin":815,"ol":408,"om":322,"on":271,"one":435,"ong":919,"onse":770,"oo":475,"ook":661,"ooks":1013,"op":660,"or":264,"ore":497,"org":299,"ort":376,"ory":659,"os":890,"ost":653,"ot":628,"ou":350,"oun":528,"ound":915,"ount":768,"our":473,"ource":997,"out":647,"over":925,"ow":442,"own":663,"p":83,"par":841,"pe":285,"peci":874,"pedia":301,"pg":572,"ph":918,"ple":989,"pp":836,"pro":865,"pt":466,"ption":734,"put":940,"px":939,"py":561,"q":84,"qu":708,"quest":752,"r":85,"ra":418,"re":283,"red":701,"ree":766,"ref":924,"res":603,"ress":1012,"ri":373,"rib":840,"rit":806,"ro":388,"rom":396,"ror":618,"rou":747,"roup":862,"rror":741,"rue":817,"ry":712,"s":86,"se":335,"sel":590,"self":599,"sh":992,"si":749,"so":983,"son":962,"sp":550,"sponse":880,"ss":1023,"st":282,"stance":867,"str":544,"t":87,"ta":866,"tal":706,"te":267,"ted":570,"tem":658,"ten":818,"tens":758,"ter":355,"tern":889,"ters":955,"test":847,"text":725,"th":339,"the":811,"thon":761,"thumb":933,"time":951,"tml":820,"to":705,"ts":563,"tt":286,"ttr":803,"type":876,"u":88,"ub":584,"uch":908,"ud":802,"ue":387,"uest":510,"uestion":672,"ul":420,"ult":516,"um":433,"umb":592,"umber":903,"ument":991,"un":398,"unction":1006,"up":440,"upload":923,"ur":330,"ure":674,"url":834,"urn":482,"us":457,"use":639,"ust":835,"ut":419,"ute":713,"utes":950,"v":89,"val":515,"valid":986,"value":748,"ve":458,"ved":961,"ver":384,"vers":557,"version":670,"vi":697,"w":90,"we":885,"wer":612,"wi":269,"wiki":275,"wikimedia":902,"wikipedia":302,"ww":966,"x":91,"xt":479,"y":92,"yn":746,"yp":822,"ype":481,"yping":932,"ys":839,"z":93,"{":94,"|":95,"}":96,"~":97,"~~":627,"~~~~":960,"¡":98,"¢":99,"£":100,"¤":101,"¥":102,"¦":103,"§":104,"¨":105,"©":106,"ª":107,"«":108,"¬":109,"®":110,"¯":111,"°":112,"±":113,"²":114,"³":115,"´":116,"µ":117,"¶":118,"·":119,"¸":120,"¹":121,"º":122,"»":123,"¼":124,"½":125,"¾":126,"¿":127,"À":128,"Á":129,"Â":130,"Ã":131,"Ä":132,"Å":133,"Æ":134,"Ç":135,"È":136,"É":137,"Ê":138,"Ë":139,"Ì":140,"Í":141,"Î":142,"Ï":143,"Ð":144,"Ñ":145,"Ò":146,"Ó":147,"Ô":148,"Õ":149,"Ö":150,"×":151,"Ø":152,"Ù":153,"Ú":154,"Û":155,"Ü":156,"Ý":157,"Þ":158,"ß":159,"à":160,"à¤":261,"à¤¡":790,"à¤£":678,"à¤¤":341,"à¤¥":771,"à¤¦":448,"à¤§":591,"à¤¨":371,"à¤ª":468,"à¤¬":652,"à¤®":417,"à¤¯":385,"à¤°":310,"à¤°à¤¤":489,"à¤²":432,"à¤µ":464,"à¤¶":542,"à¤·":568,"à¤¸":410,"à¤¹":554,"à¤¼":901,"à¤¾":292,"à¤¿":354,"à¤Ĥ":358,"à¤Ī":1011,"à¤ķ":380,"à¤Ĺ":526,"à¤ļ":626,"à¤ľ":535,"à¤Ł":727,"à¤Ń":523,"à¥":265,"à¥¤":650,"à¥Ģ":364,"à¥ģ":494,"à¥Ĥ":689,"à¥ĩ":337,"à¥ĩà¤Ĥ":556,"à¥Ī":571,"à¥ĭ":444,"à¥ĭà¤Ĥ":730,"à¥į":317,"à°":262,"à°¡":560,"à°£":777,"à°¤":351,"à°¥":1022,"à°¦":403,"à°§":686,"à°¨":368,"à°ª":455,"à°¬":696,"à°®":426,"à°¯":414,"à°°":328,"à°°à°¤":567,"à°°à°¤à°¦":832,"à°²":356,"à°µ":454,"à°¶":498,"à°·":714,"à°¸":431,"à°¹":740,"à°¾":309,"à°¾à°Ĥ":970,"à°¿":334,"à°¿.":883,"à°¿à°Ĥ":783,"à°Ĥ":342,"à°ķ":402,"à°Ĺ":485,"à°ļ":588,"à°ľ":625,"à°Ł":507,"à°Ń":562,"à±":268,"à±Ģ":474,"à±ģ":348,"à±ģ](":1018,"à±Ĥ":641,"à±Ĩ":695,"à±ĩ":436,"à±Ī":801,"à±ĭ":488,"à±į":303,"á":161,"â":162,"âĢ":513,"âĢĵ":662,"ã":163,"ä":164,"å":165,"æ":166,"ç":167,"è":168,"é":169,"ê":170,"ë":171,"ì":172,"í":173,"î":174,"ï":175,"ð":176,"ñ":177,"ò":178,"ó":179,"ô":180,"õ":181,"ö":182,"÷":183,"ø":184,"ù":185,"ú":186,"û":187,"ü":188,"ý":189,"þ":190,"ÿ":191,"Ā":192,"ā":193,"Ă":194,"ă":195,"Ą":196,"ą":197,"Ć":198,"ć":199,"Ĉ":200,"ĉ":201,"Ċ":202,"ĊĊ":459,"ĊĊĠĠĠ":422,"ĊĊĠĠĠĠĠĠĠ":666,"ĊĠĠĠ":291,"ĊĠĠĠĠ":298,"ĊĠĠĠĠĠĠĠ":323,"ĊĠĠĠĠĠĠĠĠ":381,"ĊĠĠĠĠĠĠĠĠĠĠĠ":424,"ĊĠĠĠĠĠĠĠĠĠĠĠĠ":608,"ĊĠĠĠĠĠĠĠĠĠĠĠĠĠĠĠ":722,"ċ":203,"Č":204,"č":205,"Ď":206,"ď":207,"Đ":208,"đ":209,"Ē":210,"ē":211,"Ĕ":212,"ĕ":213,"Ė":214,"ė":215,"Ę":216,"ę":217,"Ě":218,"ě":219,"Ĝ":220,"ĝ":221,"Ğ":222,"ğ":223,"Ġ":224,"Ġ\"":284,"Ġ\"\"\"":480,"Ġ#":500,"Ġ$":441,"Ġ$<<":775,"Ġ'":517,"Ġ(":383,"Ġ)":907,"Ġ*":487,"Ġ+":607,"Ġ-":478,"Ġ->":684,"Ġ.":548,"Ġ0":1010,"Ġ1":360,"Ġ10":872,"Ġ12":884,"Ġ19":861,"Ġ2":362,"Ġ20":613,"Ġ200":860,"Ġ3":521,"Ġ4":520,"Ġ5":694,"Ġ6":831,"Ġ7":906,"Ġ8":1003,"Ġ9":1021,"Ġ<<":492,"Ġ=":313,"Ġ==":645,"ĠA":416,"ĠAn":931,"ĠB":532,"ĠC":430,"ĠD":602,"ĠE":631,"ĠF":547,"ĠG":707,"ĠH":465,"ĠHe":1005,"ĠHow":855,"ĠI":577,"ĠIf":914,"ĠIn":864,"ĠIndia":460,"ĠIndian":938,"ĠJ":649,"ĠK":879,"ĠL":724,"ĠM":491,"ĠN":438,"ĠNone":546,"ĠO":858,"ĠP":452,"ĠPy":813,"ĠR":540,"ĠS":449,"ĠT":382,"ĠThe":539,"ĠW":709,"Ġ[":311,"Ġ`":531,"Ġa":325,"Ġal":843,"Ġan":587,"Ġand":370,"Ġapp":1002,"Ġare":644,"Ġas":499,"Ġass":616,"Ġassert":638,"Ġat":781,"Ġb":329,"Ġbe":467,"Ġbo":826,"Ġby":596,"Ġc":306,"Ġcan":1015,"Ġch":797,"Ġclass":851,"Ġcom":765,"Ġcon":549,"Ġcost":937,"Ġd":405,"Ġday":878,"Ġde":682,"Ġdef":493,"Ġdi":576,"Ġdo":900,"Ġe":369,"Ġeach":805,"Ġex":598,"Ġf":315,"Ġfirst":947,"Ġfor":407,"Ġfrom":565,"Ġg":399,"Ġget":863,"Ġh":366,"Ġhas":622,"Ġhave":975,"Ġhe":580,"Ġher":1016,"Ġhis":965,"Ġhour":842,"Ġi":316,"Ġif":512,"Ġimport":446,"Ġin":336,"Ġis":395,"Ġit":789,"Ġj":838,"Ġl":463,"Ġle":754,"Ġli":680,"Ġm":327,"Ġmany":744,"Ġme":786,"Ġmil":821,"Ġmin":969,"Ġn":429,"Ġne":850,"Ġno":504,"Ġnot":654,"Ġnumber":982,"Ġo":319,"Ġof":332,"Ġon":553,"Ġor":575,"Ġp":326,"Ġpar":988,"Ġper":814,"Ġpro":794,"Ġpy":888,"Ġr":533,"Ġra":852,"Ġre":346,"Ġres":793,"Ġresponse":959,"Ġresult":881,"Ġret":506,"Ġreturn":514,"Ġrun":922,"Ġs":307,"Ġse":637,"Ġsel":573,"Ġself":597,"Ġsh":949,"Ġshe":717,"Ġso":1020,"Ġsp":846,"Ġst":409,"Ġstr":530,"Ġt":273,"Ġte":486,"Ġtest":673,"Ġth":477,"Ġthat":634,"Ġthe":305,"Ġto":349,"Ġtotal":718,"Ġtype":828,"Ġun":882,"Ġuse":873,"Ġv":972,"Ġw":353,"Ġwas":753,"Ġwe":716,"Ġwh":738,"Ġwhich":954,"Ġwi":496,"Ġwill":913,"Ġwith":605,"Ġwor":830,"Ġx":837,"Ġy":606,"Ġye":958,"Ġ{":736,"Ġ|":412,"Ġà¤":277,"Ġà¤¤":899,"Ġà¤¦":743,"Ġà¤¨":720,"Ġà¤ª":522,"Ġà¤¬":757,"Ġà¤®":502,"Ġà¤°":780,"Ġà¤µ":759,"Ġà¤¸":450,"Ġà¤¹":545,"Ġà¤ħ":812,"Ġà¤Ķà¤°":796,"Ġà¤ķ":378,"Ġà¤ľ":737,"Ġà¤Ń":679,"Ġà°":314,"Ġà°ª":552,"Ġà°®":829,"Ġà°°":871,"Ġà°µ":726,"Ġà°¸":665,"Ġà°ħ":1014,"Ġà°ķ":721,"Ġà°Ń":985,"ĠĠ":260,"ĠĠĠ":270,"ĠĠĠĠ":263,"ĠĠĠĠĠĠĠĠ":735,"ġ":225,"Ģ":226,"ģ":227,"Ĥ":228,"ĥ":229,"Ħ":230,"ħ":231,"Ĩ":232,"ĩ":233,"Ī":234,"ī":235,"Ĭ":236,"ĭ":237,"Į":238,"į":239,"İ":240,"ı":241,"Ĳ":242,"ĳ":243,"Ĵ":244,"ĵ":245,"Ķ":246,"Ķà¤°":774,"ķ":247,"ĸ":248,"Ĺ":249,"ĺ":250,"Ļ":251,"ļ":252,"Ľ":253,"ľ":254,"Ŀ":255,"ŀ":256,"Ł":257,"ł":258,"Ń":259}}