{
  "version": "1.0",
  "truncation": null,
  "padding": null,
  "added_tokens": [],
  "normalizer": null,
  "pre_tokenizer": {
    "type": "ByteLevel",
    "add_prefix_space": false,
    "trim_offsets": true,
    "use_regex": false
  },
  "post_processor": null,
  "decoder": {
    "type": "ByteLevel",
    "add_prefix_space": true,
    "trim_offsets": true,
    "use_regex": true
  },
  "model": {
    "type": "BPE",
    "dropout": null,
    "unk_token": null,
    "continuing_subword_prefix": null,
    "end_of_word_suffix": null,
    "fuse_unk": false,
    "byte_fallback": false,
    "ignore_merges": false,
    "vocab": {
      "!": 0,
      "\"": 1,
      "#": 2,
      "$": 3,
      "%": 4,
      "&": 5,
      "'": 6,
      "(": 7,
      ")": 8,
      "*": 9,
      "+": 10,
      ",": 11,
      "-": 12,
      ".": 13,
      "/": 14,
      "0": 15,
      "1": 16,
      "2": 17,
      "3": 18,
      "4": 19,
      "5": 20,
      "6": 21,
      "7": 22,
      "8": 23,
      "9": 24,
      ":": 25,
      ";": 26,
      "<": 27,
      "=": 28,
      ">": 29,
      "?": 30,
      "@": 31,
      "A": 32,
      "B": 33,
      "C": 34,
      "D": 35,
      "E": 36,
      "F": 37,
      "G": 38,
      "H": 39,
      "I": 40,
      "J": 41,
      "K": 42,
      "L": 43,
      "M": 44,
      "N": 45,
      "O": 46,
      "P": 47,
      "Q": 48,
      "R": 49,
      "S": 50,
      "T": 51,
      "U": 52,
      "V": 53,
      "W": 54,
      "X": 55,
      "Y": 56,
      "Z": 57,
      "[": 58,
      "\\": 59,
      "]": 60,
      "^": 61,
      "_": 62,
      "`": 63,
      "a": 64,
      "b": 65,
      "c": 66,
      "d": 67,
      "e": 68,
      "f": 69,
      "g": 70,
      "h": 71,
      "i": 72,
      "j": 73,
      "k": 74,
      "l": 75,
      "m": 76,
      "n": 77,
      "o": 78,
      "p": 79,
      "q": 80,
      "r": 81,
      "s": 82,
      "t": 83,
      "u": 84,
      "v": 85,
      "w": 86,
      "x": 87,
      "y": 88,
      "z": 89,
      "{": 90,
      "|": 91,
      "}": 92,
      "~": 93,
      "¡": 94,
      "¢": 95,
      "£": 96,
      "¤": 97,
      "¥": 98,
      "¦": 99,
      "§": 100,
      "¨": 101,
      "©": 102,
      "ª": 103,
      "«": 104,
      "¬": 105,
      "®": 106,
      "¯": 107,
      "°": 108,
      "±": 109,
      "²": 110,
      "³": 111,
      "´": 112,
      "µ": 113,
      "¶": 114,
      "·": 115,
      "¸": 116,
      "¹": 117,
      "º": 118,
      "»": 119,
      "¼": 120,
      "½": 121,
      "¾": 122,
      "¿": 123,
      "À": 124,
      "Á": 125,
      "Â": 126,
      "Ã": 127,
      "Ä": 128,
      "Å": 129,
      "Æ": 130,
      "Ç": 131,
      "È": 132,
      "É": 133,
      "Ê": 134,
      "Ë": 135,
      "Ì": 136,
      "Í": 137,
      "Î": 138,
      "Ï": 139,
      "Ð": 140,
      "Ñ": 141,
      "Ò": 142,
      "Ó": 143,
      "Ô": 144,
      "Õ": 145,
      "Ö": 146,
      "×": 147,
      "Ø": 148,
      "Ù": 149,
      "Ú": 150,
      "Û": 151,
      "Ü": 152,
      "Ý": 153,
      "Þ": 154,
      "ß": 155,
      "à": 156,
      "á": 157,
      "â": 158,
      "ã": 159,
      "ä": 160,
      "å": 161,
      "æ": 162,
      "ç": 163,
      "è": 164,
      "é": 165,
      "ê": 166,
      "ë": 167,
      "ì": 168,
      "í": 169,
      "î": 170,
      "ï": 171,
      "ð": 172,
      "ñ": 173,
      "ò": 174,
      "ó": 175,
      "ô": 176,
      "õ": 177,
      "ö": 178,
      "÷": 179,
      "ø": 180,
      "ù": 181,
      "ú": 182,
      "û": 183,
      "ü": 184,
      "ý": 185,
      "þ": 186,
      "ÿ": 187,
      "Ā": 188,
      "ā": 189,
      "Ă": 190,
      "ă": 191,
      "Ą": 192,
      "ą": 193,
      "Ć": 194,
      "ć": 195,
      "Ĉ": 196,
      "ĉ": 197,
      "Ċ": 198,
      "ċ": 199,
      "Č": 200,
      "č": 201,
      "Ď": 202,
      "ď": 203,
      "Đ": 204,
      "đ": 205,
      "Ē": 206,
      "ē": 207,
      "Ĕ": 208,
      "ĕ": 209,
      "Ė": 210,
      "ė": 211,
      "Ę": 212,
      "ę": 213,
      "Ě": 214,
      "ě": 215,
      "Ĝ": 216,
      "ĝ": 217,
      "Ğ": 218,
      "ğ": 219,
      "Ġ": 220,
      "ġ": 221,
      "Ģ": 222,
      "ģ": 223,
      "Ĥ": 224,
      "ĥ": 225,
      "Ħ": 226,
      "ħ": 227,
      "Ĩ": 228,
      "ĩ": 229,
      "Ī": 230,
      "ī": 231,
      "Ĭ": 232,
      "ĭ": 233,
      "Į": 234,
      "į": 235,
      "İ": 236,
      "ı": 237,
      "Ĳ": 238,
      "ĳ": 239,
      "Ĵ": 240,
      "ĵ": 241,
      "Ķ": 242,
      "ķ": 243,
      "ĸ": 244,
      "Ĺ": 245,
      "ĺ": 246,
      "Ļ": 247,
      "ļ": 248,
      "Ľ": 249,
      "ľ": 250,
      "Ŀ": 251,
      "ŀ": 252,
      "Ł": 253,
      "ł": 254,
      "Ń": 255,
      "à¤": 256,
      "à°": 257,
      "eĠ": 258,
      ".Ġ": 259,
      "nĠ": 260,
      "th": 261,
      "nd": 262,
      ",Ġ": 263,
      "à¥": 264,
      "sĠ": 265,
      "er": 266,
      "Ġà¤": 267,
      "in": 268,
      "al": 269,
      "theĠ": 270,
      "ar": 271,
      "ed": 272,
      "or": 273,
      "ti": 274,
      "yĠ": 275,
      "tĠ": 276,
      "à±": 277,
      "on": 278,
      "ia": 279,
      "fĠ": 280,
      "20": 281,
      "edĠ": 282,
      "ofĠ": 283,
      "à¤¾": 284,
      "en": 285,
      "an": 286,
      "and": 287,
      "Ind": 288,
      "es": 289,
      "India": 290,
      "andĠ": 291,
      "alĠ": 292,
      "ri": 293,
      "à¤¾à¤": 294,
      "inĠ": 295,
      "onĠ": 296,
      "om": 297,
      "is": 298,
      "à¥į": 299,
      "à¥įà¤": 300,
      ".Ċ": 301,
      "ch": 302,
      "Ġà°": 303,
      "re": 304,
      "erĠ": 305,
      "ing": 306,
      "aĠ": 307,
      "at": 308,
      "oĠ": 309,
      "ou": 310,
      "à±į": 311,
      "as": 312,
      "à¥ĩ": 313,
      "ic": 314,
      "ati": 315,
      "201": 316,
      "it": 317,
      "à°¾": 318,
      "ingĠ": 319,
      "à±įà°": 320,
      "toĠ": 321,
      "esĠ": 322,
      "em": 323,
      "et": 324,
      "Th": 325,
      "à°¿": 326,
      "à°¾à°": 327,
      "ur": 328,
      "à¤¿": 329,
      ".ĊĠ": 330,
      "am": 331,
      "19": 332,
      "iv": 333,
      "asĠ": 334,
      "ec": 335,
      "ol": 336,
      "el": 337,
      ":Ġ": 338,
      "ul": 339,
      "à¥Ģ": 340,
      ").Ġ": 341,
      "à¤¿à¤": 342,
      ".[": 343,
      "ad": 344,
      "ig": 345,
      "]Ġ": 346,
      "il": 347,
      "p.Ġ": 348,
      "âĢ": 349,
      "TheĠ": 350,
      "à¤°": 351,
      "for": 352,
      "thĠ": 353,
      "ev": 354,
      "ent": 355,
      ".ĠI": 356,
      "200": 357,
      "à±ģ": 358,
      "st": 359,
      "isĠ": 360,
      "rom": 361,
      "ro": 362,
      "à¤¤": 363,
      "à°Ĥ": 364,
      "anĠ": 365,
      "dĠ": 366,
      "romĠ": 367,
      "ag": 368,
      "à¤Ĥ": 369,
      "IndiaĠ": 370,
      "fromĠ": 371,
      "ofĠtheĠ": 372,
      "ir": 373,
      "âĢĵ": 374,
      "ers": 375,
      "us": 376,
      "ist": 377,
      "op": 378,
      "ang": 379,
      "enĠ": 380,
      "Ġà¤ķ": 381,
      "ac": 382,
      "entĠ": 383,
      "à°¿à°": 384,
      "78": 385,
      "res": 386,
      ";Ġ": 387,
      "lyĠ": 388,
      "ation": 389,
      ".ĠR": 390,
      "con": 391,
      "chĠ": 392,
      "à¥ĩĠà¤": 393,
      "NĠ": 394,
      "im": 395,
      "202": 396,
      "Ar": 397,
      "à°Ĥà°": 398,
      "à¤¾Ġà¤": 399,
      "ov": 400,
      "à¤¨": 401,
      "978": 402,
      "ind": 403,
      "SB": 404,
      "SBNĠ": 405,
      "978-": 406,
      "ter": 407,
      "le": 408,
      "SBNĠ978-": 409,
      "ow": 410,
      "'sĠ": 411,
      "atĠ": 412,
      "Ġ(": 413,
      "os": 414,
      "IndianĠ": 415,
      "av": 416,
      "byĠ": 417,
      ".ĠISBNĠ978-": 418,
      "hi": 419,
      "10": 420,
      "id": 421,
      "tic": 422,
      "um": 423,
      "etri": 424,
      "ab": 425,
      "ityĠ": 426,
      "evedĠ": 427,
      "à¥ĢĠà¤": 428,
      "etrievedĠ": 429,
      "à¥ĭ": 430,
      "à¤¾à¤°": 431,
      ".ĠRetrievedĠ": 432,
      ",ĠandĠ": 433,
      "un": 434,
      "od": 435,
      "ap": 436,
      "ationĠ": 437,
      "tion": 438,
      "li": 439,
      "à¤ķ": 440,
      "à¥įà¤°": 441,
      "à¥įà¤¯": 442,
      "tr": 443,
      "fromĠtheĠ": 444,
      "orig": 445,
      "ex": 446,
      "origin": 447,
      "berĠ": 448,
      "ep": 449,
      "ak": 450,
      "inĠtheĠ": 451,
      "sh": 452,
      "à¤²": 453,
      "icĠ": 454,
      "ivedĠ": 455,
      "ĊĊ": 456,
      ",Ġp.Ġ": 457,
      "su": 458,
      "Arch": 459,
      "wi": 460,
      "à¤¸": 461,
      "pp.Ġ": 462,
      "originalĠ": 463,
      "à°¤": 464,
      "e,Ġ": 465,
      "00": 466,
      "tu": 467,
      "lĠ": 468,
      "ceĠ": 469,
      "à°°": 470,
      "à¤®": 471,
      "arĠ": 472,
      "1-": 473,
      "ArchivedĠ": 474,
      "oc": 475,
      "à¥ģ": 476,
      ".Ġ(": 477,
      "orĠ": 478,
      "ofĠIndia": 479,
      "\".Ġ": 480,
      "aryĠ": 481,
      "fromĠtheĠoriginalĠ": 482,
      "à°¨": 483,
      "ĠandĠ": 484,
      "leĠ": 485,
      "0-": 486,
      "ĠM": 487,
      "wasĠ": 488,
      "tionĠ": 489,
      "Un": 490,
      "Ch": 491,
      "à°²": 492,
      ".ĠArchivedĠ": 493,
      ",ĠtheĠ": 494,
      "Hind": 495,
      "à±ĩ": 496,
      "og": 497,
      "withĠ": 498,
      "ĠJ": 499,
      "forĠ": 500,
      "fromĠtheĠoriginalĠonĠ": 501,
      "Ġà¤¸": 502,
      "ong": 503,
      "2011": 504,
      "te": 505,
      "à±įà°°": 506,
      "ivers": 507,
      "gh": 508,
      "ff": 509,
      "cl": 510,
      "][": 511,
      "s,Ġ": 512,
      "ud": 513,
      "y,Ġ": 514,
      "ion": 515,
      ").Ġ\"": 516,
      ",Ġpp.Ġ": 517,
      "ĠA": 518,
      "ay": 519,
      "17": 520,
      "ear": 521,
      "18": 522,
      "ress": 523,
      "As": 524,
      "com": 525,
      "pl": 526,
      "uag": 527,
      "anguag": 528,
      "ereĠ": 529,
      ".ĠArchivedĠfromĠtheĠoriginalĠonĠ": 530,
      "uc": 531,
      "à¤¹": 532,
      "ew": 533,
      "26": 534,
      "orl": 535,
      "iversityĠ": 536,
      "à±ĭ": 537,
      "a,Ġ": 538,
      ".ĠISBNĠ978-0-": 539,
      "16": 540,
      "estĠ": 541,
      "our": 542,
      "199": 543,
      "ĠS": 544,
      "ialĠ": 545,
      "over": 546,
      "Ġà¤®": 547,
      "à¤Ĥà¤": 548,
      "emberĠ": 549,
      "pro": 550,
      "à°¦": 551,
      "Ġm": 552,
      "15": 553,
      "à°¾à°°": 554,
      "mentĠ": 555,
      "ast": 556,
      "Ġà¤ª": 557,
      "whi": 558,
      "edĠbyĠ": 559,
      "toĠtheĠ": 560,
      "ot": 561,
      "be": 562,
      "à°ķ": 563,
      "whichĠ": 564,
      "à¥Ĥ": 565,
      "à¥ĩà¤": 566,
      "par": 567,
      "à±Ģ": 568,
      "ĠofĠ": 569,
      "sĠofĠ": 570,
      "ĊĠ": 571,
      "Ġà°ª": 572,
      "ionĠ": 573,
      "23": 574,
      "ain": 575,
      "ut": 576,
      "UniversityĠ": 577,
      "ateĠ": 578,
      "Press": 579,
      "pri": 580,
      "sti": 581,
      "ish": 582,
      "Hindu": 583,
      "the": 584,
      "13": 585,
      "hasĠ": 586,
      "thatĠ": 587,
      "]ĊĊ": 588,
      "bl": 589,
      "14": 590,
      "end": 591,
      "à°¾à°²": 592,
      "à¤ª": 593,
      "languag": 594,
      "à¤¦": 595,
      "wh": 596,
      "à¤µ": 597,
      "form": 598,
      "cal": 599,
      "anc": 600,
      "istor": 601,
      "Con": 602,
      "Asia": 603,
      "allyĠ": 604,
      "AĠ": 605,
      "ft": 606,
      "à¥Ī": 607,
      ".[3": 608,
      "28": 609,
      "cent": 610,
      "25": 611,
      "UniversityĠPress": 612,
      ".ĠTheĠ": 613,
      "à¤¾à¤°à¤¤": 614,
      "ra": 615,
      "areĠ": 616,
      "iĠ": 617,
      "à¤¯": 618,
      "por": 619,
      "Ńà¤¾à¤°à¤¤": 620,
      "inĠIndia": 621,
      "geĠ": 622,
      "enc": 623,
      "itsĠ": 624,
      "stitu": 625,
      "à¤¾à¤¤": 626,
      "cont": 627,
      "sĠandĠ": 628,
      "ationalĠ": 629,
      "à±ĩà°": 630,
      "ernĠ": 631,
      ")Ġ": 632,
      "ment": 633,
      "ayĠ": 634,
      "rit": 635,
      ".ĠInĠ": 636,
      "overn": 637,
      "sp": 638,
      "à¤°à¥įà¤": 639,
      "En": 640,
      "ath": 641,
      "ass": 642,
      "ingĠtheĠ": 643,
      "24": 644,
      "ct": 645,
      "ism": 646,
      "eĠofĠ": 647,
      "ans": 648,
      "à°ª": 649,
      "er,Ġ": 650,
      "à±ģĠà°": 651,
      "har": 652,
      "2010": 653,
      "di": 654,
      "up": 655,
      "à°®": 656,
      "aj": 657,
      "wereĠ": 658,
      "lar": 659,
      "à°µ": 660,
      "à¥ĩà¤Ĥ": 661,
      "ect": 662,
      "India'sĠ": 663,
      "27": 664,
      "ulyĠ": 665,
      "Sou": 666,
      "bo": 667,
      "à±įà°¯": 668,
      ".;Ġ": 669,
      "à¤¾à¤¨": 670,
      "icalĠ": 671,
      "reg": 672,
      "Ġà¤¹": 673,
      "est": 674,
      "opul": 675,
      "elyĠ": 676,
      "we": 677,
      "per": 678,
      "es,Ġ": 679,
      ".).Ġ": 680,
      "oun": 681,
      "à¥¤": 682,
      "kĠ": 683,
      "etcal": 684,
      "und": 685,
      "veĠ": 686,
      "à¤¿à¤ķ": 687,
      "irĠ": 688,
      "ĠJulyĠ": 689,
      "DF": 690,
      "PDF": 691,
      "uaryĠ": 692,
      "yĠofĠ": 693,
      "atic": 694,
      "etĠ": 695,
      "ainĠ": 696,
      "à¤¾à¤²": 697,
      "astĠ": 698,
      ".ĊĠ\"": 699,
      "ewĠ": 700,
      "ough": 701,
      "]ĠTheĠ": 702,
      "ord": 703,
      "tur": 704,
      "Ġà¤ķà¥ĩĠà¤": 705,
      "40": 706,
      "lat": 707,
      "à°¿Ġà°": 708,
      "xfor": 709,
      "als": 710,
      "50": 711,
      "ob": 712,
      "hav": 713,
      "mar": 714,
      "à°¸": 715,
      "iesĠ": 716,
      "bu": 717,
      "ond": 718,
      "stĠ": 719,
      "..": 720,
      "Oxfor": 721,
      "cul": 722,
      "etcalfĠ": 723,
      "Histor": 724,
      "orldĠ": 725,
      "ustĠ": 726,
      "inc": 727,
      "&Ġ": 728,
      "Com": 729,
      "2021": 730,
      "2018": 731,
      "12": 732,
      "i,Ġ": 733,
      "oth": 734,
      "edĠinĠ": 735,
      "tim": 736,
      "In": 737,
      "fl": 738,
      "onom": 739,
      "rid": 740,
      "2019": 741,
      "à¤ļ": 742,
      "br": 743,
      "andĠtheĠ": 744,
      "ubl": 745,
      "SouthĠ": 746,
      "gr": 747,
      "e.Ġ": 748,
      "itĠ": 749,
      "%Ġ": 750,
      "tsĠ": 751,
      "à¥įà¤¤": 752,
      "all": 753,
      "à¤°Ġà¤": 754,
      "2007": 755,
      "ffic": 756,
      "à¤£": 757,
      "CE": 758,
      "enceĠ": 759,
      "ostĠ": 760,
      "ik": 761,
      ".ĠISBNĠ978-1-": 762,
      "OxfordĠ": 763,
      "de": 764,
      "à¤Ĺ": 765,
      "inist": 766,
      "ternĠ": 767,
      "ongĠ": 768,
      "ill": 769,
      "2014": 770,
      "olog": 771,
      ".ĠS": 772,
      "11": 773,
      "igh": 774,
      "fir": 775,
      "overnmentĠ": 776,
      "qu": 777,
      "bec": 778,
      "rel": 779,
      "196": 780,
      "à°Ĥà°¦": 781,
      ",[": 782,
      "29": 783,
      "sy": 784,
      "ameĠ": 785,
      "beĠ": 786,
      "ound": 787,
      "fterĠ": 788,
      "à±ĩà°¶": 789,
      "ber": 790,
      "à±ĭĠà°": 791,
      "row": 792,
      "dis": 793,
      "ci": 794,
      "nor": 795,
      "30": 796,
      "ug": 797,
      "ĠB": 798,
      "à±Ĩ": 799,
      "Ġà¤®à¥ĩà¤Ĥ": 800,
      "Al": 801,
      "sub": 802,
      "à¤¾à¤Ĥ": 803,
      "Ġà¤µ": 804,
      "orld": 805,
      "str": 806,
      "prilĠ": 807,
      "co": 808,
      "mor": 809,
      "year": 810,
      "edĠtoĠ": 811,
      ".ĊĠS": 812,
      "evel": 813,
      "2006": 814,
      "Oct": 815,
      "an,Ġ": 816,
      "haveĠ": 817,
      "eg": 818,
      "à°¡": 819,
      "WorldĠ": 820,
      "illi": 821,
      "ept": 822,
      "art": 823,
      "à°¾Ġà°": 824,
      "amb": 825,
      "InĠ": 826,
      "à¤§": 827,
      "eng": 828,
      "ousĠ": 829,
      "ok": 830,
      "à¤¿à¤¯": 831,
      ".Ġp.Ġ": 832,
      "22": 833,
      "Constitu": 834,
      "dur": 835,
      "se": 836,
      "udd": 837,
      "ĠtoĠ": 838,
      "à±Ĥ": 839,
      ".\"": 840,
      "bet": 841,
      "oberĠ": 842,
      "OctoberĠ": 843,
      "47": 844,
      "Ńà°¾à°°": 845,
      "econom": 846,
      "à°¿à°ķ": 847,
      "pan": 848,
      "ĊM": 849,
      "eĠandĠ": 850,
      "-9": 851,
      ".ĊĠM": 852,
      "odernĠ": 853,
      "Ńà°¾à°°à°¤": 854,
      "allĠ": 855,
      "à°¿à°¨": 856,
      "duc": 857,
      "eĠofĠtheĠ": 858,
      "pr": 859,
      "eptemberĠ": 860,
      "à¤ľ": 861,
      "ianĠ": 862,
      "larg": 863,
      "à°¯": 864,
      "out": 865,
      "-0": 866,
      "Ġà¤ħ": 867,
      "ach": 868,
      "à¤¿à¤¤": 869,
      "Chin": 870,
      "ĠAprilĠ": 871,
      "sĠinĠ": 872,
      "trad": 873,
      "theirĠ": 874,
      "An": 875,
      "ĠN": 876,
      "anceĠ": 877,
      ").ĠTheĠ": 878,
      "Pr": 879,
      "ener": 880,
      "contin": 881,
      "ĠinĠ": 882,
      "ĠOctoberĠ": 883,
      "oll": 884,
      "mostĠ": 885,
      "adĠ": 886,
      "2011.Ċ": 887,
      "à¤¾à¤ľ": 888,
      "stem": 889,
      "2023": 890,
      "firstĠ": 891,
      "system": 892,
      "hm": 893,
      "pos": 894,
      "erv": 895,
      "tri": 896,
      "ine": 897,
      "ĠD": 898,
      "eas": 899,
      "ip": 900,
      "edĠbyĠtheĠ": 901,
      "Ġà°¸": 902,
      "atedĠ": 903,
      "atesĠ": 904,
      "ugustĠ": 905,
      "dec": 906,
      "21": 907,
      "Ġà¤Ĩ": 908,
      "St": 909,
      "2012": 910,
      "ĠSeptemberĠ": 911,
      "weenĠ": 912,
      "Econ": 913,
      "ition": 914,
      "s.Ġ": 915,
      "y.Ġ": 916,
      "eĠinĠ": 917,
      "thisĠ": 918,
      "ork": 919,
      "ĠAugustĠ": 920,
      "Econom": 921,
      "\".ĠInĠ": 922,
      "cast": 923,
      "man": 924,
      "pe": 925,
      "soc": 926,
      "oli": 927,
      "cri": 928,
      "otĠ": 929,
      "popul": 930,
      "cons": 931,
      "-8": 932,
      "à°Ĺ": 933,
      "comm": 934,
      "north": 935,
      "Camb": 936,
      "à±Ī": 937,
      "rec": 938,
      "à°°à±įà°": 939,
      "s.[": 940,
      "tw": 941,
      "ersĠ": 942,
      "197": 943,
      "centur": 944,
      "reas": 945,
      "o-": 946,
      "à¥Ģà¤¯": 947,
      "world": 948,
      "36": 949,
      "usĠ": 950,
      "Cambrid": 951,
      "]Ċ": 952,
      "afterĠ": 953,
      "Ġà¤¤": 954,
      "edĠtheĠ": 955,
      "à±įà°¨": 956,
      "illionĠ": 957,
      "à¥ĭà¤Ĥ": 958,
      "omeĠ": 959,
      "à°ĤĠà°": 960,
      "à¤¡": 961,
      "à¤¶": 962,
      "archĠ": 963,
      "istĠ": 964,
      "fficialĠ": 965,
      "do": 966,
      "gl": 967,
      "now": 968,
      "ĠF": 969,
      "à°Ł": 970,
      "butĠ": 971,
      ")Ċ": 972,
      "Cent": 973,
      "Em": 974,
      "onĠtheĠ": 975,
      "NewĠ": 976,
      "2008": 977,
      "OxfordĠUniversityĠPress": 978,
      "evelop": 979,
      "artic": 980,
      "port": 981,
      "SouthĠAsia": 982,
      "nationalĠ": 983,
      "beenĠ": 984,
      "38": 985,
      "Ġà¤ľ": 986,
      "ĠMarchĠ": 987,
      "Ġà°ªà±įà°°": 988,
      "num": 989,
      ",ĠS": 990,
      "iss": 991,
      "à°¿.Ġ": 992,
      "betweenĠ": 993,
      "),Ġ": 994,
      "ard": 995,
      "ed.).Ġ": 996,
      "amil": 997,
      "(PDF": 998,
      "aw": 999,
      "rap": 1000,
      "à¤Ń": 1001,
      "eĠm": 1002,
      "à°¾à°¨": 1003,
      "Ġà¤ªà¥įà¤°": 1004,
      "moreĠ": 1005,
      "Eur": 1006,
      "ressĠ": 1007,
      "Ġà¤¨": 1008,
      "aĠ(": 1009,
      ":Ġ\"": 1010,
      "10.": 1011,
      "Ġà¤Ńà¤¾à¤°à¤¤": 1012,
      "à¤¾à¤ļ": 1013,
      "Bri": 1014,
      "2009": 1015,
      "i:": 1016,
      "à¥įà¤·": 1017,
      "ansk": 1018,
      "alsoĠ": 1019,
      "on,Ġ": 1020,
      "ens": 1021,
      "à¤¾à¤¸": 1022,
      "2017": 1023,
      "esĠofĠ": 1024,
      "\".ĠTheĠ": 1025,
      "à¤¬": 1026,
      "uneĠ": 1027,
      "à°¦à±ĩà°¶": 1028,
      "edia": 1029,
      "notĠ": 1030,
      "odĠ": 1031,
      "âĢĶ": 1032,
      "ĠMayĠ": 1033,
      "e-": 1034,
      "iz": 1035,
      "à¤¼": 1036,
      "à¥§": 1037,
      "ge": 1038,
      "-5": 1039,
      "Man": 1040,
      "Pro": 1041,
      "ah": 1042,
      "ian": 1043,
      "anuaryĠ": 1044,
      "doi:": 1045,
      "doi:10.": 1046,
      "though": 1047,
      "intoĠ": 1048,
      "]ĠInĠ": 1049,
      "à¥ģà¤": 1050,
      "CambridgeĠ": 1051,
      "à¥įà¤¯à¤¾Ġà¤": 1052,
      "000": 1053,
      "iti": 1054,
      "ationĠofĠ": 1055,
      "Ġs": 1056,
      "relig": 1057,
      "oh": 1058,
      "esternĠ": 1059,
      "eĠtheĠ": 1060,
      ".Ġdoi:10.": 1061,
      "46": 1062,
      "Sansk": 1063,
      "rul": 1064,
      ".ĠB": 1065,
      "incl": 1066,
      "ematic": 1067,
      "ĠBCE": 1068,
      "Ċà°": 1069,
      "Ġc": 1070,
      "Ġà¤¦": 1071,
      "39": 1072,
      "80": 1073,
      "Am": 1074,
      "Cong": 1075,
      "lo": 1076,
      "Ġà°µ": 1077,
      "à¥ĩà¤¶": 1078,
      "her": 1079,
      "if": 1080,
      "à¥įà¤µ": 1081,
      "2015": 1082,
      "2016": 1083,
      "à¤¾à¤®": 1084,
      "thĠcentur": 1085,
      "ture": 1086,
      ".ĠISBNĠ978-0-19": 1087,
      "athematic": 1088,
      "olitic": 1089,
      "includ": 1090,
      "eds": 1091,
      "2022": 1092,
      "hum": 1093,
      ".ĠP": 1094,
      "ĠMetcalfĠ": 1095,
      "35": 1096,
      "ebr": 1097,
      "ann": 1098,
      "eseĠ": 1099,
      "ralĠ": 1100,
      "becameĠ": 1101,
      "Budd": 1102,
      "tedĠ": 1103,
      "ĊĠĊ": 1104,
      "largestĠ": 1105,
      "raph": 1106,
      "Buddh": 1107,
      "à°¾à°¤": 1108,
      "isĠtheĠ": 1109,
      "coun": 1110,
      "enti": 1111,
      "Ash": 1112,
      "¹à¥Ī": 1113,
      "&ĠMetcalfĠ": 1114,
      "ef": 1115,
      "tish": 1116,
      "old": 1117,
      "region": 1118,
      "British": 1119,
      "Ġb": 1120,
      "on-": 1121,
      "urr": 1122,
      "peri": 1123,
      "ebruaryĠ": 1124,
      "Rep": 1125,
      "hadĠ": 1126,
      "esh": 1127,
      "âĢ¢": 1128,
      "ofĠIndia'sĠ": 1129,
      "NationalĠ": 1130,
      "ca": 1131,
      "eat": 1132,
      "led": 1133,
      "sl": 1134,
      ",ĠwhichĠ": 1135,
      "à±įà°¤": 1136,
      "overĠ": 1137,
      "ograph": 1138,
      "class": 1139,
      "ĠJulyĠ2011.Ċ": 1140,
      "eds.).Ġ": 1141,
      "37": 1142,
      "tĠofĠ": 1143,
      "2020": 1144,
      "ement": 1145,
      "Europ": 1146,
      "-4": 1147,
      "à°§": 1148,
      ",ĠP": 1149,
      "Äģ": 1150,
      ",ĠR": 1151,
      "Ġà¤°": 1152,
      "à¥įà¤Ł": 1153,
      "lim": 1154,
      "ĠJuneĠ": 1155,
      "etcalfĠ&ĠMetcalfĠ": 1156,
      "ru": 1157,
      "ext": 1158,
      "ĠFebruaryĠ": 1159,
      "e:Ġ": 1160,
      "gre": 1161,
      "grow": 1162,
      "exp": 1163,
      "tionĠofĠ": 1164,
      "ĠJanuaryĠ": 1165,
      "-3": 1166,
      "pec": 1167,
      "ys": 1168,
      ",ĠaĠ": 1169,
      "Ġà¤¬": 1170,
      "ell": 1171,
      "Ġà¤ķà¥ĢĠà¤": 1172,
      "2025": 1173,
      "suchĠ": 1174,
      "twoĠ": 1175,
      "(PDF)Ġ": 1176,
      "à¥ĥ": 1177,
      "à±ģà°²": 1178,
      ",Ġà°": 1179,
      "2013": 1180,
      "ign": 1181,
      "à°¨à±įà°¨": 1182,
      "Ġ(PDF": 1183,
      "à¤¾à¤·": 1184,
      "à±įà°²": 1185,
      "85": 1186,
      "es.Ġ": 1187,
      ",000": 1188,
      "dom": 1189,
      "gener": 1190,
      "sou": 1191,
      ",ĠM": 1192,
      "antĠ": 1193,
      "Ġà°ķ": 1194,
      "rem": 1195,
      ".[4": 1196,
      "à¤Ĥà¤Ĺ": 1197,
      "ainĠartic": 1198,
      "ĊMainĠartic": 1199,
      ".ĊĠMetcalfĠ&ĠMetcalfĠ": 1200,
      "world'sĠ": 1201,
      "stat": 1202,
      "Popul": 1203,
      "à°Ĥà°Ĺ": 1204,
      "à°¾à°²à±ģ": 1205,
      ".Ġpp.Ġ": 1206,
      "itedĠ": 1207,
      "ack": 1208,
      "à±įà°µ": 1209,
      "à±įà°Ł": 1210,
      "term": 1211,
      "ticĠ": 1212,
      ".Ġ(200": 1213,
      "GovernmentĠ": 1214,
      "lin": 1215,
      "ood": 1216,
      "ure": 1217,
      "thanĠ": 1218,
      "Ġà¤ķà¥ĭ": 1219,
      "à¤¹à¥ĩ": 1220,
      "otherĠ": 1221,
      "Tal": 1222,
      "eth": 1223,
      "ank": 1224,
      "att": 1225,
      "ativeĠ": 1226,
      "ableĠ": 1227,
      ",ĠandĠtheĠ": 1228,
      "Comm": 1229,
      "war": 1230,
      "inceĠ": 1231,
      "esĠandĠ": 1232,
      "ection": 1233,
      "IndiaĠhasĠ": 1234,
      "yearsĠ": 1235,
      "Har": 1236,
      "governmentĠ": 1237,
      "perĠ": 1238,
      "eredĠ": 1239,
      "ĠtheĠ": 1240,
      "à¥§à¥": 1241,
      "tro": 1242,
      "uri": 1243,
      "alay": 1244,
      "iveĠ": 1245,
      "owerĠ": 1246,
      "Engl": 1247,
      "English": 1248,
      "Tim": 1249,
      ".ĠM": 1250,
      "erg": 1251,
      "à°¾à°¯": 1252,
      "increas": 1253,
      "CambridgeĠUniversityĠPress": 1254,
      "Ġ(PDF).Ġ": 1255,
      "49": 1256,
      "ldĠ": 1257,
      "asĠaĠ": 1258,
      "ationsĠ": 1259,
      "HinduĠ": 1260,
      "tre": 1261,
      "1947": 1262,
      "à°Ĥà°ļ": 1263,
      "sup": 1264,
      "prim": 1265,
      "Hinduism": 1266,
      "Ġà¤¹à¥Ī": 1267,
      "):Ġ": 1268,
      "them": 1269,
      "à¥ģà¤°": 1270,
      "\"Ġ": 1271,
      "histor": 1272,
      "ph": 1273,
      "serv": 1274,
      "lif": 1275,
      "subcontin": 1276,
      "Ac": 1277,
      "à°¿à°Ĥà°¦": 1278,
      "akist": 1279,
      "CongressĠ": 1280,
      "77": 1281,
      "à¤ħ": 1282,
      "essĠ": 1283,
      "ublicĠ": 1284,
      "tradition": 1285,
      "Del": 1286,
      "Gang": 1287,
      "ea": 1288,
      ",ĠJ": 1289,
      "riv": 1290,
      "Ġà°°": 1291,
      "outĠ": 1292,
      "emb": 1293,
      ".ĊĠB": 1294,
      "à°Ĥà°¡": 1295,
      "AnĠ": 1296,
      "modernĠ": 1297,
      "var": 1298,
      "ess": 1299,
      ".ĊĠD": 1300,
      ".ĊĠR": 1301,
      "à¥Ģà¤²": 1302,
      ".ĠItĠ": 1303,
      "outled": 1304,
      "casteĠ": 1305,
      "Languag": 1306,
      "à¤Ńà¤¾à¤°à¤¤": 1307,
      "1950": 1308,
      "Ġà¤¸à¥ĩĠà¤": 1309,
      "Ńà°¾à°°à°¤à°¦à±ĩà°¶": 1310,
      "-2": 1311,
      "enn": 1312,
      "adesh": 1313,
      "withĠtheĠ": 1314,
      "ritor": 1315,
      "def": 1316,
      "pres": 1317,
      "India,Ġ": 1318,
      "\"Ġ(PDF).Ġ": 1319,
      "81-": 1320,
      "For": 1321,
      "Gu": 1322,
      "Ġà¤ķà¤¾Ġà¤": 1323,
      "à±Ģà°¯": 1324,
      "ĠDec": 1325,
      "officialĠ": 1326,
      ",ĠD": 1327,
      "tiveĠ": 1328,
      "Indo-": 1329,
      "à¤¾à¤µ": 1330,
      "ity": 1331,
      "adeĠ": 1332,
      "cultur": 1333,
      "Emp": 1334,
      "Ved": 1335,
      "cy": 1336,
      "develop": 1337,
      "ugh": 1338,
      "edĠaĠ": 1339,
      "ric": 1340,
      "ris": 1341,
      "ever": 1342,
      "IndiaĠandĠ": 1343,
      "ation,Ġ": 1344,
      "à°Ĥà°²": 1345,
      "ĠmillionĠ": 1346,
      "beg": 1347,
      "whoĠ": 1348,
      "harm": 1349,
      "ĠOctoberĠ2021": 1350,
      "socialĠ": 1351,
      "suchĠasĠ": 1352,
      "52": 1353,
      "55": 1354,
      "landĠ": 1355,
      "atĠtheĠ": 1356,
      "60": 1357,
      "eringĠ": 1358,
      "ensu": 1359,
      "forĠtheĠ": 1360,
      "teinĠ": 1361,
      "1994": 1362,
      "vi": 1363,
      "Ķà¤°Ġà¤": 1364,
      "à¥įà¤¥": 1365,
      "abl": 1366,
      "HistoryĠofĠ": 1367,
      "Him": 1368,
      "sec": 1369,
      "sĠtoĠ": 1370,
      "righ": 1371,
      "ult": 1372,
      "à¤ķà¥įà¤·": 1373,
      "prov": 1374,
      "non-": 1375,
      "oy": 1376,
      "pre": 1377,
      "chang": 1378,
      "]ĠandĠ": 1379,
      "2004": 1380,
      "isĠaĠ": 1381,
      "usicĠ": 1382,
      "2026": 1383,
      "ovemberĠ": 1384,
      "le:Ġ": 1385,
      "trans": 1386,
      "occ": 1387,
      "ucle": 1388,
      "bothĠ": 1389,
      "inistr": 1390,
      "duringĠ": 1391,
      "northernĠ": 1392,
      "south": 1393,
      "ĊMainĠarticle:Ġ": 1394,
      "ĠDecemberĠ": 1395,
      "48": 1396,
      "198": 1397,
      "à¤¿à¤¸": 1398,
      "-7": 1399,
      "1,": 1400,
      "Kas": 1401,
      "put": 1402,
      "à°¾à°Ĥ": 1403,
      "à¤¾à¤ľà¥įà¤¯": 1404,
      "ission": 1405,
      "Kashm": 1406,
      "Bi": 1407,
      "Pakist": 1408,
      "eyĠ": 1409,
      "Ġà¤Ń": 1410,
      "olic": 1411,
      "à¤¿à¤¨": 1412,
      "à¤¤à¥įà¤°": 1413,
      "33": 1414,
      "Ne": 1415,
      "Tr": 1416,
      "lia": 1417,
      "westernĠ": 1418,
      "2024": 1419,
      "AsherĠ": 1420,
      "-6": 1421,
      "po": 1422,
      ",ĠK": 1423,
      "ageĠ": 1424,
      ").Ġ\"TheĠ": 1425,
      "theyĠ": 1426,
      "Mugh": 1427,
      "banĠ": 1428,
      "dr": 1429,
      "danc": 1430,
      "found": 1431,
      "high": 1432,
      "mil": 1433,
      "maj": 1434,
      "ote": 1435,
      "s,ĠandĠ": 1436,
      "tiv": 1437,
      "es.[": 1438,
      "Indian": 1439,
      "omenĠ": 1440,
      "emp": 1441,
      "emoc": 1442,
      "amongĠ": 1443,
      "ers,Ġ": 1444,
      ".ĠISBNĠ978-81-": 1445,
      "play": 1446,
      "Compan": 1447,
      "duringĠtheĠ": 1448,
      "oliticalĠ": 1449,
      "Europe": 1450,
      ".ĊĠMetcalfĠ&ĠMetcalfĠ2006": 1451,
      "Delhi": 1452,
      "teinĠ2010": 1453,
      "emocr": 1454,
      "ªà¥įà¤°": 1455,
      "Ġà¤¯": 1456,
      "à¤¿à¤²": 1457,
      "sĠtheĠ": 1458,
      "1âĢĵ": 1459,
      "Publ": 1460,
      "gĠ": 1461,
      "wid": 1462,
      "with": 1463,
      "nam": 1464,
      "yĠandĠ": 1465,
      "Ass": 1466,
      "BritishĠ": 1467,
      "ensusĠ": 1468,
      "air": 1469,
      "à¤Ł": 1470,
      "iter": 1471,
      "botĠ": 1472,
      "&ĠTal": 1473,
      "AsherĠ&ĠTal": 1474,
      "AsherĠ&ĠTalbotĠ": 1475,
      "jab": 1476,
      "ouldĠ": 1477,
      "ureĠ": 1478,
      "à°°à°¿à°": 1479,
      "HindiĠ": 1480,
      "1.": 1481,
      "Af": 1482,
      "Isl": 1483,
      "idĠ": 1484,
      "keĠ": 1485,
      "mid": 1486,
      "ne": 1487,
      ".ĠA": 1488,
      "therĠ": 1489,
      "ins": 1490,
      "infl": 1491,
      "arn": 1492,
      "ant": 1493,
      ".ĊĠC": 1494,
      "economicĠ": 1495,
      "ĠNovemberĠ": 1496,
      "manyĠ": 1497,
      "eĠminist": 1498,
      "primeĠminist": 1499,
      "uclearĠ": 1500,
      "Beng": 1501,
      "edi": 1502,
      "à¥Ĥà¤¨": 1503,
      "PopulationĠ": 1504,
      "à¥¦": 1505,
      "à¤¾à¤¦": 1506,
      "iseĠ": 1507,
      "à¥ĩà¤²": 1508,
      "-1": 1509,
      "6]Ġ": 1510,
      ":ĠTheĠ": 1511,
      "ternationalĠ": 1512,
      "à°ķà±įà°": 1513,
      ",000Ġ": 1514,
      "70": 1515,
      "des": 1516,
      "hy": 1517,
      "sinceĠ": 1518,
      ".ĊP": 1519,
      "aĠandĠ": 1520,
      "ild": 1521,
      "2001": 1522,
      "ations": 1523,
      "territor": 1524,
      "1]Ġ": 1525,
      "gan": 1526,
      "sch": 1527,
      "ustr": 1528,
      "á¹": 1529,
      "à°¹": 1530,
      "oneĠ": 1531,
      "à¤¾à¤¹": 1532,
      "urv": 1533,
      "contr": 1534,
      "Tamil": 1535,
      "à¥¨": 1536,
      "rish": 1537,
      "ision": 1538,
      "chn": 1539,
      "toĠbeĠ": 1540,
      "ellĠ": 1541,
      "adu": 1542,
      "2003": 1543,
      "usedĠ": 1544,
      "constitu": 1545,
      "unjab": 1546,
      "CentralĠ": 1547,
      ".Ġdoi:10.10": 1548,
      "54": 1549,
      "Ge": 1550,
      "aĊ": 1551,
      "ledĠ": 1552,
      "rang": 1553,
      "rav": 1554,
      "sĠwereĠ": 1555,
      "ous": 1556,
      "ThisĠ": 1557,
      "ivil": 1558,
      "olĠ": 1559,
      ".[40": 1560,
      ".ĠRoutled": 1561,
      "lead": 1562,
      "00ĠBCE": 1563,
      "2011.ĠRetrievedĠ": 1564,
      "]ĊĊTheĠ": 1565,
      "underĠ": 1566,
      "laterĠ": 1567,
      "mark": 1568,
      ".ĊĠSteinĠ2010": 1569,
      ".\"ĊĠ": 1570,
      "peop": 1571,
      "Himalay": 1572,
      "es:Ġ": 1573,
      "à¤°à¥įà¤µ": 1574,
      "Ġà°®": 1575,
      "Bh": 1576,
      "Wik": 1577,
      "vir": 1578,
      "UnitedĠ": 1579,
      "regionĠ": 1580,
      "Par": 1581,
      "yan": 1582,
      "à°£": 1583,
      "ing,Ġ": 1584,
      ";ĠS": 1585,
      "ofĠIndiaĊ": 1586,
      "part": 1587,
      "Pl": 1588,
      "ai": 1589,
      "uis": 1590,
      "alsĠ": 1591,
      "ingĠtoĠ": 1592,
      "âĢĵĠ": 1593,
      "ourc": 1594,
      "HistoryĠ": 1595,
      "land": 1596,
      "nalĠ": 1597,
      "prom": 1598,
      "orityĠ": 1599,
      "onlyĠ": 1600,
      "ett": 1601,
      "à°¿à°Ĥà°ļ": 1602,
      "earlyĠ": 1603,
      "troduc": 1604,
      "5]Ġ": 1605,
      "Pers": 1606,
      "ail": 1607,
      "col": 1608,
      "cap": 1609,
      "dleĠ": 1610,
      "fac": 1611,
      "hisĠ": 1612,
      "long": 1613,
      "min": 1614,
      "mill": 1615,
      "work": 1616,
      "ĠCE": 1617,
      "à¥įà¤¦": 1618,
      "ataĠ": 1619,
      "actic": 1620,
      ".ĠRetrievedĠ18": 1621,
      "clop": 1622,
      "2018,Ġp.Ġ": 1623,
      "EconomicĠ": 1624,
      "NewĠY": 1625,
      "classicalĠ": 1626,
      "beganĠ": 1627,
      "influ": 1628,
      "ich": 1629,
      ".ĊS": 1630,
      "à±įĠà°": 1631,
      "empl": 1632,
      "officialĠlanguag": 1633,
      "56": 1634,
      "iousĠ": 1635,
      ".Ġ\"": 1636,
      "Ġà¤ĩ": 1637,
      "eĠ(": 1638,
      ".ĊĊ": 1639,
      "oup": 1640,
      "à±įà°¥": 1641,
      "amm": 1642,
      "43": 1643,
      "CensusĠ": 1644,
      "du": 1645,
      ",ĠB": 1646,
      "à¥įà¤ķ": 1647,
      "à¥ĩà¤ĸ": 1648,
      "2]Ġ": 1649,
      "Rel": 1650,
      "bel": 1651,
      "e.[": 1652,
      "shi": 1653,
      "ty": 1654,
      "à°ļ": 1655,
      "à±Ĭ": 1656,
      "edĠonĠ": 1657,
      "amp": 1658,
      "byĠtheĠ": 1659,
      "compos": 1660,
      "3]Ġ": 1661,
      "Ex": 1662,
      "Punjab": 1663,
      "Qu": 1664,
      "ib": 1665,
      "ub": 1666,
      "inĠIndiaĠ": 1667,
      ".Ċ\"": 1668,
      "AsianĠ": 1669,
      "spe": 1670,
      "spec": 1671,
      "Sanskri": 1672,
      "à¥ĥà¤¤": 1673,
      "05": 1674,
      "Col": 1675,
      "Gand": 1676,
      "cre": 1677,
      "div": 1678,
      "famil": 1679,
      "govern": 1680,
      "mathematic": 1681,
      "rough": 1682,
      "à°¬": 1683,
      ".ĠOxfordĠUniversityĠPress": 1684,
      "thereĠ": 1685,
      "sĠareĠ": 1686,
      "read": 1687,
      "aĠf": 1688,
      "atingĠ": 1689,
      "itaryĠ": 1690,
      "ignĠ": 1691,
      "sty": 1692,
      "tionalĠ": 1693,
      "ofĠIndia.Ġ": 1694,
      "fromĠtheĠoriginalĠ(PDF)Ġ": 1695,
      "ourĠ": 1696,
      "Ency": 1697,
      "culture": 1698,
      "fromĠtheĠoriginalĠ(PDF)ĠonĠ": 1699,
      "Encyclop": 1700,
      "India.Ġ": 1701,
      "hor": 1702,
      "à¤¾à¤¯": 1703,
      "à¤¿à¤¶": 1704,
      "2005": 1705,
      "âĢ¢Ġ": 1706,
      "Sci": 1707,
      "ali": 1708,
      ".ĊM": 1709,
      "Ġà¤ķà¤°": 1710,
      "IndianĠsubcontin": 1711,
      "diff": 1712,
      "countr": 1713,
      "viron": 1714,
      "Soc": 1715,
      "Ur": 1716,
      "¦à±ĩà°¶": 1717,
      "Ġà¤²": 1718,
      "ons": 1719,
      "][3": 1720,
      "EastĠ": 1721,
      "cord": 1722,
      "eal": 1723,
      ",ĠA": 1724,
      "arl": 1725,
      "iaĠ": 1726,
      "à¤ķà¤¾à¤°": 1727,
      "produc": 1728,
      "44": 1729,
      "Or": 1730,
      "iet": 1731,
      "me": 1732,
      "¤à±įà°°": 1733,
      ".ĠJ": 1734,
      ".ĠK": 1735,
      "Ġà¤Ĺ": 1736,
      "arm": 1737,
      "ed,Ġ": 1738,
      "à¤¾à¤Ĺ": 1739,
      "ementĠ": 1740,
      "uralĠ": 1741,
      ".ĊĠAsherĠ&ĠTalbotĠ": 1742,
      "acyĠ": 1743,
      "leg": 1744,
      "epend": 1745,
      "otalĠ": 1746,
      "languagesĠ": 1747,
      "ondĠ": 1748,
      "à°¿.Ġà°": 1749,
      "%ĠofĠ": 1750,
      "9]Ġ": 1751,
      "ModernĠ": 1752,
      "Sch": 1753,
      "US": 1754,
      "ck": 1755,
      "danceĠ": 1756,
      "hru": 1757,
      "iallyĠ": 1758,
      "y.[": 1759,
      "ofĠIndiaĠ": 1760,
      "rep": 1761,
      "election": 1762,
      ".[2": 1763,
      "agri": 1764,
      "à¥ĢĠà¤¸": 1765,
      "partĠ": 1766,
      "contri": 1767,
      "largeĠ": 1768,
      "ollow": 1769,
      "easternĠ": 1770,
      "à¥įà¤Łà¥įà¤°": 1771,
      "ysonĠ": 1772,
      "Nehru": 1773,
      "liament": 1774,
      "MughalĠ": 1775,
      "Gandhi": 1776,
      "3,": 1777,
      "59": 1778,
      "arch": 1779,
      "à¥įà¤²": 1780,
      "à°¾à°ľ": 1781,
      "Sanskrit": 1782,
      "Fish": 1783,
      "pur": 1784,
      "à¤¿à¤®": 1785,
      "à¤¾Ġà¤¹à¥Ī": 1786,
      "63": 1787,
      "79": 1788,
      "à¤¥": 1789,
      "asĠtheĠ": 1790,
      "à¥Ģà¤¨": 1791,
      "100": 1792,
      "hasĠbeenĠ": 1793,
      "Environ": 1794,
      "group": 1795,
      "à¤³": 1796,
      "uslim": 1797,
      "crip": 1798,
      "FromĠ": 1799,
      "okĠ": 1800,
      "taĠ": 1801,
      "ver": 1802,
      "à¤·": 1803,
      "int": 1804,
      "periodĠ": 1805,
      "à°Ĥà°²à±ĭĠà°": 1806,
      ";[": 1807,
      "Gre": 1808,
      "ıà¤ķ": 1809,
      "sĠ(": 1810,
      "edĠwithĠ": 1811,
      "ros": 1812,
      "521-": 1813,
      "chnolog": 1814,
      "SanskritĠ": 1815,
      "8]Ġ": 1816,
      "ByĠ": 1817,
      "Bang": 1818,
      "Bra": 1819,
      "Bhar": 1820,
      "Fr": 1821,
      "Reg": 1822,
      "ftĠ": 1823,
      "newĠ": 1824,
      "ria": 1825,
      "yĊ": 1826,
      "eĠtoĠ": 1827,
      "through": 1828,
      "inter": 1829,
      "intoĠtheĠ": 1830,
      "alĠandĠ": 1831,
      "à¤¾à¤ª": 1832,
      "Ġà°¨": 1833,
      "reeĠ": 1834,
      "à°¾à°·": 1835,
      "urbanĠ": 1836,
      "anĠ(": 1837,
      "oper": 1838,
      "tion,Ġ": 1839,
      ",Ġp.Ġ1": 1840,
      ".ĠArchivedĠfromĠtheĠoriginalĠ(PDF)ĠonĠ": 1841,
      "whenĠ": 1842,
      "numberĠ": 1843,
      "à¤¾à¤·à¥įà¤Łà¥įà¤°": 1844,
      "termĠ": 1845,
      "yearsĠag": 1846,
      "EuropeanĠ": 1847,
      "influenc": 1848,
      "employ": 1849,
      "Quote": 1850,
      "Coun": 1851,
      "ĠofĠtheĠ": 1852,
      "Ġà¤¶": 1853,
      "à¥įà¤®": 1854,
      "elĠ": 1855,
      "à¤¿à¤µ": 1856,
      "foreĠ": 1857,
      "languageĠ": 1858,
      "inistryĠofĠ": 1859,
      "57": 1860,
      "Gl": 1861,
      "vers": 1862,
      "à¤¾à¤£": 1863,
      "à¥ĭà¤¤": 1864,
      "à°²à±ģ": 1865,
      "à°ªà±įà°°": 1866,
      "...": 1867,
      "94": 1868,
      "noĠ": 1869,
      "Ġ2011": 1870,
      "isedĠ": 1871,
      "erĠ(": 1872,
      "addi": 1873,
      "disput": 1874,
      "Pradesh": 1875,
      "74": 1876,
      "OfficialĠ": 1877,
      "bas": 1878,
      "ire": 1879,
      "know": 1880,
      "Ġà°ľ": 1881,
      "ash": 1882,
      "à°¦à±įà°": 1883,
      "aint": 1884,
      "obalĠ": 1885,
      "&ĠS": 1886,
      "31": 1887,
      "Mar": 1888,
      "Raj": 1889,
      "raĠ": 1890,
      "ere": 1891,
      "al,Ġ": 1892,
      "estim": 1893,
      "isationĠ": 1894,
      "ate": 1895,
      ".ĠIn": 1896,
      "mentĠofĠ": 1897,
      "Hindust": 1898,
      "humanĠ": 1899,
      "lifeĠ": 1900,
      "5âĢĵ": 1901,
      "And": 1902,
      "Co": 1903,
      "Cul": 1904,
      "bir": 1905,
      "fer": 1906,
      "ful": 1907,
      "he": 1908,
      "ham": 1909,
      "t,Ġ": 1910,
      "wor": 1911,
      "à°Ń": 1912,
      ".ĠV": 1913,
      "are": 1914,
      "anaĠ": 1915,
      "IndusĠ": 1916,
      "à±ģà°¤": 1917,
      "à°¿à°²": 1918,
      "à¤¾Ġà¤¸": 1919,
      "e,ĠtheĠ": 1920,
      "ffair": 1921,
      "-largestĠ": 1922,
      "4]Ġ": 1923,
      "68": 1924,
      "Cl": 1925,
      "Se": 1926,
      "ix": 1927,
      "ientĠ": 1928,
      "ium": 1929,
      "kar": 1930,
      "low": 1931,
      "liter": 1932,
      "oft": 1933,
      "sm": 1934,
      "sĊ": 1935,
      "sar": 1936,
      "sid": 1937,
      "tex": 1938,
      "wĠ": 1939,
      "sĠofĠtheĠ": 1940,
      "ardĠ": 1941,
      "tiesĠ": 1942,
      "espec": 1943,
      "India:Ġ": 1944,
      "aste": 1945,
      "icallyĠ": 1946,
      "ingĠaĠ": 1947,
      "emerg": 1948,
      ".ĊĠK": 1949,
      "ularĠ": 1950,
      ").ĠAĠ": 1951,
      "à¤¿à¤°": 1952,
      "ilityĠ": 1953,
      "umb": 1954,
      "ationĠandĠ": 1955,
      "Chand": 1956,
      ".ĠISBNĠ978-0-521-": 1957,
      "parliament": 1958,
      "aticĠ": 1959,
      ".\"Ċ": 1960,
      "1970": 1961,
      "thoughĠ": 1962,
      "increasedĠ": 1963,
      "GangesĠ": 1964,
      "Empir": 1965,
      "ultan": 1966,
      "peopleĠ": 1967,
      "NewĠYork": 1968,
      "Brahm": 1969,
      "especiallyĠ": 1970,
      "tt": 1971,
      ".ĠO": 1972,
      "à°¿à°¸": 1973,
      "à¤Ĥà¤¦": 1974,
      "à¤§à¥įà¤¯": 1975,
      "à¤¡à¤¼": 1976,
      "Ġà¤ī": 1977,
      "à¤¾à¤Ī": 1978,
      "Ġà¤Ĩà¤¹à¥ĩ": 1979,
      "0.": 1980,
      "à°ľ": 1981,
      "à¥ĩĠà¤¸": 1982,
      "à°Ĥà°Ł": 1983,
      "à°¾à°²à±ģĠà°": 1984,
      "s:Ġ": 1985,
      "Ķà¤°": 1986,
      ",ĠN": 1987,
      "how": 1988,
      "jar": 1989,
      "ly": 1990,
      "sign": 1991,
      ".ĠN": 1992,
      "etr": 1993,
      "âĢĮ": 1994,
      "2000": 1995,
      ";ĠtheĠ": 1996,
      "à¤®à¤¨": 1997,
      "à°²à±ĭĠà°": 1998,
      "1997": 1999,
      "book": 2000,
      "Scienc": 2001,
      "2nd": 2002,
      "2Ġ(": 2003,
      "7]Ġ": 2004,
      "Ram": 2005,
      "ies": 2006,
      "madeĠ": 2007,
      "totalĠ": 2008,
      "Ĩà¤¹à¥ĩ": 2009,
      ",ĠC": 2010,
      "til": 2011,
      "à¤¾Ġà¤ķ": 2012,
      "à¥įà¤§": 2013,
      "à¥ĩĠ": 2014,
      "stateĠ": 2015,
      "oseĠ": 2016,
      "ikh": 2017,
      "RepublicĠ": 2018,
      "Bl": 2019,
      "Develop": 2020,
      "Ma": 2021,
      "]ĊĠ": 2022,
      "af": 2023,
      "but": 2024,
      "eignĠ": 2025,
      "follow": 2026,
      "iri": 2027,
      "lastĠ": 2028,
      "rateĠ": 2029,
      "sol": 2030,
      "utĠ": 2031,
      "womenĠ": 2032,
      "wouldĠ": 2033,
      ".ĠQuote": 2034,
      "thir": 2035,
      "eral": 2036,
      "edul": 2037,
      "educ": 2038,
      "oralĠ": 2039,
      "ansĠ": 2040,
      "Ġà°Ĩ": 2041,
      "ingĠofĠ": 2042,
      ".ĊĠP": 2043,
      "rop": 2044,
      "leftĠ": 2045,
      "ancientĠ": 2046,
      "timesĠ": 2047,
      "à¤¾à¤Ĥà¤ļ": 2048,
      "cook": 2049,
      "à±Īà°¨": 2050,
      "ohnĠ": 2051,
      "ific": 2052,
      "includingĠ": 2053,
      "ennium": 2054,
      "viol": 2055,
      "occup": 2056,
      "majorityĠ": 2057,
      ",000ĠyearsĠag": 2058,
      "speak": 2059,
      "government": 2060,
      "US$": 2061,
      "Gener": 2062,
      "Ludd": 2063,
      "au": 2064,
      "1960": 2065,
      "emblyĠ": 2066,
      "58": 2067,
      "y-": 2068,
      "à¤¾,Ġ": 2069,
      "à°¾à°¸": 2070,
      "à¤¤à¥įà¤¤": 2071,
      "umm": 2072,
      "à°¨à°¿Ġà°": 2073,
      "à¥Ĥà¤²": 2074,
      "Relig": 2075,
      ")ĠandĠ": 2076,
      "6âĢĵ": 2077,
      "Â°": 2078,
      "ĠisĠ": 2079,
      "Commission": 2080,
      "km": 2081,
      "not": 2082,
      "someĠ": 2083,
      "à¤Ī": 2084,
      "evenĠ": 2085,
      "IndiaĠ(": 2086,
      "tionĠofĠtheĠ": 2087,
      "à¤¦à¥ĩà¤¶": 2088,
      "...Ġ": 2089,
      "religiousĠ": 2090,
      "à±ģà°²à±ģ": 2091,
      "à°ķà±įà°·": 2092,
      "knownĠ": 2093,
      "69": 2094,
      "Dur": 2095,
      "Wh": 2096,
      "sim": 2097,
      "sourc": 2098,
      "utr": 2099,
      "ĉĊ": 2100,
      "Ġà¤Ķà¤°Ġà¤": 2101,
      "inv": 2102,
      "alongĠ": 2103,
      "arb": 2104,
      "edĠandĠ": 2105,
      "omin": 2106,
      "as,Ġ": 2107,
      "à¤¿à¤Ĺ": 2108,
      "à¤Ĥà¤¤": 2109,
      "exist": 2110,
      "obb": 2111,
      "number": 2112,
      "Gujar": 2113,
      "differ": 2114,
      "'Ġ": 2115,
      "Affair": 2116,
      "Lond": 2117,
      "Nor": 2118,
      "Nat": 2119,
      "Res": 2120,
      "a;Ġ": 2121,
      "bod": 2122,
      "dra": 2123,
      "mov": 2124,
      "polic": 2125,
      "tou": 2126,
      "à¤¿à¤¥": 2127,
      "evalĠ": 2128,
      "independ": 2129,
      "app": 2130,
      "aksh": 2131,
      "ock": 2132,
      "2011Ġ": 2133,
      "plac": 2134,
      "à¤Ĥà¤¡": 2135,
      "continu": 2136,
      "right": 2137,
      "Publish": 2138,
      "edievalĠ": 2139,
      "53": 2140,
      "Civil": 2141,
      "ItĠ": 2142,
      "WesternĠ": 2143,
      "bro": 2144,
      "der": 2145,
      "democr": 2146,
      "fin": 2147,
      "oor": 2148,
      "powerĠ": 2149,
      "surv": 2150,
      "vill": 2151,
      "y:Ġ": 2152,
      "eĠinĠtheĠ": 2153,
      "theseĠ": 2154,
      ",ĠV": 2155,
      "à¥Į": 2156,
      "ert": 2157,
      "edĠinĠtheĠ": 2158,
      "rig": 2159,
      "à¥įà¤ļ": 2160,
      "aĠm": 2161,
      "atelyĠ": 2162,
      "astr": 2163,
      "esĠ(": 2164,
      "emal": 2165,
      "igr": 2166,
      "ever,Ġ": 2167,
      "entalĠ": 2168,
      "entlyĠ": 2169,
      "ste": 2170,
      "Arab": 2171,
      ".ĠRetrievedĠ23": 2172,
      ".Ġ(199": 2173,
      "earli": 2174,
      "compan": 2175,
      "centuri": 2176,
      "tureĠ": 2177,
      "iesĠandĠ": 2178,
      "other": 2179,
      "%ĠofĠIndia'sĠ": 2180,
      "becomeĠ": 2181,
      "practic": 2182,
      "ineeringĠ": 2183,
      "ĠAugustĠ2019": 2184,
      "ĠMarchĠ2021": 2185,
      "BuddhistĠ": 2186,
      "ca.Ġ": 2187,
      "(PDF)ĠfromĠtheĠoriginalĠonĠ": 2188,
      "generalĠ": 2189,
      "culturalĠ": 2190,
      ".ĊĠMetcalfĠ&ĠMetcalfĠ2006,Ġpp.Ġ": 2191,
      "millennium": 2192,
      "Organ": 2193,
      "FisherĠ": 2194,
      "219": 2195,
      "76": 2196,
      "yn": 2197,
      "à±ģà°ķ": 2198,
      "à°¿à°¤": 2199,
      "à±Ĥà°¡": 2200,
      "TimesĠ": 2201,
      "LanguageĠ": 2202,
      "AssemblyĠ": 2203,
      "à¤¿à¤¥à¤¿": 2204,
      "DP": 2205,
      "Ear": 2206,
      "GDP": 2207,
      "à¤Ĥà¤¸": 2208,
      "ogn": 2209,
      "Conc": 2210,
      "II": 2211,
      "gar": 2212,
      "sit": 2213,
      "Ġà°¤": 2214,
      "ingh": 2215,
      "à±įà°ļ": 2216,
      "à¤°à¥Ģ": 2217,
      "à±ģà°µ": 2218,
      "à¥ĢĠà¤®": 2219,
      "inĠIndia:Ġ": 2220,
      "à°®à±ģ": 2221,
      "1962": 2222,
      "à°¾à°¤à±Ģà°¯": 2223,
      "à¤ħà¤Ń": 2224,
      "à¤¿à¤¥à¤¿:Ġ": 2225,
      "9âĢĵ": 2226,
      "fi": 2227,
      "ĸà¥įà¤¯": 2228,
      "Hindi": 2229,
      "Ġmi": 2230,
      "populationĠ": 2231,
      "à¤®à¤¨Ġà¤¤": 2232,
      "86": 2233,
      "Dem": 2234,
      "Mon": 2235,
      "Muslim": 2236,
      "Pres": 2237,
      "Sh": 2238,
      "World": 2239,
      "bord": 2240,
      "cod": 2241,
      "fic": 2242,
      "iĠ(": 2243,
      "loc": 2244,
      "ust": 2245,
      "wart": 2246,
      "zber": 2247,
      "Ġp": 2248,
      "īà°¨à±įà°¨": 2249,
      "à¥ª": 2250,
      "eric": 2251,
      "anyĠ": 2252,
      "inguis": 2253,
      "à±įâĢĮ": 2254,
      "ectionĠ": 2255,
      ".[23": 2256,
      "adm": 2257,
      "ilyĠ": 2258,
      "Ġ(1": 2259,
      ".ĠRetrievedĠ17": 2260,
      ",Ġpp.Ġ1": 2261,
      "qual": 2262,
      "themĠ": 2263,
      "ablish": 2264,
      "Kashmir": 2265,
      "Bengal": 2266,
      "à¤¿à¤Ĺà¤®à¤¨Ġà¤¤": 2267,
      "à¤ħà¤Ńà¤¿à¤Ĺà¤®à¤¨Ġà¤¤": 2268,
      "wartzber": 2269,
      "à¤ħà¤Ńà¤¿à¤Ĺà¤®à¤¨Ġà¤¤à¤¿à¤¥à¤¿:Ġ": 2270,
      "Des": 2271,
      "El": 2272,
      "Jour": 2273,
      "Plat": 2274,
      "Stu": 2275,
      "ce": 2276,
      "e,ĠandĠ": 2277,
      "kh": 2278,
      "sect": 2279,
      "tor": 2280,
      "à¤ł": 2281,
      "ern": 2282,
      "ineĠ": 2283,
      "aterĠ": 2284,
      "à¥ĩà¤ķ": 2285,
      "itt": 2286,
      "eldĠ": 2287,
      "anĠandĠ": 2288,
      "usin": 2289,
      "à¤®à¥įà¤": 2290,
      "tionĠandĠ": 2291,
      "plain": 2292,
      "parti": 2293,
      "thatĠtheĠ": 2294,
      "cientĠ": 2295,
      "ChineseĠ": 2296,
      "Pakistan": 2297,
      "rishn": 2298,
      "0]Ġ": 2299,
      "1]ĠTheĠ": 2300,
      "317": 2301,
      "64": 2302,
      "BJ": 2303,
      "Dec": 2304,
      "Danc": 2305,
      "PoliticalĠ": 2306,
      "a,ĠandĠ": 2307,
      "ek": 2308,
      "eastĠ": 2309,
      "ge.Ġ": 2310,
      "level": 2311,
      "nuclearĠ": 2312,
      "pen": 2313,
      "politicalĠ": 2314,
      "seĠ": 2315,
      "s,ĠtheĠ": 2316,
      "well": 2317,
      "ĊTheĠ": 2318,
      "à°¶": 2319,
      ".ĠC": 2320,
      ".ĠCambridgeĠUniversityĠPress": 2321,
      "sĠfromĠ": 2322,
      "sĠforĠ": 2323,
      "eralĠ": 2324,
      "Ġà¤ļ": 2325,
      "inn": 2326,
      "ederalĠ": 2327,
      "ort": 2328,
      "oreĠ": 2329,
      "es,ĠtheĠ": 2330,
      ".ĊR": 2331,
      "rect": 2332,
      "erĠandĠ": 2333,
      "ity,Ġ": 2334,
      "esĠinĠ": 2335,
      ".ĊĠHar": 2336,
      "igen": 2337,
      "forest": 2338,
      "à¤Ĥà¥¤": 2339,
      "à°¿à°¯": 2340,
      "imĠ": 2341,
      "appro": 2342,
      "likeĠ": 2343,
      ".Ġ(2007": 2344,
      "wasĠtheĠ": 2345,
      "UnionĠ": 2346,
      "clas": 2347,
      "prot": 2348,
      "Cont": 2349,
      "direct": 2350,
      "undam": 2351,
      "coast": 2352,
      "ĠNadu": 2353,
      "2017).Ġ": 2354,
      "]ĠInĠtheĠ": 2355,
      "religion": 2356,
      "thĠcenturyĠ": 2357,
      "caus": 2358,
      "growthĠ": 2359,
      "domin": 2360,
      "casteĠsystem": 2361,
      "VedicĠ": 2362,
      "1994,Ġpp.Ġ": 2363,
      "transm": 2364,
      "Islam": 2365,
      "TamilĠNadu": 2366,
      "PersianĠ": 2367,
      ".ĠRetrievedĠ18ĠOctoberĠ2021": 2368,
      "beganĠtoĠ": 2369,
      "partĠofĠtheĠ": 2370,
      "contribut": 2371,
      "Andam": 2372,
      "oftenĠ": 2373,
      "parliamentaryĠ": 2374,
      ".ĠQuote:Ġ\"": 2375,
      ",000ĠyearsĠago": 2376,
      "generalĠelection": 2377,
      "FisherĠ2018,Ġp.Ġ": 2378,
      "BJP": 2379,
      "Be": 2380,
      "à¥ģà¤²": 2381,
      "à¤Ĥà¤¬": 2382,
      "à¤ªà¥įà¤°": 2383,
      "ConstitutionĠ": 2384,
      "Regist": 2385,
      "Ġà¥§à¥": 2386,
      "à¥«": 2387,
      "à°¾à°®": 2388,
      "à¤¿à¤Ĥ": 2389,
      "à±ģĠà°ª": 2390,
      "ConstituentĠ": 2391,
      "à¤Ĥà¤Ĺà¥įà¤°": 2392,
      "Ġà¤¹à¥Īà¥¤": 2393,
      "Encyclopedia": 2394,
      "2.": 2395,
      "51": 2396,
      "7,": 2397,
      "jec": 2398,
      "à¥ĩà¤¤": 2399,
      "Thom": 2400,
      "à¤¾Ġà¤ľ": 2401,
      "à¥ĢĠà¤µ": 2402,
      "ipedia": 2403,
      "à¤¾Ġà¤¹à¥Īà¥¤": 2404,
      "2âĢĵ": 2405,
      "UC": 2406,
      "[...": 2407,
      "à¥Ģà¤ļ": 2408,
      "à¤¿à¤£": 2409,
      "ticalĠ": 2410,
      "à°²à±ģĠà°": 2411,
      "Ġà¤ªà¥ģà¤°": 2412,
      "itiesĠ": 2413,
      "Wikipedia": 2414,
      "07": 2415,
      "90": 2416,
      "Mad": 2417,
      "Polic": 2418,
      "fig": 2419,
      "reĠ": 2420,
      "alle": 2421,
      "tĠ&ĠS": 2422,
      "chwartzber": 2423,
      "reat": 2424,
      "adop": 2425,
      "]Ġ(": 2426,
      "statesĠ": 2427,
      "ownĠ": 2428,
      "unionĠ": 2429,
      "establish": 2430,
      "Ġà¤ķà¥ĩĠà¤¸": 2431,
      "ikshi": 2432,
      "Accord": 2433,
      "widelyĠ": 2434,
      "á¹ĩ": 2435,
      "Hindustan": 2436,
      "usinessĠ": 2437,
      "tĠ&ĠSchwartzber": 2438,
      "ikshitĠ&ĠSchwartzber": 2439,
      "ikshitĠ&ĠSchwartzbergĠ": 2440,
      "300": 2441,
      "4âĢĵ": 2442,
      "93": 2443,
      "airĠ": 2444,
      "eticĠ": 2445,
      "mak": 2446,
      "of": 2447,
      "ost": 2448,
      "tenĠ": 2449,
      "wan": 2450,
      "y,ĠtheĠ": 2451,
      "Ġed.).Ġ": 2452,
      "ļà±Ĩ": 2453,
      ",ĠG": 2454,
      "eri": 2455,
      "Ġà¤Ķà¤°": 2456,
      "alism": 2457,
      "arg": 2458,
      "ar,Ġ": 2459,
      "edic": 2460,
      "à¤¾à¥¤": 2461,
      "à¥ĩĠà¤ķ": 2462,
      "act": 2463,
      "umar": 2464,
      "akh": 2465,
      "Chang": 2466,
      "theastĠ": 2467,
      "inĠIndia,Ġ": 2468,
      "à¤°à¥įà¤®": 2469,
      "à¤°à¥įà¤·": 2470,
      "Introduc": 2471,
      "itĠisĠ": 2472,
      "AncientĠ": 2473,
      "à°§à°¿à°ķ": 2474,
      "eau": 2475,
      "RepublicĠofĠIndia": 2476,
      "LuddenĠ": 2477,
      "sectorĠ": 2478,
      "(eds.).Ġ": 2479,
      "Ad": 2480,
      "AĠm": 2481,
      "Im": 2482,
      "Jain": 2483,
      "Mid": 2484,
      "Pal": 2485,
      "Wil": 2486,
      "WestĠ": 2487,
      "bre": 2488,
      "cond": 2489,
      "cess": 2490,
      "dist": 2491,
      "dish": 2492,
      "herĠ": 2493,
      "ie": 2494,
      "king": 2495,
      "ladesh": 2496,
      "mon": 2497,
      "mayĠ": 2498,
      "o:Ġ": 2499,
      "paint": 2500,
      "ruralĠ": 2501,
      "som": 2502,
      "sel": 2503,
      "sever": 2504,
      "teĠ": 2505,
      "uchĠ": 2506,
      "warĠ": 2507,
      "worldĠ": 2508,
      "xim": 2509,
      "ĠinĠtheĠ": 2510,
      ",ĠisĠ": 2511,
      "sĠthatĠ": 2512,
      "ertĠ": 2513,
      "alli": 2514,
      "ortĠ": 2515,
      "ordĠ": 2516,
      "edĠonĠtheĠ": 2517,
      "en,Ġ": 2518,
      "anim": 2519,
      "es.[3": 2520,
      "India\".Ġ": 2521,
      "rim": 2522,
      "ritu": 2523,
      "reform": 2524,
      "aĠS": 2525,
      "oĠ(": 2526,
      "ingĠinĠ": 2527,
      "ingĠtoĠtheĠ": 2528,
      "toĠaĠ": 2529,
      ".ĊĠT": 2530,
      "ecu": 2531,
      "elect": 2532,
      "à¤¿à¤§": 2533,
      ".[24": 2534,
      "âĢī": 2535,
      "thĠandĠ": 2536,
      "rock": 2537,
      "IndiaĠCompan": 2538,
      "usic": 2539,
      "enĠ1997": 2540,
      "indigen": 2541,
      "leav": 2542,
      "own": 2543,
      "owĠ": 2544,
      "ident": 2545,
      "abh": 2546,
      "abilityĠ": 2547,
      "à¤¸à¥ĩĠà¤": 2548,
      "00âĢĵ": 2549,
      "leĠ1994,Ġpp.Ġ": 2550,
      ".ĠArchivedĠ(PDF)ĠfromĠtheĠoriginalĠonĠ": 2551,
      "1998": 2552,
      "ĠmusicĠ": 2553,
      "UniversityĠofĠ": 2554,
      "whereĠ": 2555,
      "formĠofĠ": 2556,
      "centralĠ": 2557,
      "portsĠ": 2558,
      "inĠIndia'sĠ": 2559,
      "athak": 2560,
      "upperĠ": 2561,
      "à¤¾à¤²à¥ĩà¤ĸ": 2562,
      "ublic": 2563,
      "haveĠbeenĠ": 2564,
      "economyĠ": 2565,
      "Princ": 2566,
      "consist": 2567,
      "nowĠ": 2568,
      ".ĠISBNĠ978-0-19-9": 2569,
      "oldestĠ": 2570,
      "ĠbillionĠ": 2571,
      "remain": 2572,
      "uresĠ": 2573,
      "traditionalĠ": 2574,
      "present": 2575,
      "militaryĠ": 2576,
      "Island": 2577,
      "middleĠ": 2578,
      ".ĊĠCrav": 2579,
      "primeĠministerĠ": 2580,
      "CentralĠAsianĠ": 2581,
      "longerĠ": 2582,
      "styleĠ": 2583,
      "EastĠIndiaĠCompan": 2584,
      "throughĠ": 2585,
      "noĠlongerĠ": 2586,
      "SeeĠ": 2587,
      "Organiz": 2588,
      ".ĊĠHarleĠ1994,Ġpp.Ġ": 2589,
      ".ĊĠCravenĠ1997": 2590,
      ")Ġ(": 2591,
      "bot": 2592,
      "ĊâĢ¢Ġ": 2593,
      "à±ĥ": 2594,
      "à¤¾à¤¬": 2595,
      "Ġà°ħ": 2596,
      "1965": 2597,
      "à¥Ģà¤¯Ġà¤¸": 2598,
      "Registr": 2599,
      "1Ġ": 2600,
      "97": 2601,
      "Dat": 2602,
      "On": 2603,
      "nation": 2604,
      "à¤Ĥà¤¤à¥įà¤°": 2605,
      "languages": 2606,
      "Ġà¤ªà¥įà¤°à¤¦à¥ĩà¤¶": 2607,
      "ConstituentĠAssemblyĠ": 2608,
      "à¤¾à¤²à¥ĩà¤ĸà¤¿à¤¤": 2609,
      "45": 2610,
      "Li": 2611,
      "aiĠ": 2612,
      "eĉ": 2613,
      "mb": 2614,
      "à¥ī": 2615,
      ".ĊD": 2616,
      "2002": 2617,
      "à°¿à°Ĺ": 2618,
      "à¤¸à¥įà¤¤": 2619,
      "à°¨à±ģĠà°": 2620,
      "à¥Ĥà¤°à¥įà¤µ": 2621,
      "à¤¾à¤¤à¥Ģà¤²": 2622,
      "Inc": 2623,
      "à±įà°Łà±įà°°": 2624,
      "à°¬à°¡": 2625,
      "à°¾à°·à±įà°Łà±įà°°": 2626,
      "4][": 2627,
      "87": 2628,
      "à¤«": 2629,
      "à¤Ĩ": 2630,
      ",ĠI": 2631,
      ".ĊK": 2632,
      "à¤¨à¤¾Ġà¤": 2633,
      "Ġà¤ªà¤°": 2634,
      "timeĠ": 2635,
      "AllĠ": 2636,
      "commun": 2637,
      "à¤¾à¤ļà¥įà¤¯à¤¾Ġà¤": 2638,
      "à¤ķà¥įà¤·à¤¿à¤£": 2639,
      "Public": 2640,
      ")\".Ġ": 2641,
      "Curr": 2642,
      "Dev": 2643,
      "Gup": 2644,
      "Heal": 2645,
      "aim": 2646,
      "canĠ": 2647,
      "oodĠ": 2648,
      "Ġà°¦à±ĩà°¶": 2649,
      "iteĠ": 2650,
      "amĠ": 2651,
      "à°¿à°ª": 2652,
      "à°Ĥà°¤à±įà°°": 2653,
      "à°¾à°°à±ģ": 2654,
      "à¤¦à¥įà¤§": 2655,
      "ritann": 2656,
      "2006,Ġp.Ġ": 2657,
      "pring": 2658,
      "à°Ĺà°¾Ġà°": 2659,
      "\".ĠTheĠTimesĠ": 2660,
      "regionalĠ": 2661,
      "defin": 2662,
      "à¤¿à¤¨à¥įà¤¦": 2663,
      "IndianĠsubcontinentĠ": 2664,
      ".ĠInternationalĠ": 2665,
      "differentĠ": 2666,
      "Ġ(1):Ġ": 2667,
      "ritannic": 2668,
      "Ag": 2669,
      "Re": 2670,
      "ookĠ": 2671,
      "poll": 2672,
      ".ĠF": 2673,
      "around": 2674,
      "rev": 2675,
      "erĠofĠ": 2676,
      "aĠasĠ": 2677,
      "ick": 2678,
      "iction": 2679,
      "stand": 2680,
      "acros": 2681,
      "107": 2682,
      ",Ġp.Ġ16": 2683,
      ").Ġ\"M": 2684,
      "earchĠ": 2685,
      "struc": 2686,
      "an,ĠK": 2687,
      "WorldĠB": 2688,
      "Empire": 2689,
      "secondĠ": 2690,
      "provid": 2691,
      "nalĠofĠ": 2692,
      "Societ": 2693,
      "London": 2694,
      "inguistic": 2695,
      ".âĢī": 2696,
      "2,": 2697,
      "2][": 2698,
      "AfterĠ": 2699,
      "Carn": 2700,
      "Democr": 2701,
      "Ev": 2702,
      "Eigh": 2703,
      "Hand": 2704,
      "Keral": 2705,
      "Mah": 2706,
      "Nic": 2707,
      "Politic": 2708,
      "Ti": 2709,
      "Temp": 2710,
      "Vi": 2711,
      "WomenĠ": 2712,
      "aĉ": 2713,
      "aff": 2714,
      "ban": 2715,
      "can": 2716,
      "cour": 2717,
      "cover": 2718,
      "ez": 2719,
      "far": 2720,
      "four": 2721,
      "feat": 2722,
      "femal": 2723,
      "hous": 2724,
      "k,Ġ": 2725,
      "met": 2726,
      "mod": 2727,
      "mund": 2728,
      "migr": 2729,
      "nat": 2730,
      "ple": 2731,
      "pass": 2732,
      "s.[3": 2733,
      "setĠ": 2734,
      "sett": 2735,
      "top": 2736,
      "tod": 2737,
      "ta,Ġ": 2738,
      "uĠandĠ": 2739,
      "uallyĠ": 2740,
      "westĠ": 2741,
      "wellĠ": 2742,
      "yingĠ": 2743,
      "yanĠ": 2744,
      "ĠwasĠ": 2745,
      ".ĠH": 2746,
      "threeĠ": 2747,
      "there": 2748,
      "à¥Ń": 2749,
      "sĠaĠ": 2750,
      "sĠinĠtheĠ": 2751,
      "erc": 2752,
      "institu": 2753,
      "introduc": 2754,
      "ali,Ġ": 2755,
      "ari": 2756,
      "yĠandĠtheĠ": 2757,
      "Indiaĉ": 2758,
      "à¤¾à¤ķ": 2759,
      "inĠ19": 2760,
      "char": 2761,
      "reli": 2762,
      "aĠandĠtheĠ": 2763,
      "à¥ĩ.Ġ": 2764,
      "italĠ": 2765,
      "esĠareĠ": 2766,
      "empor": 2767,
      "TheseĠ": 2768,
      "à°¾à°¦": 2769,
      "urt": 2770,
      "urtherĠ": 2771,
      ".ĊĠJ": 2772,
      "ivingĠ": 2773,
      "olv": 2774,
      "olĠofĠ": 2775,
      ".[28": 2776,
      "ilg": 2777,
      "ileĠ": 2778,
      "iltĠ": 2779,
      "st-": 2780,
      "stud": 2781,
      "à¤¤à¥įà¤¯": 2782,
      "anĠIndianĠ": 2783,
      "angeredĠ": 2784,
      "acter": 2785,
      "ackĠ": 2786,
      "à°¿à°µ": 2787,
      "legeĠ": 2788,
      "idenceĠ": 2789,
      "aboutĠ": 2790,
      ".ĠRetrievedĠ3": 2791,
      ".ĠRetrievedĠ20": 2792,
      ".ĠRetrievedĠ22": 2793,
      "ungĠ": 2794,
      "aputr": 2795,
      "epic": 2796,
      "suc": 2797,
      ".Ġ(eds.).Ġ": 2798,
      "ofĠIndia\".Ġ": 2799,
      "à±ĩà°¦": 2800,
      "ayl": 2801,
      ".ĠISBNĠ978-0-8": 2802,
      "1992": 2803,
      "partic": 2804,
      "]ĊĊM": 2805,
      ".[30": 2806,
      "upĠ": 2807,
      "weal": 2808,
      "2018,Ġpp.Ġ": 2809,
      "ally,Ġ": 2810,
      ".ĊĠSharm": 2811,
      "InĠtheĠ": 2812,
      "engineeringĠ": 2813,
      "Constitution": 2814,
      "princ": 2815,
      "Stat": 2816,
      "consum": 2817,
      "à°Łà±įà°Ł": 2818,
      "moreĠthanĠ": 2819,
      "e-dr": 2820,
      "Americ": 2821,
      "hered": 2822,
      "2015.ĠRetrievedĠ": 2823,
      "thĠcentury,Ġ": 2824,
      ".ĠISBNĠ978-0-19-8": 2825,
      ".ĠPM": 2826,
      "becameĠtheĠ": 2827,
      "Buddhism": 2828,
      "ReportĠ": 2829,
      "ographicalĠ": 2830,
      "à°Ĥà°Ĺà°¾Ġà°": 2831,
      "Common": 2832,
      ".ĠItĠisĠ": 2833,
      "Indo-Ar": 2834,
      "majorĠ": 2835,
      "scho": 2836,
      "controlĠ": 2837,
      ".ĠRoutledge.Ġ": 2838,
      ".ĠOxfordĠUniversityĠPress.Ġp.Ġ": 2839,
      "veryĠ": 2840,
      "Bangladesh": 2841,
      "Bharat": 2842,
      "numberĠofĠ": 2843,
      "Countri": 2844,
      "NewĠYork:Ġ": 2845,
      "Brahmaputr": 2846,
      "à°¿à°¸à±įà°¤": 2847,
      "2Ġ(1,": 2848,
      "Black": 2849,
      "earliestĠ": 2850,
      "othermund": 2851,
      "penins": 2852,
      "approxim": 2853,
      "directlyĠ": 2854,
      "undamentalĠ": 2855,
      "ikshitĠ&ĠSchwartzbergĠ2023": 2856,
      "LuddenĠ2014": 2857,
      "indigenousĠ": 2858,
      "SeeĠals": 2859,
      ".ĊĠCravenĠ1997,Ġpp.Ġ": 2860,
      "e-dram": 2861,
      "lesĠ": 2862,
      "yy": 2863,
      "ħà¤¨": 2864,
      ".Ġà¤ħà¤Ńà¤¿à¤Ĺà¤®à¤¨Ġà¤¤à¤¿à¤¥à¤¿:Ġ": 2865,
      "à¤°à¤ķà¤¾à¤°": 2866,
      "à¥ĭà¤²": 2867,
      "arĠGener": 2868,
      "à¥ģà¤¸": 2869,
      "Inter": 2870,
      "fficeĠofĠtheĠ": 2871,
      "à¤¿à¤¯à¤¾Ġà¤": 2872,
      "CensusĠCommission": 2873,
      "RegistrarĠGener": 2874,
      "fficeĠofĠtheĠRegistrarĠGener": 2875,
      "CĠ": 2876,
      "Out": 2877,
      "à¤¢": 2878,
      "à¤ĸ": 2879,
      "à°ĸ": 2880,
      ".Ġà°": 2881,
      "à¥¬": 2882,
      "à±įĠà°ª": 2883,
      "à±įà°®": 2884,
      "à°¿Ġ": 2885,
      "à°¾à°ķ": 2886,
      "à¥Ģà¤¤": 2887,
      "à¥ĢĠà¤ķ": 2888,
      "à¤°Ġ": 2889,
      "avidĠ": 2890,
      "à¥ĢĠà¤¹": 2891,
      "à¥ĭà¤Ĺ": 2892,
      "à°¤à±įà°¤": 2893,
      "ofĠIndia:Ġ": 2894,
      "à¤§à¤¿à¤ķ": 2895,
      "à°Ĥà°²à±ĭ": 2896,
      "à¥Ĥà¤²Ġà¤¸à¥ĩĠà¤": 2897,
      "65": 2898,
      "Part": 2899,
      "thor": 2900,
      "à¥©": 2901,
      "tis": 2902,
      "à¤¾à¤ģ": 2903,
      "à¥įà¤¹": 2904,
      "âĢ²": 2905,
      "à¥ĩĠà¤µ": 2906,
      "à¤¾Ġà¤¦": 2907,
      "mentalĠ": 2908,
      "116": 2909,
      "Fin": 2910,
      "Hum": 2911,
      "TO": 2912,
      "qĠmi": 2913,
      "ĠR": 2914,
      "à°·": 2915,
      ",ĠinĠ": 2916,
      "Ġà¤§": 2917,
      "à¤¾à¤¥": 2918,
      "atis": 2919,
      "à±įà°ķ": 2920,
      "à°¾à°¬": 2921,
      "à±ģà°Ĥà°¡": 2922,
      "à¥ĢĠà¤¹à¥Ī": 2923,
      "Ńà°¾à°°à°¤à±Ģà°¯": 2924,
      "consid": 2925,
      "reaseĠ": 2926,
      "à¥ĭà¤ĤĠà¤®à¥ĩà¤Ĥ": 2927,
      "Ċà°ľ": 2928,
      "Ġà°µà±įà°¯": 2929,
      "2003,Ġp.Ġ": 2930,
      "Urdu": 2931,
      "GlobalĠ": 2932,
      "ReligionĠ": 2933,
      "km2Ġ(1,": 2934,
      "%,Ġ": 2935,
      ".8": 2936,
      "1200": 2937,
      "Ter": 2938,
      "Valle": 2939,
      "hind": 2940,
      "ii": 2941,
      "siz": 2942,
      "scrip": 2943,
      "zon": 2944,
      "ĉĉ": 2945,
      "à¤ĩ": 2946,
      "organ": 2947,
      "tĠtheĠ": 2948,
      "es\".Ġ": 2949,
      "inĠ1947": 2950,
      "à¥įà¤¨": 2951,
      ".ĊTheĠ": 2952,
      "IndiaĠisĠtheĠ": 2953,
      "à¥ĩĠà¤®": 2954,
      "à¥ĭà¤ķ": 2955,
      "epart": 2956,
      "1-0": 2957,
      "claim": 2958,
      "ionĠtoĠ": 2959,
      "Inform": 2960,
      "istĠofĠ": 2961,
      "2008,Ġp.Ġ": 2962,
      "à¥ĥà¤·": 2963,
      "territoriesĠ": 2964,
      "à¥įà¤ķà¥ĥà¤¤": 2965,
      "IndianĠsubcontinent": 2966,
      "MuslimĠ": 2967,
      "0âĢĵ": 2968,
      "1ĉ": 2969,
      "Br": 2970,
      "Dis": 2971,
      "Nar": 2972,
      "Pe": 2973,
      "Te": 2974,
      "UK": 2975,
      "bur": 2976,
      "den": 2977,
      "eu": 2978,
      "ey": 2979,
      "mo": 2980,
      "redĠ": 2981,
      "ram": 2982,
      "ww": 2983,
      "writ": 2984,
      "y,ĠandĠ": 2985,
      ",ĠbutĠ": 2986,
      "in,Ġ": 2987,
      "initi": 2988,
      "org": 2989,
      "yĠofĠtheĠ": 2990,
      "203": 2991,
      "enedĠ": 2992,
      "Ġà°ļ": 2993,
      "ativ": 2994,
      ".ĊĠG": 2995,
      ":ĠAĠ": 2996,
      "ildĠ": 2997,
      "ilarĠ": 2998,
      "ages": 2999,
      "odiversityĠ": 3000,
      "à±ĩà°°": 3001,
      "y,ĠS": 3002,
      "Conserv": 3003,
      "ight": 3004,
      "1967": 3005,
      "All": 3006,
      "eget": 3007,
      "China": 3008,
      "recogn": 3009,
      "à¥ģà¤ĸà¥įà¤¯": 3010,
      "à°§à°¾à°¨": 3011,
      "growingĠ": 3012,
      "à°¾à°Ĥà°¤": 3013,
      "à°ļà±įà°ļ": 3014,
      "à°¾à°ľà±įà°¯": 3015,
      "à°¦à±įà°¦": 3016,
      "similarĠ": 3017,
      "touch": 3018,
      "JournalĠofĠ": 3019,
      "%Ċ": 3020,
      ".in": 3021,
      "500": 3022,
      ";Ċ": 3023,
      "Bas": 3024,
      "Educ": 3025,
      "Gh": 3026,
      "IS": 3027,
      "JohnĠ": 3028,
      "Law": 3029,
      "Mathematic": 3030,
      "NuclearĠ": 3031,
      "Ra": 3032,
      "Sat": 3033,
      "Tot": 3034,
      "Utt": 3035,
      "]ĊĠĊ": 3036,
      "ahar": 3037,
      "civil": 3038,
      "caste": 3039,
      "dev": 3040,
      "e'sĠ": 3041,
      "east": 3042,
      "equ": 3043,
      "furtherĠ": 3044,
      "gen": 3045,
      "gov": 3046,
      "heĠ": 3047,
      "heldĠ": 3048,
      "ies,Ġ": 3049,
      "iqu": 3050,
      "justĠ": 3051,
      "ketĠ": 3052,
      "longĠ": 3053,
      "line": 3054,
      "menĠ": 3055,
      "mainĠ": 3056,
      "musicĠ": 3057,
      "medievalĠ": 3058,
      "pat": 3059,
      "pers": 3060,
      "pleĠ": 3061,
      "rin": 3062,
      "ron": 3063,
      "ren": 3064,
      "sc": 3065,
      "sameĠ": 3066,
      "six": 3067,
      "tyĠ": 3068,
      "tom": 3069,
      "tell": 3070,
      "vis": 3071,
      "vic": 3072,
      "veget": 3073,
      "wonĠ": 3074,
      "west": 3075,
      "ĊL": 3076,
      "ĊAĠ": 3077,
      ",ĠT": 3078,
      "er-": 3079,
      "er'sĠ": 3080,
      "er,ĠandĠ": 3081,
      "alis": 3082,
      "als,Ġ": 3083,
      "theĠIndianĠ": 3084,
      "artĠ": 3085,
      "araj": 3086,
      "areas": 3087,
      "orn": 3088,
      "oram": 3089,
      "ti-": 3090,
      "tilĠ": 3091,
      "onialĠ": 3092,
      "edĠforĠ": 3093,
      "India,ĠtheĠ": 3094,
      "riĠ": 3095,
      "à¤¾à¤³": 3096,
      "che": 3097,
      "reach": 3098,
      "ashi": 3099,
      "emper": 3100,
      "ember": 3101,
      "The": 3102,
      "TharĠ": 3103,
      "ThereĠ": 3104,
      ".ĊĠW": 3105,
      ").ĠIndiaĠ": 3106,
      ".[10": 3107,
      ".[16": 3108,
      "adv": 3109,
      "ilia": 3110,
      "forceĠ": 3111,
      "ush": 3112,
      ";ĠandĠ": 3113,
      "ation.Ġ": 3114,
      "import": 3115,
      "Arav": 3116,
      "à¤¾Ġà¤ª": 3117,
      "industr": 3118,
      "IndianĠmathematic": 3119,
      "ide": 3120,
      ".ĠRetrievedĠ26": 3121,
      "aperĠ": 3122,
      "à¥ģà¤¨": 3123,
      ".Ġ(2010": 3124,
      "ofĠIndia.ĠArchivedĠfromĠtheĠoriginalĠonĠ": 3125,
      "Chol": 3126,
      "tend": 3127,
      ".ĠArchivedĠfromĠtheĠoriginalĠonĠ25": 3128,
      ".ĠArchivedĠfromĠtheĠoriginalĠonĠ21": 3129,
      "a,ĠorĠ": 3130,
      "beforeĠ": 3131,
      "à¥Ĥà¤ª": 3132,
      "à¥ĩà¤ľ": 3133,
      "ionĠofĠ": 3134,
      "whatĠ": 3135,
      "UniversityĠPress.ĠISBNĠ978-0-": 3136,
      "inĠIndiaĊ": 3137,
      "à¤°à¥įà¤¥": 3138,
      "turn": 3139,
      "builtĠ": 3140,
      "culp": 3141,
      "flow": 3142,
      "gradu": 3143,
      "enceĠofĠ": 3144,
      ".ĠISBNĠ978-1-13": 3145,
      "ologicalĠ": 3146,
      "ConstitutionĠofĠ": 3147,
      "sequ": 3148,
      "pred": 3149,
      "Ġà¤ħà¤¸": 3150,
      "China,Ġ": 3151,
      "tradi": 3152,
      "2012,Ġp.Ġ": 3153,
      "populationĠofĠ": 3154,
      "record": 3155,
      "s.[4": 3156,
      "ensus": 3157,
      ".ĠISBNĠ978-0-19-5": 3158,
      "humansĠ": 3159,
      "period": 3160,
      "eatenĠ": 3161,
      "ementsĠ": 3162,
      "ĠFebruaryĠ2022": 3163,
      "grewĠ": 3164,
      "remeĠ": 3165,
      ".Ġ(2003": 3166,
      "riverĠ": 3167,
      ".ĊĠDysonĠ": 3168,
      ".ĊĠDikshitĠ&ĠSchwartzbergĠ2023": 3169,
      ".ĊĠRow": 3170,
      "suchĠasĠtheĠ": 3171,
      "second": 3172,
      "rightĠ": 3173,
      "prev": 3174,
      "southernĠ": 3175,
      "Ġà¤Ńà¤¾à¤·": 3176,
      "amongĠtheĠ": 3177,
      "withinĠ": 3178,
      "Afric": 3179,
      "mid-": 3180,
      ".ĊĠSteinĠ2010,Ġp.Ġ": 3181,
      "partyĠ": 3182,
      "composedĠinĠ": 3183,
      "danceĠofĠ": 3184,
      "EnvironmentĠ": 3185,
      "ByĠtheĠ": 3186,
      "Franc": 3187,
      "estimate": 3188,
      "sideĠ": 3189,
      "ultanateĠ": 3190,
      "however,Ġ": 3191,
      "signific": 3192,
      "bookĠofĠ": 3193,
      "DevelopmentĠ": 3194,
      "thirdĠ": 3195,
      "ummerĠ": 3196,
      "obbĠ2011": 3197,
      "movementĠ": 3198,
      "independenceĠ": 3199,
      "Plateau": 3200,
      "Studi": 3201,
      "MiddleĠ": 3202,
      "ecutiveĠ": 3203,
      "Princet": 3204,
      "EastĠIndiaĠCompanyĠ": 3205,
      "London:Ġ": 3206,
      "Nicob": 3207,
      "emporaryĠ": 3208,
      "acteris": 3209,
      "Commonweal": 3210,
      "peninsularĠ": 3211,
      "approximatelyĠ": 3212,
      ".gov": 3213,
      "67": 3214,
      "Ġ-": 3215,
      "ķà±Ĥà°¡": 3216,
      "Ŀà¤¾à¤²": 3217,
      ",Ġà°ķ": 3218,
      ",Ġà¤ľ": 3219,
      "Ġà¤«": 3220,
      "Ġà¤ıà¤ķ": 3221,
      "à±Į": 3222,
      "alĠ&Ġ": 3223,
      "Ġà°¶": 3224,
      "Ġà°Ń": 3225,
      "à±įà°ª": 3226,
      "à°¾à°Ł": 3227,
      "à°¿à°®": 3228,
      "108": 3229,
      "Ġà¤¹à¥ĭà¤¤": 3230,
      "à¤¾à¤²à¤¯": 3231,
      "à°¸à±įà°¥": 3232,
      "à°¿à°Ĥà°¦à°¿.Ġà°": 3233,
      "icha": 3234,
      ")[": 3235,
      "AĠS": 3236,
      "ĠâĢ¢": 3237,
      "à¤¾à¤Ł": 3238,
      "à¥ĢĠà¤ª": 3239,
      "ofĠIndia,Ġ": 3240,
      ".2": 3241,
      "BC": 3242,
      "Linguistic": 3243,
      "Ċà¤Ńà¤¾à¤°à¤¤": 3244,
      "à°³": 3245,
      "err": 3246,
      "anat": 3247,
      "à¥ĩà¤¨": 3248,
      "à¥ĩà¤¤à¥įà¤°": 3249,
      "à¥Ģ,Ġ": 3250,
      "à°¿à°°": 3251,
      "à¥ĩĠà¤Ńà¤¾à¤°à¤¤": 3252,
      "à¤¾Ġà¤®": 3253,
      "à¤¸à¥įà¤¥": 3254,
      "gramm": 3255,
      "StatesĠ": 3256,
      "Manip": 3257,
      "Prov": 3258,
      "à°¿à°Ĥà°¦à°¿.Ġ": 3259,
      "à°ķà±įà°ķ": 3260,
      "à¤Ĥà¤¸à¥įà¤ķà¥ĥà¤¤": 3261,
      "Libr": 3262,
      "91": 3263,
      "IUC": 3264,
      "ll": 3265,
      "ĠâĢĵ": 3266,
      "à¤ı": 3267,
      "à¥¯": 3268,
      "à¥įà¤¸": 3269,
      "aĠb": 3270,
      "itz": 3271,
      "1980": 3272,
      "à¥ĩĠà¤ª": 3273,
      "à¥ĢĠà¤Ń": 3274,
      "Chri": 3275,
      "à¥ĩà¤µ": 3276,
      "ĠsqĠmi": 3277,
      "IncreaseĠ": 3278,
      "126": 3279,
      "210": 3280,
      "4):Ġ": 3281,
      "73": 3282,
      "Di": 3283,
      "Depart": 3284,
      "Id": 3285,
      "Liter": 3286,
      "R.Ġ(": 3287,
      "aul": 3288,
      "eff": 3289,
      "à¥®": 3290,
      "al.Ġ": 3291,
      "aran": 3292,
      "araĠ": 3293,
      "ariĠ": 3294,
      "anag": 3295,
      "à°¾à°Ĺ": 3296,
      "à¤¿à¤¹": 3297,
      "uss": 3298,
      "à°Ĥà°¤": 3299,
      "à¤¾Ġà¤µ": 3300,
      "hip": 3301,
      "à°¤à°°": 3302,
      "à¤®à¤§à¥įà¤¯": 3303,
      "2011Ġc": 3304,
      "à±įà°°à±Ģ": 3305,
      "à¤¹à¤¾à¤°": 3306,
      "Ġà¤ªà¤°Ġà¤": 3307,
      "ence": 3308,
      "others": 3309,
      "InternationalĠ": 3310,
      "deb": 3311,
      "ĠBritannic": 3312,
      "Ġà¤ħà¤¨": 3313,
      "Ġà°¸à°Ĥà°": 3314,
      "à¥įà¤·à¥ĩà¤¤à¥įà¤°": 3315,
      "Äģr": 3316,
      "statu": 3317,
      "PakistanĠ": 3318,
      "UnitedĠN": 3319,
      "countryĠ": 3320,
      "Identi": 3321,
      "123": 3322,
      "81": 3323,
      "Mod": 3324,
      "iew": 3325,
      "oic": 3326,
      "offic": 3327,
      "pac": 3328,
      "rac": 3329,
      "say": 3330,
      "tl": 3331,
      "ualĠ": 3332,
      "wa": 3333,
      "Ġkm2Ġ(1,": 3334,
      "tig": 3335,
      "à¤¾Ġà¤ķà¥ĩĠà¤": 3336,
      "aĠg": 3337,
      "am,Ġ": 3338,
      "asĠ(": 3339,
      "à¥Ģà¤ª": 3340,
      "ofĠtheĠIndianĠ": 3341,
      "left": 3342,
      "ablyĠ": 3343,
      "abov": 3344,
      "à¤ķà¥įà¤¤": 3345,
      "tryĠ": 3346,
      "extĠ": 3347,
      "ĠandĠtheĠ": 3348,
      "tionĠtoĠtheĠ": 3349,
      "Ġà¤¸à¤®": 3350,
      "269": 3351,
      "1993": 3352,
      "inĠIndia.Ġ": 3353,
      "ismĠ": 3354,
      ".ĊĠ\"IndiaĠ": 3355,
      "havingĠ": 3356,
      "2007,Ġp.Ġ": 3357,
      "1972": 3358,
      ",ĠSh": 3359,
      ",ĠRaj": 3360,
      "expect": 3361,
      "Ġà¤ķà¥ĭĠà¤ªà¥ģà¤°": 3362,
      "GangeticĠ": 3363,
      "ustral": 3364,
      ".ĊĠAsherĠ&ĠTalbotĠ2008,Ġp.Ġ": 3365,
      "ResearchĠ": 3366,
      "Publishing": 3367,
      "à¤¾à¤²à¥ĩà¤ĸà¤¿à¤¤à¥¤": 3368,
      "HealthĠ": 3369,
      "Ġà¤ķà¥ĭĠà¤ªà¥ģà¤°à¤¾à¤²à¥ĩà¤ĸà¤¿à¤¤à¥¤": 3370,
      "(ed.).Ġ": 3371,
      "400ĠBCE": 3372,
      "6][": 3373,
      "8Ġ": 3374,
      "Cap": 3375,
      "Cast": 3376,
      "Caste": 3377,
      "Dal": 3378,
      "Dut": 3379,
      "Flo": 3380,
      "Food": 3381,
      "ID": 3382,
      "Jamm": 3383,
      "Krishn": 3384,
      "Kathak": 3385,
      "Moh": 3386,
      "OĠ": 3387,
      "Port": 3388,
      "Rothermund": 3389,
      "Tayl": 3390,
      "Und": 3391,
      "ax": 3392,
      "aid": 3393,
      "bed": 3394,
      "car": 3395,
      "cep": 3396,
      "curr": 3397,
      "couldĠ": 3398,
      "dh": 3399,
      "det": 3400,
      "divers": 3401,
      "e;Ġ": 3402,
      "eatĠ": 3403,
      "eigh": 3404,
      "etimesĠ": 3405,
      "fes": 3406,
      "fish": 3407,
      "hal": 3408,
      "hab": 3409,
      "ithĠ": 3410,
      "iev": 3411,
      "kat": 3412,
      "kill": 3413,
      "lowerĠ": 3414,
      "mul": 3415,
      "miss": 3416,
      "meth": 3417,
      "off": 3418,
      "pover": 3419,
      "son": 3420,
      "sing": 3421,
      "sist": 3422,
      "sex": 3423,
      "sculp": 3424,
      "tak": 3425,
      "tain": 3426,
      "uk": 3427,
      "uch": 3428,
      "ved": 3429,
      "wom": 3430,
      "yaĠ": 3431,
      "yĊĊ": 3432,
      "°à¤¾à¤ľà¥įà¤¯": 3433,
      "ĠperĠ": 3434,
      "eĠM": 3435,
      ".ĠThisĠ": 3436,
      ",ĠE": 3437,
      ",ĠIndiaĠ": 3438,
      ",ĠespeciallyĠ": 3439,
      "sĠasĠ": 3440,
      "alĊ": 3441,
      "arrow": 3442,
      "oryĠ": 3443,
      "iam": 3444,
      "edĠasĠ": 3445,
      "edĠfromĠ": 3446,
      "edĠintoĠ": 3447,
      "anal": 3448,
      "esĊ": 3449,
      "inĠaĠ": 3450,
      "inĠwhichĠ": 3451,
      "inĠSouthĠAsia": 3452,
      "à¥įà¤ª": 3453,
      ".ĊAĠ": 3454,
      "relat": 3455,
      "erĠthanĠ": 3456,
      "aĠGandhi": 3457,
      "atak": 3458,
      "ateg": 3459,
      "itte": 3460,
      "itect": 3461,
      "esĠtheĠ": 3462,
      ".ĊĠL": 3463,
      ".ĊĠN": 3464,
      "1949": 3465,
      "ivelyĠ": 3466,
      "ectiveĠ": 3467,
      "olu": 3468,
      "elit": 3469,
      "à¤¿à¤¦": 3470,
      ".[25": 3471,
      ".[27": 3472,
      ".[29": 3473,
      "adi": 3474,
      "TheĠIndianĠ": 3475,
      "forestĠ": 3476,
      "foreignĠ": 3477,
      "thĠed.).Ġ": 3478,
      "thĠSch": 3479,
      "everĠ": 3480,
      "entsĠ": 3481,
      "à°ĤĊ": 3482,
      "IndiaĠwasĠ": 3483,
      "oppos": 3484,
      "aceu": 3485,
      "imm": 3486,
      "ternalĠ": 3487,
      "aver": 3488,
      "avour": 3489,
      ".ĠRetrievedĠ7": 3490,
      ".ĠRetrievedĠ10": 3491,
      ".ĠRetrievedĠ24": 3492,
      "untilĠ": 3493,
      "tionsĠ": 3494,
      "lik": 3495,
      "export": 3496,
      "exchang": 3497,
      "arĠIsland": 3498,
      ".Ġ(ed.).Ġ": 3499,
      "leĠofĠ": 3500,
      "ogam": 3501,
      "2011).Ġ": 3502,
      "technolog": 3503,
      "clos": 3504,
      ".ĠISBNĠ978-0-7": 3505,
      "1995": 3506,
      "proj": 3507,
      "Ġmusic": 3508,
      "befor": 3509,
      "partĠofĠ": 3510,
      "ainedĠ": 3511,
      "blem": 3512,
      "endem": 3513,
      "endangeredĠ": 3514,
      "calledĠ": 3515,
      "ency": 3516,
      "à±ĩà°ľ": 3517,
      "mentsĠ": 3518,
      ".ĠInĠtheĠ": 3519,
      "spic": 3520,
      "spread": 3521,
      "Eng": 3522,
      "ectedĠ": 3523,
      ".;ĠG": 3524,
      "regard": 3525,
      "weap": 3526,
      "turnĠ": 3527,
      "History.Ġ": 3528,
      ".ĠISBNĠ978-1-317": 3529,
      "northĠ": 3530,
      "à°¿à°ķà°¿Ġà°": 3531,
      "largelyĠ": 3532,
      "ĠAprilĠ2026": 3533,
      "Practic": 3534,
      "systemĠofĠ": 3535,
      "decad": 3536,
      "decid": 3537,
      "declar": 3538,
      "caste,Ġ": 3539,
      "pearĠ": 3540,
      "popularĠ": 3541,
      "commonĠ": 3542,
      "afterĠtheĠ": 3543,
      "globalĠ": 3544,
      "Emerg": 3545,
      "(PDF).Ġ": 3546,
      "Euras": 3547,
      "religionĠ": 3548,
      "Ċà°Ńà°¾à°°à°¤à°¦à±ĩà°¶": 3549,
      "AmongĠ": 3550,
      "lof": 3551,
      "includeĠtheĠ": 3552,
      "NationalĠPar": 3553,
      "overĠtheĠ": 3554,
      "à°§à±įà°¯": 3555,
      "world'sĠsecond": 3556,
      "lineĠ": 3557,
      "support": 3558,
      "eachĠ": 3559,
      "harmaceu": 3560,
      "landĠ1970": 3561,
      "1988": 3562,
      "Trans": 3563,
      "TradeĠ": 3564,
      "highestĠ": 3565,
      "IndiansĠ": 3566,
      "CompanionĠtoĠ": 3567,
      "wideĠ": 3568,
      "name:Ġ": 3569,
      "Afgh": 3570,
      "arnatak": 3571,
      "primeĠminister": 3572,
      ".ĠRoutledge": 3573,
      "underĠtheĠ": 3574,
      "marketĠ": 3575,
      ".ĊĠSteinĠ2010,Ġpp.Ġ": 3576,
      "Wikim": 3577,
      "capit": 3578,
      ".Ġ\"OfficialĠ": 3579,
      "Ġà¤ĩà¤¸": 3580,
      "Exp": 3581,
      "createdĠ": 3582,
      "Bangal": 3583,
      "PradeshĊ": 3584,
      "à°¦à±įà°§": 3585,
      "head": 3586,
      "literacyĠ": 3587,
      "textsĠ": 3588,
      "emergedĠ": 3589,
      "EmpireĠ": 3590,
      "à¤Ĥà¤¦à¥įà¤°": 3591,
      "Ġà¤Ĩà¤¹à¥ĩ.Ġ": 3592,
      "2ndĠed.).Ġ": 3593,
      "Maur": 3594,
      "Ġà°Ĩà°°à±įà°": 3595,
      "à¤¤à¥įà¤¤à¤°": 3596,
      "alongĠtheĠ": 3597,
      "Gujarat": 3598,
      "NorthĠ": 3599,
      "villag": 3600,
      "millenniumĠBCE": 3601,
      "EarlyĠ": 3602,
      "anĠandĠNicob": 3603,
      "AndamanĠandĠNicob": 3604,
      "[...]Ġ": 3605,
      "07/": 3606,
      "offĠ": 3607,
      "WorldĠBank": 3608,
      "Carnatic": 3609,
      "EighthĠSch": 3610,
      "HandbookĠofĠ": 3611,
      "TempleĠ": 3612,
      "todayĠ": 3613,
      "characteris": 3614,
      "relief": 3615,
      "success": 3616,
      ".ĊĠSharmaĠ": 3617,
      "engineeringĠcol": 3618,
      "BrahmaputraĠ": 3619,
      "SeeĠalso:Ġ": 3620,
      "atistic": 3621,
      "scen": 3622,
      "victor": 3623,
      ".ĊĠRowlandĠ1970": 3624,
      "Francis": 3625,
      "JammuĠandĠ": 3626,
      "TaylorĠ": 3627,
      "harmaceuticalĠ": 3628,
      ".Ġ\"OfficialĠname:Ġ": 3629,
      "AndamanĠandĠNicobarĠIsland": 3630,
      "EighthĠSchedul": 3631,
      ".0": 3632,
      ".com": 3633,
      "list": 3634,
      "à¤¾Ġà¤¨": 3635,
      "à¤¹à¥ģ": 3636,
      "à¤Ĥà¤§": 3637,
      "portĠ": 3638,
      "ather": 3639,
      "BeforeĠ": 3640,
      "fficeĠofĠtheĠRegistrarĠGeneralĠ&Ġ": 3641,
      "fficeĠofĠtheĠRegistrarĠGeneralĠ&ĠCensusĠCommission": 3642,
      "-10": 3643,
      "à¤ī": 3644,
      ",Ġà°ª": 3645,
      "Ġà°²": 3646,
      "à±įà°Ĺ": 3647,
      "à°¿Ġà°ª": 3648,
      "à°¾à°£": 3649,
      "event": 3650,
      "à¥ĩĠà¤¹": 3651,
      "Artic": 3652,
      "1991": 3653,
      "1996": 3654,
      "à°®à±Īà°¨": 3655,
      "à±Ĥà°¸": 3656,
      "SouthĠAsia:Ġ": 3657,
      "Ġà¤ľà¤¨": 3658,
      "Ġà°ªà±įà°°à°¾à°Ĥà°¤": 3659,
      "Ġà¤°à¤¾à¤ľà¥įà¤¯": 3660,
      "Ĩà¤¹à¥ĩ.Ġ": 3661,
      "ConciseĠ": 3662,
      ".6": 3663,
      "110": 3664,
      "42": 3665,
      "GanaĠ": 3666,
      "JanaĠ": 3667,
      "hou": 3668,
      "ĊD": 3669,
      "inf": 3670,
      "ana": 3671,
      "reed": 3672,
      "à¥ĩĠà¤Ĩ": 3673,
      "à¤¾Ġà¤¹": 3674,
      "à¥ĢĠà¤ħ": 3675,
      "aryĠF": 3676,
      "Ġà¤¸à¥įà¤¥": 3677,
      "à¥ĩà¤ļ": 3678,
      "ct,Ġ": 3679,
      "subjec": 3680,
      "à¤¾à¤Ĥà¤¤": 3681,
      "ConstitutionalĠ": 3682,
      "Ġà¤¦à¥ĩà¤¶": 3683,
      "GovernmentĠofĠIndia.Ġ": 3684,
      "EnglishĠ": 3685,
      "à¤¿à¤¸à¥įà¤¤": 3686,
      "EnvironmentalĠ": 3687,
      "à¤®à¥įà¤¬": 3688,
      ".gov.in": 3689,
      "Provision": 3690,
      "LibraryĠ": 3691,
      "GanaĠMan": 3692,
      "JanaĠGanaĠMan": 3693,
      ")ĉ": 3694,
      "New": 3695,
      "Wild": 3696,
      "a.Ġ": 3697,
      "aus": 3698,
      "ĠatĠtheĠ": 3699,
      "Ġà¥¨": 3700,
      "īà°Ĥà°¦": 3701,
      "Ĵà°ķ": 3702,
      "Ĵà°°à°¿à°": 3703,
      "ľà°¿à°¨": 3704,
      "aria": 3705,
      ".Ċ(": 3706,
      "Ġà°¦": 3707,
      "à±įà°¸": 3708,
      "à°¾à°µ": 3709,
      "olper": 3710,
      "à±ģà°¨à±įà°¨": 3711,
      "à¥ĩĠà¤ľ": 3712,
      "à°²à±ĭ": 3713,
      "à¤¹à¤°": 3714,
      "à°µà°¸à±įà°¥": 3715,
      "Ġà°¸à±įà°¥": 3716,
      "StateĠ": 3717,
      "à±Īà°µ": 3718,
      "Ġà¤¤à¤ķ": 3719,
      "Ġà¤ķà¥ĢĠà¤¸": 3720,
      "à°¾à°²à±ģĊ": 3721,
      "onso": 3722,
      "à°¿à°²à±įà°²": 3723,
      "ConstituentĠAssemblyĠofĠIndiaĠ": 3724,
      "HumanĠ": 3725,
      "Christi": 3726,
      "à±ĩà°ľà±Ģ": 3727,
      "-l": 3728,
      "98": 3729,
      "Fir": 3730,
      "How": 3731,
      "HomeĠ": 3732,
      "Mov": 3733,
      "Non-": 3734,
      "RĠ": 3735,
      "Up": 3736,
      "Vol": 3737,
      "[16": 3738,
      "ae": 3739,
      "achĠ": 3740,
      "aá¹ĩ": 3741,
      "han,Ġ": 3742,
      "tedĠinĠ": 3743,
      "yp": 3744,
      "y'sĠ": 3745,
      "Ġà¤Ł": 3746,
      "ref": 3747,
      "à¤¿à¤ª": 3748,
      "ation:Ġ": 3749,
      "umeĠ": 3750,
      "abad": 3751,
      "originallyĠ": 3752,
      "\".ĠB": 3753,
      "Union": 3754,
      "udg": 3755,
      "15Ġ": 3756,
      "beingĠ": 3757,
      "inequal": 3758,
      "à¥ĭà¤ĤĠà¤ķà¥ĩĠà¤": 3759,
      "à¤¬à¤¸à¥ĩĠà¤": 3760,
      "Ġà¤¬à¤¨": 3761,
      "KashmirĠ": 3762,
      "inistryĠofĠHomeĠ": 3763,
      "ficationĠ": 3764,
      "localĠ": 3765,
      "administ": 3766,
      "AccordingĠtoĠ": 3767,
      "Publications": 3768,
      "CurrentĠ": 3769,
      "GuptaĠ": 3770,
      "DepartmentĠofĠ": 3771,
      "inistryĠofĠHomeĠAffair": 3772,
      "-23": 3773,
      ".org": 3774,
      "117": 3775,
      "32": 3776,
      "4]ĊĊ": 3777,
      "Ak": 3778,
      "Bur": 3779,
      "He": 3780,
      "Pre": 3781,
      "PowerĠ": 3782,
      "Sub": 3783,
      "Ver": 3784,
      "ai,Ġ": 3785,
      "bi": 3786,
      "cĠ": 3787,
      "ces": 3788,
      "dedĠ": 3789,
      "ekĠ": 3790,
      "fast": 3791,
      "ha,Ġ": 3792,
      "mer": 3793,
      "nameĠ": 3794,
      "nearlyĠ": 3795,
      "ook": 3796,
      "picalĠ": 3797,
      "sci": 3798,
      "way": 3799,
      "Ġ30": 3800,
      "ħà°¤": 3801,
      "ļà±Ĥà°¸": 3802,
      "eĠorĠ": 3803,
      ".ĠL": 3804,
      "th-": 3805,
      "thme": 3806,
      "Ġà¤ı": 3807,
      "orkĠ": 3808,
      "Ġà°Ĺ": 3809,
      "refer": 3810,
      "asonĠ": 3811,
      "à¥ĩà¤°": 3812,
      "à¥ĩà¤Ĥà¤¦à¥įà¤°": 3813,
      "à°¿.Ċ": 3814,
      ":ĠAnĠ": 3815,
      "à¥Ģ.Ġ": 3816,
      "à¥Ģà¤Ĥ": 3817,
      "à¤¿à¤·": 3818,
      "à¥ĩĠà¤ħ": 3819,
      "à°Ĥà°¬": 3820,
      "à¥ĢĠà¤¨": 3821,
      "à¥ĢĠà¤ľ": 3822,
      "unc": 3823,
      "ĊĊĠ": 3824,
      "à¤®à¤¾à¤¨": 3825,
      "à°¨à°¾à°": 3826,
      "à°¨à±ĩ": 3827,
      "Ġà¤¸à¤¾à¤®": 3828,
      "Ġà¤¸à¤°à¤ķà¤¾à¤°": 3829,
      "1990": 3830,
      "à°ķà±ģĠà°": 3831,
      "endraĠ": 3832,
      "ancyĠ": 3833,
      ".ĠISBNĠ978-1-40": 3834,
      "OxfordĠEnglish": 3835,
      "à±Ĩà°²": 3836,
      "à¤¿à¤¯à¤¾": 3837,
      "allĠtheĠ": 3838,
      "achalĠ": 3839,
      "ervic": 3840,
      "ĠDiction": 3841,
      "population": 3842,
      "SouthĠAsiaĠ": 3843,
      "Ġà¤Ńà¤¾à¤°à¤¤à¥Ģà¤¯": 3844,
      "à±ģà°²à±ģĠà°": 3845,
      ".Ġ(2001": 3846,
      "à¤¿à¤²à¥įà¤²": 3847,
      "Assam": 3848,
      "à¤¾à¤·à¥įà¤Łà¥įà¤°à¥Ģà¤¯": 3849,
      "Cultur": 3850,
      "areaĠasĠ": 3851,
      "Science.Ġ": 3852,
      "bodyĠ": 3853,
      "draw": 3854,
      "Ġpages": 3855,
      "īà°¨à±įà°¨à°¾à°¯": 3856,
      "à¤Ĥà¤Ĺà¥įà¤°à¥ĩà¤ľ": 3857,
      "reatenedĠ": 3858,
      "à°§à°¿à°ķà°¾à°°": 3859,
      "acrossĠtheĠ": 3860,
      "à±ĩà°¦à±Ģ": 3861,
      "à¤¢à¤¼": 3862,
      "Ġà¤§à¤°à¥įà¤®": 3863,
      "Peop": 3864,
      "Technolog": 3865,
      "writtenĠ": 3866,
      "IncreaseĠ$": 3867,
      "expectancyĠ": 3868,
      "Ĵà°°à°¿à°ľà°¿à°¨": 3869,
      "OxfordĠEnglishĠDiction": 3870,
      "Ĵà°°à°¿à°ľà°¿à°¨à°²": 3871,
      "%ĠandĠ": 3872,
      ")ĠA": 3873,
      "178": 3874,
      "2]ĠTheĠ": 3875,
      "34": 3876,
      "3][": 3877,
      "3-8": 3878,
      "3-5": 3879,
      "577": 3880,
      "677": 3881,
      "674": 3882,
      "AG": 3883,
      "Drav": 3884,
      "ForĠ": 3885,
      "Govern": 3886,
      "Ir": 3887,
      "Jan": 3888,
      "Jam": 3889,
      "Jap": 3890,
      "JanuaryĠ": 3891,
      "Kumar": 3892,
      "L.ĠS": 3893,
      "MusicĠ": 3894,
      "Mumb": 3895,
      "Nep": 3896,
      "Not": 3897,
      "OnĠ": 3898,
      "OldĠ": 3899,
      "Oly": 3900,
      "Per": 3901,
      "PaperĠ": 3902,
      "Ro": 3903,
      "Riv": 3904,
      "Routled": 3905,
      "Ser": 3906,
      "Sik": 3907,
      "ToĠ": 3908,
      "Vis": 3909,
      "We": 3910,
      "WithĠ": 3911,
      "Yaksh": 3912,
      "az": 3913,
      "a.ĠArchivedĠfromĠtheĠoriginalĠonĠ": 3914,
      "bar": 3915,
      "band": 3916,
      "balĠ": 3917,
      "bak": 3918,
      "buc": 3919,
      "cas": 3920,
      "cur": 3921,
      "centĠ": 3922,
      "cend": 3923,
      "cameĠ": 3924,
      "cuis": 3925,
      "c.âĢī": 3926,
      "dia": 3927,
      "dre": 3928,
      "diversityĠ": 3929,
      "dayĠ": 3930,
      "d-largestĠ": 3931,
      "e:": 3932,
      "earĠ": 3933,
      "e.ĠTheĠ": 3934,
      "eez": 3935,
      "fam": 3936,
      "fiveĠ": 3937,
      "farm": 3938,
      "fundamentalĠ": 3939,
      "god": 3940,
      "gra": 3941,
      "gonom": 3942,
      "hom": 3943,
      "hock": 3944,
      "ih": 3945,
      "ij": 3946,
      "kam": 3947,
      "lalĠ": 3948,
      "la,Ġ": 3949,
      "lessĠ": 3950,
      "les:Ġ": 3951,
      "mp": 3952,
      "med": 3953,
      "mustĠ": 3954,
      "muchĠ": 3955,
      "non": 3956,
      "o,Ġ": 3957,
      "och": 3958,
      "o,ĠtheĠ": 3959,
      "pay": 3960,
      "publicĠ": 3961,
      "rat": 3962,
      "run": 3963,
      "round": 3964,
      "ratesĠ": 3965,
      "reduc": 3966,
      "so": 3967,
      "ser": 3968,
      "sin": 3969,
      "sil": 3970,
      "sac": 3971,
      "s;Ġ": 3972,
      "surr": 3973,
      "s,ĠandĠtheĠ": 3974,
      "tal": 3975,
      "tap": 3976,
      "testĠ": 3977,
      "telyĠ": 3978,
      "tookĠ": 3979,
      "tax": 3980,
      "vul": 3981,
      "vastĠ": 3982,
      "weĠ": 3983,
      "word": 3984,
      "ward": 3985,
      "yth": 3986,
      "yearĠ": 3987,
      "Ã©": 3988,
      "Ġk": 3989,
      "eĠtoĠtheĠ": 3990,
      "thes": 3991,
      "th)Ċ": 3992,
      ",Ġ14": 3993,
      ",Ġ25": 3994,
      "sĠf": 3995,
      "sĠwithĠ": 3996,
      "ines,Ġ": 3997,
      "alistĠ": 3998,
      "aram": 3999,
      "ary,Ġ": 4000,
      "ory": 4001,
      "yĠinĠIndia": 4002,
      "ont": 4003,
      "oneĠofĠtheĠ": 4004,
      "edĠIndiaĠ": 4005,
      "edĠthatĠ": 4006,
      "ofĠK": 4007,
      "enj": 4008,
      "anist": 4009,
      "antsĠ": 4010,
      "and,Ġ": 4011,
      "Indus": 4012,
      "es;Ġ": 4013,
      "India.[": 4014,
      "riy": 4015,
      "à¤¾à¤ł": 4016,
      "inĠ18": 4017,
      "ch,Ġ": 4018,
      "represent": 4019,
      "ingsĠofĠ": 4020,
      "aĠK": 4021,
      "aĠrang": 4022,
      "à¥ĩà¤¸": 4023,
      "iceĠ": 4024,
      "ic,Ġ": 4025,
      "icsĠ": 4026,
      "ittedĠ": 4027,
      "ingĠforĠ": 4028,
      "ingĠthisĠ": 4029,
      "ingĠregion": 4030,
      "esĠtoĠ": 4031,
      "esĠfromĠ": 4032,
      "esĠthatĠ": 4033,
      "etah": 4034,
      "oldĠ": 4035,
      "els": 4036,
      "elĠ(": 4037,
      "à¥Ģà¤µ": 4038,
      ".[18": 4039,
      "TheĠOxfordĠ": 4040,
      "thĠofĠ": 4041,
      "evidenceĠ": 4042,
      "road": 4043,
      "à¤¤.Ġ": 4044,
      "IndiaĠtoĠ": 4045,
      "IndiaĠfromĠ": 4046,
      "uscrip": 4047,
      "actionĠ": 4048,
      "accoun": 4049,
      "accompan": 4050,
      "result": 4051,
      ".ĠRe": 4052,
      "chĠ2001": 4053,
      "à¥ĩĠà¤¹à¥Ī": 4054,
      "imalĠ": 4055,
      "tern": 4056,
      "leĊ": 4057,
      "atĠ(": 4058,
      "avinĠ": 4059,
      "idianĠ": 4060,
      "abor": 4061,
      "à¥ĢĠà¤¬": 4062,
      ".ĠRetrievedĠ5": 4063,
      ".ĠRetrievedĠ15": 4064,
      ".ĠRetrievedĠ13": 4065,
      ".ĠRetrievedĠ21": 4066,
      ",ĠandĠaĠ": 4067,
      "unleav": 4068,
      "ationĠforĠ": 4069,
      "lieĠ": 4070,
      "liber": 4071,
      "à¥įà¤¯à¤¾à¤¤": 4072,
      "trac": 4073,
      "examp": 4074,
      "executiveĠ": 4075,
      "eph": 4076,
      "epar": 4077,
      "ake": 4078,
      "e,ĠK": 4079,
      "e,ĠM": 4080,
      "tualĠ": 4081,
      "ceĠandĠ": 4082,
      "à¤®à¥Ĥà¤²Ġà¤¸à¥ĩĠà¤": 4083,
      "1-9": 4084,
      ".Ġ(2008": 4085,
      "teenĠ": 4086,
      "clim": 4087,
      "17/": 4088,
      "1885": 4089,
      "compl": 4090,
      "comprom": 4091,
      "plat": 4092,
      ".ĠArchivedĠfromĠtheĠoriginalĠonĠ1": 4093,
      ".ĠArchivedĠfromĠtheĠoriginalĠonĠ3": 4094,
      ".ĠArchivedĠfromĠtheĠoriginalĠonĠ5": 4095,
      ".ĠArchivedĠfromĠtheĠoriginalĠonĠ9": 4096,
      ".ĠISBNĠ978-0-4": 4097,
      "ĠSh": 4098,
      "157": 4099,
      "otsp": 4100,
      "endogam": 4101,
      "whoseĠ": 4102,
      "formedĠaĠ": 4103,
      "centr": 4104,
      "UniversityĠPress.Ġp.Ġ": 4105,
      "UniversityĠPress.Ġpp.Ġ": 4106,
      "raft": 4107,
      "rits": 4108,
      ".ĠInĠaddi": 4109,
      "didĠ": 4110,
      "direc": 4111,
      "27ĠSeptemberĠ": 4112,
      "SoutheastĠ": 4113,
      "under": 4114,
      "oughtĠ": 4115,
      "latt": 4116,
      "later,Ġ": 4117,
      "50âĢĵ": 4118,
      "marria": 4119,
      "Oxford": 4120,
      "&ĠFrancis": 4121,
      "SouthĠIndianĠ": 4122,
      "ground": 4123,
      "%ĠtoĠ": 4124,
      ".ĠISBNĠ978-1-107": 4125,
      "2014).Ġ": 4126,
      "ology": 4127,
      "ologyĠofĠ": 4128,
      "first-": 4129,
      "becom": 4130,
      "citiesĠ": 4131,
      "Although": 4132,
      "subsequ": 4133,
      "ĠtoĠbeĠ": 4134,
      "-9.Ċ": 4135,
      "achiev": 4136,
      "ChinaĠ": 4137,
      "poss": 4138,
      "trigonom": 4139,
      "Stand": 4140,
      "societ": 4141,
      "crimin": 4142,
      "crick": 4143,
      "centuryĠ": 4144,
      "Ġà¤¤à¤¥": 4145,
      "butĠalsoĠ": 4146,
      "Centre": 4147,
      "SouthĠAsianĠ": 4148,
      "ĠMarchĠ2025": 4149,
      "awahar": 4150,
      "2009).Ġ\"": 4151,
      "ediatelyĠ": 4152,
      "iansĠ": 4153,
      "ianceĠ": 4154,
      ".Ġdoi:10.23": 4155,
      "ruleĠ": 4156,
      ".ĠBib": 4157,
      "Congress": 4158,
      "humilia": 4159,
      "ĊĠĊTheĠ": 4160,
      "causedĠ": 4161,
      ",ĠwhichĠisĠ": 4162,
      "Äģy": 4163,
      ",ĠRob": 4164,
      "ĠJuneĠ2021": 4165,
      "extens": 4166,
      "extantĠ": 4167,
      "greatĠ": 4168,
      "greaterĠ": 4169,
      "expand": 4170,
      "express": 4171,
      "expans": 4172,
      "-3.Ċ": 4173,
      "ĊMainĠarticles:Ġ": 4174,
      ".ĊĠMetcalfĠ&ĠMetcalfĠ2012,Ġp.Ġ": 4175,
      "statusĠ": 4176,
      "link": 4177,
      "Harvar": 4178,
      "CambridgeĠUniversityĠPress.ĠISBNĠ978-0-521-": 4179,
      "subcontinent": 4180,
      ".ĊĠRobbĠ2011": 4181,
      ".ĠItĠwasĠ": 4182,
      "defeat": 4183,
      "ForeignĠ": 4184,
      "developedĠ": 4185,
      "2026Ġ": 4186,
      "Kashmiri": 4187,
      "point": 4188,
      "highlyĠ": 4189,
      "milkĠ": 4190,
      "tivalĠ": 4191,
      "empir": 4192,
      ".ĊĠMetcalfĠ&ĠMetcalfĠ2006,Ġp.Ġ": 4193,
      "withoutĠ": 4194,
      "Afri": 4195,
      "nearĠ": 4196,
      ".ĠAfterĠ": 4197,
      "BengalĠ": 4198,
      ".Ġdoi:10.1017/": 4199,
      "Geograph": 4200,
      "leadingĠ": 4201,
      "Himalayas": 4202,
      "PlateĠ": 4203,
      "promin": 4204,
      "colonialĠ": 4205,
      "officialĠlanguage": 4206,
      "species,Ġ": 4207,
      "familiesĠ": 4208,
      "styl": 4209,
      "UrbanĠ": 4210,
      "producerĠofĠ": 4211,
      "legis": 4212,
      "republic": 4213,
      "agricultur": 4214,
      "agriculture": 4215,
      "agriculturalĠ": 4216,
      "contribu": 4217,
      "NehruĠ": 4218,
      "GreekĠ": 4219,
      "whenĠtheĠ": 4220,
      "fullyĠ": 4221,
      "wornĠ": 4222,
      "Class": 4223,
      "smallĠ": 4224,
      ").ĠAĠHistoryĠ": 4225,
      "followingĠ": 4226,
      "third-largestĠ": 4227,
      "eduledĠ": 4228,
      "educationĠ": 4229,
      "cookingĠ": 4230,
      "WhenĠ": 4231,
      "ItĠisĠ": 4232,
      "democrac": 4233,
      ".ĠRetrievedĠ23ĠJulyĠ2011.Ċ": 4234,
      "Demograph": 4235,
      "code:": 4236,
      "administr": 4237,
      ".ĠRetrievedĠ17ĠOctoberĠ2021": 4238,
      ".Ġ(2007).Ġ": 4239,
      "transmittedĠ": 4240,
      "IslamicĠ": 4241,
      "Madr": 4242,
      "Ġà¤ķà¥ĩĠà¤¸à¤¾à¤¥": 4243,
      "makesĠ": 4244,
      "conduc": 4245,
      "kingdom": 4246,
      "painting,Ġ": 4247,
      "severalĠ": 4248,
      "bottom": 4249,
      "aroundĠ": 4250,
      "Tibet": 4251,
      "featuresĠ": 4252,
      "femaleĠ": 4253,
      "natalĠ": 4254,
      "plex": 4255,
      "urtonĠ": 4256,
      "ilgrim": 4257,
      ".ĠRetrievedĠ20ĠJulyĠ2011.Ċ": 4258,
      ".ĠPMID": 4259,
      ".ĠRoutledge.Ġp.Ġ": 4260,
      "thornĠ": 4261,
      ".8%Ġ": 4262,
      "Ghat": 4263,
      "vegetar": 4264,
      "TharĠDes": 4265,
      "importantĠ": 4266,
      "Aravalli": 4267,
      ".ĊĠDikshitĠ&ĠSchwartzbergĠ2023,Ġp.Ġ": 4268,
      "significantĠ": 4269,
      "habit": 4270,
      "lofk": 4271,
      "Afghanist": 4272,
      "CarnaticĠmusicĠ": 4273,
      ".ĊĠRowlandĠ1970,Ġpp.Ġ": 4274,
      "JammuĠandĠKashmir": 4275,
      "TaylorĠ&ĠFrancis": 4276,
      ".Ġ\"OfficialĠname:ĠRepublicĠofĠIndia": 4277,
      "AGE": 4278,
      "DravidianĠ": 4279,
      "Olymp": 4280,
      "Sikk": 4281,
      "drewĠ": 4282,
      "kameez": 4283,
      "surround": 4284,
      "compromiseĠ": 4285,
      "SoutheastĠAsia": 4286,
      "awaharlalĠ": 4287,
      ".ĠBibcode:": 4288,
      "HarvardĠ": 4289,
      ".à°¶": 4290,
      "ND": 4291,
      "ĵà¤Ĥ": 4292,
      ",Ġà°®": 4293,
      "à°¾.à°¶": 4294,
      "à¤°à¤£": 4295,
      "à¤¤à¤¾à¤¤": 4296,
      "à°¿à°£": 4297,
      "india": 4298,
      "Ġà¤¸à¤Ĥà¤": 4299,
      "language": 4300,
      "er,ĠC": 4301,
      "à°¿Ġà°¸": 4302,
      "à°¸à±įà°¤": 4303,
      "à°¸à°¾.à°¶": 4304,
      "à¤§à¤¾à¤¨": 4305,
      "à°¿à°¨Ġà°¤": 4306,
      "ĠAprilĠ2021": 4307,
      "à°ĤĠà°µ": 4308,
      "à°¨à°¿Ġà°ļà±Ĥà°¸": 4309,
      "à°ķà±įà°·à°¿à°£": 4310,
      "à°¿à°¯à°¾Ġà°": 4311,
      "Ġà¥§à¥¯": 4312,
      "à¤¾Ġà¤ľà¤¾à¤¤": 4313,
      "à±įĠà°ªà±ĩà°ľà±Ģ": 4314,
      "ĊĊĠĊĊĠ": 4315,
      "à±ĩà°¦à±Ģ:Ġ": 4316,
      "Ĵà°°à°¿à°ľà°¿à°¨à°²à±įĠà°ªà±ĩà°ľà±Ģ": 4317,
      "à°¸à°¾.à°¶.": 4318,
      "à°¿à°¨Ġà°¤à±ĩà°¦à±Ģ:Ġ": 4319,
      "à°¨à°¿Ġà°ļà±Ĥà°¸à°¿à°¨Ġà°¤à±ĩà°¦à±Ģ:Ġ": 4320,
      "Ĵà°°à°¿à°ľà°¿à°¨à°²à±įĠà°ªà±ĩà°ľà±Ģà°¨à°¿Ġà°ļà±Ĥà°¸à°¿à°¨Ġà°¤à±ĩà°¦à±Ģ:Ġ": 4321,
      "-17": 4322,
      "1][": 4323,
      "125": 4324,
      "Tw": 4325,
      "text": 4326,
      "ueĠ": 4327,
      "¸à¥ĩĠ": 4328,
      "Ċ0.": 4329,
      "theĠoriginalĠ": 4330,
      "à¤¾à¤¡": 4331,
      ":ĠS": 4332,
      "à¥įà¤¯à¤µ": 4333,
      "à¤ªà¤Ł": 4334,
      "à¥Īà¤¦": 4335,
      "Ġà¤¹à¥ģà¤": 4336,
      "1971": 4337,
      "Centur": 4338,
      "hortĠ": 4339,
      "à¤¿à¤¶à¥įà¤µ": 4340,
      "FromĠtheĠ": 4341,
      "à¤®à¥Ĥà¤²Ġà¤¸à¥ĩĠà¤¸à¥ĩĠ": 4342,
      "120": 4343,
      "127": 4344,
      "2]ĊĊ": 4345,
      "Cour": 4346,
      "PP": 4347,
      "Rec": 4348,
      "İà°¨à±įà°¨": 4349,
      "Ġà¤ĺ": 4350,
      "IndiaĊ": 4351,
      "à¤¾à¤§": 4352,
      "Ġà°Ńà°¾à°°à°¤à°¦à±ĩà°¶": 4353,
      "à±ģà°Ĥà°¦": 4354,
      "ĠMin": 4355,
      "Chh": 4356,
      "à±ĩà°Ĥà°¦": 4357,
      "][7": 4358,
      "à¥Īà¤¨": 4359,
      "spect": 4360,
      "à°ªà±Ĥ": 4361,
      "à°ªà°Ĥà°ļ": 4362,
      "à±ģĠà°ļà±Ĩ": 4363,
      "etcalf": 4364,
      "50Ġ": 4365,
      "2014).Ġ\"": 4366,
      "à±Ĩà°Ĥà°¡": 4367,
      "à°¿à°¨à±įà°¨": 4368,
      "à°¯à±įà°¯": 4369,
      "à°°à±įà°µ": 4370,
      "à°ĤĠà°ķ": 4371,
      "issionĠ": 4372,
      "à¤¾à¤ļà¥Ģà¤¨": 4373,
      "Prospect": 4374,
      "à¥§à¥¯": 4375,
      "à¥¦à¥¦": 4376,
      "OfficialĠLanguageĠ": 4377,
      "à¥ģà¤²à¤¾à¤Ī": 4378,
      "fficeĠofĠtheĠRegistrarĠGeneralĠ&ĠCensusĠCommissioner,Ġ": 4379,
      "house": 4380,
      "\"[": 4381,
      ".5": 4382,
      ".,Ġ": 4383,
      "AprilĠ": 4384,
      "Eth": 4385,
      "JulyĠ": 4386,
      "JuneĠ": 4387,
      "[20": 4388,
      "oti": 4389,
      "Ċà¤®": 4390,
      "Ġà¤Ŀà¤¾à¤²": 4391,
      "à¤¾à¤ı": 4392,
      "omet": 4393,
      "à¥Ģà¤®": 4394,
      "à¤¿à¤³": 4395,
      "à¥ĩĠà¤¤": 4396,
      "267": 4397,
      "1999": 4398,
      "à¥Ĥà¤°": 4399,
      "à¥ĩà¤Ł": 4400,
      "à¤°à¥įà¤£": 4401,
      "129": 4402,
      "becaus": 4403,
      "à¤¿à¤¤à¥įà¤°": 4404,
      "à¤¶à¥įà¤ļ": 4405,
      "Ġà¤ľà¥ģà¤²à¤¾à¤Ī": 4406,
      "Ġà¤¦à¤¿à¤¸": 4407,
      "additionalĠ": 4408,
      "7,26": 4409,
      "Ġà¤ķà¥ĭĠà¤ªà¥ģà¤°à¤¾à¤²à¥ĩà¤ĸà¤¿à¤¤à¥¤.Ġà¤ħà¤Ńà¤¿à¤Ĺà¤®à¤¨Ġà¤¤à¤¿à¤¥à¤¿:Ġ": 4410,
      "LibraryĠofĠ": 4411,
      "olpertĠ": 4412,
      "Ethn": 4413,
      "84": 4414,
      "Coll": 4415,
      "Gold": 4416,
      "IĠ": 4417,
      "ListĠofĠ": 4418,
      "Me": 4419,
      "Sy": 4420,
      "Surv": 4421,
      "bedĠ": 4422,
      "cr": 4423,
      "cust": 4424,
      "manĠ": 4425,
      "netĠ": 4426,
      "nomin": 4427,
      "wal": 4428,
      "yam": 4429,
      "¹à°¿à°Ĥà°¦": 4430,
      "Ĺà¤¯": 4431,
      "à°Ńà°¾à°°à°¤à°¦à±ĩà°¶": 4432,
      "eĠbetweenĠ": 4433,
      ",Ġà°¸": 4434,
      "Ġà¤¥": 4435,
      "ed.ĠTheĠ": 4436,
      "ofĠIndianĠ": 4437,
      "à¤¾.Ġ": 4438,
      "à¤¾à¤ĵà¤Ĥ": 4439,
      "Ġà°ī": 4440,
      "outĠofĠ": 4441,
      "ictĠ": 4442,
      "esĠforĠ": 4443,
      "etaryĠF": 4444,
      "à¥Ģà¤°": 4445,
      "à¥Ģà¤¸": 4446,
      "à¤¿à¤ľ": 4447,
      "à±ģà°¨": 4448,
      "ership": 4449,
      "osh": 4450,
      "103": 4451,
      "identi": 4452,
      "umph": 4453,
      "à¥ĢĠà¤¤": 4454,
      "à¥ĢĠà¤¦": 4455,
      "à¥ĢĠà¤Ĩ": 4456,
      "à¥ĭà¤¨": 4457,
      "à¥įà¤°à¤¾à¤ľà¥įà¤¯": 4458,
      "003": 4459,
      "à°°à±įà°¯": 4460,
      "à±įà°°à°®": 4461,
      "Ġà¤®à¤¾à¤¨": 4462,
      "à¤Ĥà¤ª": 4463,
      "à°¦à±įà°°": 4464,
      "à°¾à°°à±įà°Ĺ": 4465,
      "whileĠ": 4466,
      "289": 4467,
      "aticsĠ": 4468,
      "à°¿Ġà°ħ": 4469,
      "à°¿Ġà°ķ": 4470,
      "illion": 4471,
      "à¤ľà¤¾à¤¤": 4472,
      "ĠAprilĠ2019": 4473,
      "ĠNew": 4474,
      "ĠMayĠ2014": 4475,
      "Prof": 4476,
      "ities,Ġ": 4477,
      "Asher,ĠC": 4478,
      "ĠJanuaryĠ1950": 4479,
      ",Ġà°ĩ": 4480,
      "GovernmentĠofĠIndiaĠ": 4481,
      "Ġà¤¹à¥Īà¤Ĥà¥¤": 4482,
      "Ġà°°à±Ī": 4483,
      "Ġà°°à°¾à°·à±įà°Łà±įà°°": 4484,
      "Ġà¤ķà¤¾Ġà¤¸": 4485,
      "1983": 4486,
      "SocialĠ": 4487,
      "estimatedĠ": 4488,
      "68âĢĵ": 4489,
      ")ĠandĠtheĠ": 4490,
      "sourcesĠ": 4491,
      "arbaraĠ": 4492,
      "MonetaryĠF": 4493,
      "unionĠterritoriesĠ": 4494,
      "à±ĥà°¤": 4495,
      ",ĠISBNĠ978-": 4496,
      "à¥ģà¤¸à¤¾à¤°": 4497,
      "InformaticsĠ": 4498,
      "BCĠNew": 4499,
      "IUCN": 4500,
      "2011Ġcensus": 4501,
      "FirstĠ": 4502,
      "Movement": 4503,
      "à±ĩà°Ĥà°¦à±įà°°": 4504,
      "à°¯à±įà°¯à°¬à°¡": 4505,
      "Prospects": 4506,
      "à¤¶à¥įà¤ļà¤¿à¤®": 4507,
      "custom": 4508,
      "MonetaryĠFund": 4509,
      "(2004": 4510,
      ".T": 4511,
      ".ĉ": 4512,
      "1.Ġ": 4513,
      "216": 4514,
      "5-4": 4515,
      "Ap": 4516,
      "Austral": 4517,
      "Def": 4518,
      "FoodĠ": 4519,
      "Gop": 4520,
      "IT": 4521,
      "Rev": 4522,
      "Ref": 4523,
      "Wood": 4524,
      "gesĠ": 4525,
      "good": 4526,
      "i-": 4527,
      "ieĠ": 4528,
      "ra,Ġ": 4529,
      "wat": 4530,
      "y;Ġ": 4531,
      ".Ġ14": 4532,
      "nĠ(": 4533,
      "à¤¾à¤¶": 4534,
      "à¥įà¤ł": 4535,
      ".ĊAsherĠ&ĠTalbotĠ": 4536,
      "ature": 4537,
      "embl": 4538,
      "olar": 4539,
      "à¤¿à¤ı": 4540,
      "à¤¿à¤Ł": 4541,
      "ilber": 4542,
      "âĢĵ29": 4543,
      "useĠofĠ": 4544,
      "à¥ĩĠà¤ªà¥įà¤°": 4545,
      "ter,Ġ": 4546,
      "untouch": 4547,
      "akĠ": 4548,
      "akeĠ": 4549,
      "inĠtheĠwesternĠ": 4550,
      "ĠMuslim": 4551,
      "tionĠtoĠ": 4552,
      "Hindus": 4553,
      "16âĢĵ": 4554,
      "utri": 4555,
      "thatĠisĠ": 4556,
      "147": 4557,
      "à¤µà¤°à¥Ģ": 4558,
      "287,26": 4559,
      "rais": 4560,
      ")Ġ[": 4561,
      "er,ĠK": 4562,
      "ecton": 4563,
      "est-": 4564,
      "History": 4565,
      ".ĠSpring": 4566,
      ".\"[": 4567,
      "à¤¶à¤¾à¤¸": 4568,
      "2009).Ġ": 4569,
      "ohn": 4570,
      "à¥įà¤µà¥Ģà¤ª": 4571,
      "hadĠbeenĠ": 4572,
      ".Ġ(2005": 4573,
      "tropicalĠ": 4574,
      "alayal": 4575,
      "life,Ġ": 4576,
      "ForestĠ": 4577,
      "view": 4578,
      "Ġà¤¯à¤¹": 4579,
      "sinceĠtheĠ": 4580,
      "3,287,26": 4581,
      "Region": 4582,
      "lifeĠexpectancyĠ": 4583,
      "birth": 4584,
      "IndusĠValle": 4585,
      "Science,Ġ": 4586,
      "NortheastĠ": 4587,
      "Policy.Ġ": 4588,
      "pollu": 4589,
      "Territor": 4590,
      "UnitedĠNationsĠ": 4591,
      "269,": 4592,
      "thmetic": 4593,
      "OxfordĠEnglishĠDictionar": 4594,
      "Ġà¤ľà¥ģà¤²à¤¾à¤ĪĠ": 4595,
      "\".ĠInternationalĠ": 4596,
      "\";Ċ": 4597,
      "(2ndĠed.).Ġ": 4598,
      "-D": 4599,
      "-g": 4600,
      "-oper": 4601,
      "-sel": 4602,
      "1ĠofĠ": 4603,
      "2,Ġ": 4604,
      "2).Ġ": 4605,
      "212": 4606,
      "2-8": 4607,
      "2.ĊĠK": 4608,
      "3r": 4609,
      "3]ĠTheĠ": 4610,
      "3):Ġ": 4611,
      "4.": 4612,
      "6).Ġ": 4613,
      "6]ĊĊ": 4614,
      "7âĢĵ": 4615,
      "7][": 4616,
      "Ab": 4617,
      "Ahm": 4618,
      "Bour": 4619,
      "Book": 4620,
      "Cav": 4621,
      "Crow": 4622,
      "Clim": 4623,
      "DavidĠ": 4624,
      "Fi": 4625,
      "Fo": 4626,
      "FederalĠ": 4627,
      "Gar": 4628,
      "Gen": 4629,
      "Grow": 4630,
      "GondĠ": 4631,
      "HO": 4632,
      "Hor": 4633,
      "Hom": 4634,
      "Hay": 4635,
      "ItsĠ": 4636,
      "Jud": 4637,
      "JawaharlalĠ": 4638,
      "Lati": 4639,
      "Lank": 4640,
      "Mang": 4641,
      "Myan": 4642,
      "Nation": 4643,
      "PL": 4644,
      "Pac": 4645,
      "Pall": 4646,
      "Rig": 4647,
      "Rav": 4648,
      "Sem": 4649,
      "SeptemberĠ": 4650,
      "Spec": 4651,
      "Sikh": 4652,
      "Singh": 4653,
      "STO": 4654,
      "Tod": 4655,
      "UP": 4656,
      "UNĠ": 4657,
      "Year": 4658,
      "Yarl": 4659,
      "Zor": 4660,
      "athĠ": 4661,
      "aicĠ": 4662,
      "aut": 4663,
      "a)Ġ": 4664,
      "a),Ġ": 4665,
      "bul": 4666,
      "bleĠ": 4667,
      "bestĠ": 4668,
      "bra": 4669,
      "bread": 4670,
      "bablyĠ": 4671,
      "cor": 4672,
      "cos": 4673,
      "cav": 4674,
      "cityĠ": 4675,
      "coralĠ": 4676,
      "dar": 4677,
      "del": 4678,
      "downĠ": 4679,
      "etic": 4680,
      "ee,Ġ": 4681,
      "farĠ": 4682,
      "federalĠ": 4683,
      "gin": 4684,
      "garl": 4685,
      "gved": 4686,
      "hon": 4687,
      "hil": 4688,
      "hereĠ": 4689,
      "hold": 4690,
      "iorĠ": 4691,
      "ief": 4692,
      "juri": 4693,
      "kaĠ(": 4694,
      "los": 4695,
      "lab": 4696,
      "llĠ": 4697,
      "last": 4698,
      "lateĠ": 4699,
      "ly.Ġ": 4700,
      "law": 4701,
      "livingĠ": 4702,
      "lurtonĠ": 4703,
      "mn": 4704,
      "mad": 4705,
      "main": 4706,
      "ner": 4707,
      "na,Ġ": 4708,
      "oz": 4709,
      "oastr": 4710,
      "pedĠ": 4711,
      "pati": 4712,
      "pli": 4713,
      "past": 4714,
      "pend": 4715,
      "prec": 4716,
      "pharmaceuticalĠ": 4717,
      "ryĠ": 4718,
      "rol": 4719,
      "soĠ": 4720,
      "sur": 4721,
      "sap": 4722,
      "s.ĠTheĠ": 4723,
      "s,[": 4724,
      "son,Ġ": 4725,
      "sĊMainĠarticle:Ġ": 4726,
      "saf": 4727,
      "seri": 4728,
      "summerĠ": 4729,
      "separ": 4730,
      "tand": 4731,
      "tog": 4732,
      "ty,Ġ": 4733,
      "tabl": 4734,
      "uj": 4735,
      "u,Ġ": 4736,
      "uousĠ": 4737,
      "ven": 4738,
      "vol": 4739,
      "vest": 4740,
      "wel": 4741,
      "wil": 4742,
      "wentĠ": 4743,
      "wayĠ": 4744,
      "wood": 4745,
      "wild": 4746,
      "xx": 4747,
      "¦dia": 4748,
      "Ã¦dia": 4749,
      "Å«": 4750,
      "ĊAĠm": 4751,
      "ĠVed": 4752,
      "ĠgeneralĠelection": 4753,
      "ĩà¤¸": 4754,
      "ķà±Īà°µ": 4755,
      "à¤ģ": 4756,
      "eĠonĠ": 4757,
      "th-largestĠ": 4758,
      "throp": 4759,
      ",Ġ6": 4760,
      ",ĠanĠ": 4761,
      ",ĠbetweenĠ": 4762,
      ",ĠwhoĠ": 4763,
      ",ĠduringĠtheĠ": 4764,
      "sĠwhichĠ": 4765,
      "sĠonĠtheĠ": 4766,
      "erenc": 4767,
      "ersĠinĠ": 4768,
      "ermin": 4769,
      "ink": 4770,
      "inte": 4771,
      "ine.Ġ": 4772,
      "internationalĠ": 4773,
      "alge": 4774,
      "alwar": 4775,
      "alread": 4776,
      "ark": 4777,
      "area": 4778,
      "artis": 4779,
      "orallyĠ": 4780,
      "yĠ(": 4781,
      "yĠinĠ": 4782,
      "tĠandĠ": 4783,
      "onz": 4784,
      "onsĠ": 4785,
      "ontĠ": 4786,
      "ones": 4787,
      "edĠasĠaĠ": 4788,
      "ofĠS": 4789,
      "ofĠwhichĠ": 4790,
      "enact": 4791,
      "andit": 4792,
      "Indir": 4793,
      "estic": 4794,
      "es,ĠandĠ": 4795,
      "ese,Ġ": 4796,
      "IndiaĊĊ": 4797,
      "andĠM": 4798,
      "andĠFor": 4799,
      "andĠeasternĠ": 4800,
      "andĠNewĠYork:Ġ": 4801,
      "alĠtre": 4802,
      "alĠPopulationĠ": 4803,
      "richĠ": 4804,
      "inĠitsĠ": 4805,
      "is,Ġ": 4806,
      "isation": 4807,
      ".ĊG": 4808,
      ".ĊFisherĠ2018,Ġp.Ġ": 4809,
      "chas": 4810,
      "chos": 4811,
      "choseĠ": 4812,
      "chordĠ": 4813,
      "childĠ": 4814,
      "renĠ": 4815,
      "refl": 4816,
      "return": 4817,
      "erĠtheĠ": 4818,
      "erĠinĠ": 4819,
      "erĠtoĠ": 4820,
      "erĠisĠ": 4821,
      "ingsĠ": 4822,
      "inglyĠ": 4823,
      "aĠofĠ": 4824,
      "ator": 4825,
      "atedĠbyĠ": 4826,
      "oĠsap": 4827,
      "oul": 4828,
      "à±įĊ": 4829,
      "asternĠ": 4830,
      "icon": 4831,
      "itec": 4832,
      "itationĠ": 4833,
      "ingĠofĠtheĠ": 4834,
      "à±įà°¡": 4835,
      "toĠhaveĠ": 4836,
      "esĠofĠtheĠ": 4837,
      "et,Ġ": 4838,
      "etweenĠ": 4839,
      "etwork": 4840,
      "à°¾à°ļ": 4841,
      "ureĠofĠ": 4842,
      "ureĠofĠtheĠ": 4843,
      "urban": 4844,
      "ams": 4845,
      "amedĠ": 4846,
      "among": 4847,
      "190": 4848,
      "econd": 4849,
      "oln": 4850,
      "olid": 4851,
      "ely,Ġ": 4852,
      "electionĠ": 4853,
      "elementsĠ": 4854,
      "ultĠ": 4855,
      "ulkeĠ": 4856,
      "à¤¿à¤Ń": 4857,
      ".[19": 4858,
      ".[26": 4859,
      ".[15": 4860,
      "adem": 4861,
      "igar": 4862,
      "]ĠIndiaĠ": 4863,
      "]ĠIndiaĠhasĠ": 4864,
      "ilit": 4865,
      "à¤°à¤¾à¤ľà¥įà¤¯": 4866,
      "thĠcenturi": 4867,
      ".ĠItsĠ": 4868,
      "st,Ġ": 4869,
      "statistic": 4870,
      "roti": 4871,
      "anĠtoĠ": 4872,
      "again": 4873,
      "ageĠofĠ": 4874,
      "ofĠtheĠworld'sĠ": 4875,
      "ofĠtheĠWorld": 4876,
      "irm": 4877,
      "usionĠ": 4878,
      "ist.Ġ": 4879,
      "Ġà¤ķà¥įà¤·à¥ĩà¤¤à¥įà¤°": 4880,
      "acmill": 4881,
      "accord": 4882,
      "à°¿à°§": 4883,
      ";ĠP": 4884,
      "à¥ĩĠà¤¦": 4885,
      "à°Ĥà°ª": 4886,
      "ower": 4887,
      "owingĠ": 4888,
      "oward": 4889,
      "atĠG": 4890,
      "Ġ(eds.).Ġ": 4891,
      "osisĠ": 4892,
      "oseĠm": 4893,
      "avid": 4894,
      ".ĠISBNĠ978-9": 4895,
      "hib": 4896,
      "able": 4897,
      "à¥ĭà¤ľ": 4898,
      ".ĠRetrievedĠ2": 4899,
      ".ĠRetrievedĠ16": 4900,
      ".ĠRetrievedĠ29": 4901,
      "apat": 4902,
      "appearĠ": 4903,
      "tion.[": 4904,
      "trainĠ": 4905,
      "externalĠ": 4906,
      "inĠtheĠworld": 4907,
      "shar": 4908,
      "shareĠ": 4909,
      "shallĠ": 4910,
      "shaw": 4911,
      ",Ġp.Ġ24": 4912,
      "à°¤à±įà°µ": 4913,
      "e,ĠJ": 4914,
      "00ĠCE": 4915,
      "à°°à±ģ": 4916,
      "à¤®à¥ģà¤": 4917,
      "à¤®à¤¾à¤£": 4918,
      "ArchivedĠfromĠtheĠoriginalĠonĠ": 4919,
      "ocia": 4920,
      "ocalĠ": 4921,
      ".Ġ(2016": 4922,
      "\".ĠIndiaĠ": 4923,
      "\".ĠEncyclop": 4924,
      "wasĠemploy": 4925,
      ",ĠtheĠhighestĠ": 4926,
      "oge": 4927,
      "withĠanĠ": 4928,
      "withĠitsĠ": 4929,
      "withĠhisĠ": 4930,
      "teen": 4931,
      "teaĠ": 4932,
      "teach": 4933,
      "][36": 4934,
      "][37": 4935,
      "uduch": 4936,
      "ionsĠ": 4937,
      "ions,Ġ": 4938,
      "172": 4939,
      "179": 4940,
      "compar": 4941,
      "complex": 4942,
      ".ĠArchivedĠfromĠtheĠoriginalĠonĠ16": 4943,
      ".ĠArchivedĠfromĠtheĠoriginalĠonĠ24": 4944,
      ".ĠArchivedĠfromĠtheĠoriginalĠonĠ30": 4945,
      ".ĠArchivedĠfromĠtheĠoriginalĠonĠ22": 4946,
      "ucialĠ": 4947,
      "ewher": 4948,
      "a,ĠS": 4949,
      "168": 4950,
      "emberĠofĠtheĠ": 4951,
      "propos": 4952,
      "Ġmathematic": 4953,
      "15âĢĵ": 4954,
      "1500ĠBCE": 4955,
      "toĠtheĠright": 4956,
      "bey": 4957,
      "behind": 4958,
      "whichĠisĠ": 4959,
      "whichĠwasĠ": 4960,
      "whichĠhasĠ": 4961,
      "à±Ģà°¤": 4962,
      "pris": 4963,
      "]ĊĊInĠtheĠ": 4964,
      "black": 4965,
      "endĠofĠtheĠ": 4966,
      "languages,Ġ": 4967,
      "à¤¦à¥įà¤¯": 4968,
      "whoseĠm": 4969,
      "formalĠ": 4970,
      "AsiaĠ": 4971,
      "28Ġ": 4972,
      "28]Ġ": 4973,
      "centreĠ": 4974,
      "253": 4975,
      "ratherĠ": 4976,
      "porter": 4977,
      "à¤°à¥įà¤¤": 4978,
      "Energ": 4979,
      "athur": 4980,
      "associa": 4981,
      "ajorĠ": 4982,
      "percent": 4983,
      "es,ĠorĠ": 4984,
      "ountain": 4985,
      "ĠJulyĠ2019": 4986,
      "ĠJulyĠ2011.ĠRetrievedĠ": 4987,
      "ordin": 4988,
      "marri": 4989,
      "margin": 4990,
      "iesĠofĠ": 4991,
      "iesĠinĠ": 4992,
      "iesĠinĠtheĠ": 4993,
      "culosisĠ": 4994,
      "&ĠRothermund": 4995,
      "2018).Ġ\"": 4996,
      "others,Ġ": 4997,
      "edĠinĠaĠ": 4998,
      "time,Ġ": 4999,
      "timeĠandĠ": 5000,
      "flag": 5001,
      "bronz": 5002,
      "SouthĠIndiaĉ": 5003,
      ".ĠISBNĠ978-1-3": 5004,
      "ology.Ġ": 5005,
      ".ĠSAGE": 5006,
      "relativeĠ": 5007,
      "relationsĠ": 5008,
      "berculosisĠ": 5009,
      "discrimin": 5010,
      "citi": 5011,
      "AlthoughĠ": 5012,
      "strati": 5013,
      "coal": 5014,
      "co-oper": 5015,
      "yearsĠofĠ": 5016,
      "2006).Ġ\"": 5017,
      "art,Ġ": 5018,
      "engu": 5019,
      "okaĠ": 5020,
      "ĠtoĠ2023": 5021,
      "panoram": 5022,
      "tradeĠ": 5023,
      "AnandĠ": 5024,
      ").ĠTheĠOxfordĠ": 5025,
      "2011.Ċ\"": 5026,
      "declin": 5027,
      "s.ĠOxfordĠUniversityĠPress": 5028,
      "eĠinĠS": 5029,
      "ĠAugustĠ2011.ĠRetrievedĠ": 5030,
      "socie": 5031,
      "consolid": 5032,
      "commonlyĠ": 5033,
      "commerc": 5034,
      "rece": 5035,
      "recentĠ": 5036,
      "o-dar": 5037,
      "]ĊĠA": 5038,
      "butĠnotĠ": 5039,
      "NewĠDelhi": 5040,
      "numb": 5041,
      "numer": 5042,
      "ardenĠ": 5043,
      "à°¾à°¨à°¿à°ķà°¿Ġà°": 5044,
      "on,ĠN": 5045,
      "esĠofĠIndiaĠ": 5046,
      "ĠMayĠ2011.ĠRetrievedĠ": 5047,
      "ization": 5048,
      "izont": 5049,
      "geographicalĠ": 5050,
      "thoughtĠ": 5051,
      "intoĠaĠ": 5052,
      "itiveĠ": 5053,
      "religi": 5054,
      "Ġcour": 5055,
      "Ambed": 5056,
      "thĠcentury": 5057,
      "includeĠ": 5058,
      "largestĠpopulationĠofĠ": 5059,
      "entialĠ": 5060,
      "entireĠ": 5061,
      "Ġbi": 5062,
      "Ġbas": 5063,
      "perienc": 5064,
      "Republic": 5065,
      "375": 5066,
      "2020).Ġ\"": 5067,
      "Ġà¤°à¤¾à¤ľ": 5068,
      "limitedĠ": 5069,
      "extinc": 5070,
      "pectiv": 5071,
      "remainĠ": 5072,
      "etherĠ": 5073,
      "attle": 5074,
      "attemp": 5075,
      "Times": 5076,
      "Times.Ġ": 5077,
      "supremeĠ": 5078,
      "primaryĠ": 5079,
      "\"ĠorĠ": 5080,
      "historicalĠ": 5081,
      "traditionallyĠ": 5082,
      ".ĊĠBlurtonĠ": 5083,
      "modernĠhumansĠ": 5084,
      "varaĠ": 5085,
      "variousĠ": 5086,
      "presentĠ": 5087,
      "Indo-GangeticĠ": 5088,
      "ityĊ": 5089,
      "developmentĠ": 5090,
      "riseĠ": 5091,
      "socialĠreform": 5092,
      "provinc": 5093,
      "provision": 5094,
      "isĠaĠn": 5095,
      "2026,Ġ": 5096,
      "occas": 5097,
      "occurr": 5098,
      "duringĠMughalĠ": 5099,
      "northernĠIndiaĠ": 5100,
      "south-": 5101,
      "eyĠ&ĠS": 5102,
      "33-7": 5103,
      "poin": 5104,
      "theyĠwereĠ": 5105,
      "danceĉ": 5106,
      "dance-dram": 5107,
      "es.[10": 5108,
      "playerĠ": 5109,
      "European": 5110,
      "ĠNovemberĠ2025": 5111,
      "hymn": 5112,
      ".ĊPandit": 5113,
      "ildrenĠ": 5114,
      "toĠbeĠtheĠ": 5115,
      "constitution": 5116,
      "constitutionĠ": 5117,
      "constitutionalĠ": 5118,
      ".[406]Ġ": 5119,
      ".ĠRoutledgeĠ": 5120,
      "market": 5121,
      ".\"ĊĠD": 5122,
      "people": 5123,
      "HimalayanĠ": 5124,
      "Bhut": 5125,
      "UnitedĠStat": 5126,
      "ofĠIndiaĊIndiaĠ": 5127,
      "aith": 5128,
      "alsĠPaperĠ": 5129,
      "capac": 5130,
      "workforceĠ": 5131,
      "NewĠYorkĠ": 5132,
      "dueĠtoĠtheĠ": 5133,
      "ship": 5134,
      "à±Ĭà°¦": 5135,
      "PunjabĠ": 5136,
      "inĠIndiaĠfromĠ": 5137,
      "speciesĠ": 5138,
      "CollegeĠ": 5139,
      "divor": 5140,
      "division": 5141,
      "thereĠareĠ": 5142,
      "thereĠwereĠ": 5143,
      "alitionĠ": 5144,
      "iaĠPress": 5145,
      "mean": 5146,
      ".ĠJSTO": 5147,
      ".ĊĠAsherĠ&ĠTalbotĠ2022": 5148,
      ".ĊĠAsherĠ&ĠTalbotĠ2006,Ġp.Ġ": 5149,
      "Scho": 5150,
      "republicĠ": 5151,
      "ysonĠ2018,Ġp.Ġ": 5152,
      "ysonĠ2018,Ġpp.Ġ": 5153,
      "Ġà°¨Ġà°Ĩà°°à±įà°": 5154,
      "termĠ'": 5155,
      "influencedĠ": 5156,
      "influencesĠ": 5157,
      "disputesĠ": 5158,
      "aintain": 5159,
      "Marria": 5160,
      "Culture": 5161,
      "heav": 5162,
      "till": 5163,
      "cookedĠ": 5164,
      "violentĠ": 5165,
      "occupation,Ġ": 5166,
      "speakers": 5167,
      "governmentsĠ": 5168,
      "Â°Ġ": 5169,
      "691-": 5170,
      "DuringĠthisĠ": 5171,
      "WhatĠ": 5172,
      "involv": 5173,
      "Nataraj": 5174,
      "WesternĠGhat": 5175,
      "broth": 5176,
      "democraticĠ": 5177,
      "villageĠ": 5178,
      "astronom": 5179,
      "ArabianĠ": 5180,
      "Shiv": 5181,
      "DeccanĠ": 5182,
      "Dance": 5183,
      "Dance-dram": 5184,
      "levelĠ": 5185,
      ".ĠCambridgeĠUniversityĠPress.ĠISBNĠ978-0-521-": 5186,
      "classĠ": 5187,
      "protectedĠ": 5188,
      "ContemporaryĠ": 5189,
      "growthĠrateĠ": 5190,
      "casteĠsystemĠ": 5191,
      ",000ĠyearsĠago,Ġ": 5192,
      "BJPĠ": 5193,
      "ThomasonĠ": 5194,
      "WileyĠ&ĠS": 5195,
      "WestĠBengal": 5196,
      "distinc": 5197,
      "self": 5198,
      "animalĠ": 5199,
      ".ĊĠTrits": 5200,
      "rockyĠ": 5201,
      "ĠbillionĠinĠ": 5202,
      "OrganizationĠ": 5203,
      "\".ĠTheĠTimesĠofĠIndia.ĠArchivedĠfromĠtheĠoriginalĠonĠ": 5204,
      "reven": 5205,
      "WomenĠinĠ": 5206,
      "therefor": 5207,
      "particip": 5208,
      "consump": 5209,
      "AmericanĠ": 5210,
      "hereditaryĠ": 5211,
      "BuddhismĠandĠ": 5212,
      "Indo-Aryan": 5213,
      "Indo-AryanĠ": 5214,
      "schoolĠ": 5215,
      "LuddenĠ2014,Ġp.Ġ": 5216,
      "LuddenĠ2014,Ġpp.Ġ": 5217,
      "Financ": 5218,
      "à±ģà°Ĥà°¡à°¿Ġ": 5219,
      "Ċà°ľà°¾à°¤à±Ģà°¯": 5220,
      "IndiaĠisĠtheĠworld'sĠ": 5221,
      "TotalsĠPaperĠ": 5222,
      "Uttar": 5223,
      "renew": 5224,
      "tellingĠ": 5225,
      "visib": 5226,
      "areas.[3": 5227,
      "riĠLank": 5228,
      "TheirĠ": 5229,
      "ThereĠareĠ": 5230,
      ".ĊĠWolpertĠ": 5231,
      "advanc": 5232,
      "CholaĠ": 5233,
      "whatĠisĠ": 5234,
      "EnvironmentĠandĠFor": 5235,
      "PrincetonĠ": 5236,
      "CommonwealthĠofĠ": 5237,
      "Ġà°Ńà°¾à°·": 5238,
      "tlasĠ": 5239,
      ",ĠRajatĠ(": 5240,
      "KrishnaĠ": 5241,
      "Mohenj": 5242,
      "detail": 5243,
      "halfĠ": 5244,
      "missingĠ": 5245,
      "singleĠ": 5246,
      "immediatelyĠ": 5247,
      "averageĠ": 5248,
      ".ĠRetrievedĠ24ĠJulyĠ2011.Ċ": 5249,
      "project": 5250,
      "beforeĠtheĠ": 5251,
      "decadesĠ": 5252,
      "NationalĠPark,Ġ": 5253,
      "world'sĠsecond-largestĠ": 5254,
      "createdĠaĠ": 5255,
      "Bangalor": 5256,
      "successful": 5257,
      "engineeringĠcollegeĠ": 5258,
      "EighthĠScheduleĠ": 5259,
      "eventuallyĠ": 5260,
      "ProvisionalĠPopulationĠ": 5261,
      "However,Ġ": 5262,
      "[16]Ġ(": 5263,
      "\".ĠBusinessĠ": 5264,
      "à°¨à°¾à°Ń": 5265,
      "achalĠPradeshĊ": 5266,
      "bodyĠgar": 5267,
      "Government": 5268,
      "JanataĠ": 5269,
      "Japan": 5270,
      "Perform": 5271,
      "River": 5272,
      "vulner": 5273,
      "wards,Ġ": 5274,
      "elsewher": 5275,
      "accompani": 5276,
      "example": 5277,
      ".ĠISBNĠ978-0-415": 5278,
      "otspot": 5279,
      "didĠnotĠ": 5280,
      "trigonometr": 5281,
      "empireĠ": 5282,
      "Africa.Ġ": 5283,
      "ClassicalĠ": 5284,
      "vegetarianĠ": 5285,
      "Sikkim": 5286,
      "à±ģĠà°ļà±Ĩà°¯à±įà°¯à°¬à°¡": 5287,
      "fficeĠofĠtheĠRegistrarĠGeneralĠ&ĠCensusĠCommissioner,ĠIndia": 5288,
      "Referenc": 5289,
      "IndusĠValleyĠ": 5290,
      "-selectiveĠ": 5291,
      "1ĠofĠ2011Ġ": 5292,
      "Bourbak": 5293,
      "HomoĠsap": 5294,
      "Hayashi": 5295,
      "JawaharlalĠNehru": 5296,
      "Pallav": 5297,
      "YarlungĠ": 5298,
      "Zoroastr": 5299,
      "coralĠtre": 5300,
      "willĠ": 5301,
      "Ã¦diaĠBritannic": 5302,
      "ķà±Īà°µà±ģĠà°ļà±Ĩà°¯à±įà°¯à°¬à°¡": 5303,
      "integr": 5304,
      "algebra": 5305,
      "alreadyĠ": 5306,
      "IndiraĠGandhi": 5307,
      "chosenĠ": 5308,
      "itecture": 5309,
      "ulkeĠ&ĠRothermund": 5310,
      "againstĠ": 5311,
      "shawlĠ": 5312,
      "wasĠemployedĠinĠ": 5313,
      "uducherr": 5314,
      "behindĠ": 5315,
      "whoseĠmember": 5316,
      "centreĠofĠIndia'sĠ": 5317,
      "EnergyĠ": 5318,
      ".ĠSAGEĠ": 5319,
      "commercialĠ": 5320,
      ".ĊĠBlurtonĠ1993": 5321,
      "dance-dramasĠ": 5322,
      ".ĊPandit,ĠRajatĠ(": 5323,
      "workforceĠwasĠemployedĠinĠ": 5324,
      ".ĠJSTORĠ": 5325,
      "Ġà°¨Ġà°Ĩà°°à±įà°ķà±Īà°µà±ģĠà°ļà±Ĩà°¯à±įà°¯à°¬à°¡": 5326,
      "Dance-dramaĉ": 5327,
      ".ĊĠTritschĠ2001": 5328,
      "TotalsĠPaperĠ1ĠofĠ2011Ġ": 5329,
      "EnvironmentĠandĠForest": 5330,
      "Mohenjo-dar": 5331,
      "ProvisionalĠPopulationĠTotalsĠPaperĠ1ĠofĠ2011Ġ": 5332,
      "HomoĠsapi": 5333,
      "ulkeĠ&ĠRothermundĠ": 5334,
      "4%": 5335,
      "inĠ(": 5336,
      "report": 5337,
      "à¥Ģà¥¤": 5338,
      "à¤¤à¤¿à¤¹": 5339,
      "Ġà¤ķà¤¿à¤¯": 5340,
      "à¥ĢĠà¤Ńà¤¾à¤°à¤¤": 5341,
      "à¤¸à¤Ĥà¤": 5342,
      "à¥ģà¤µ": 5343,
      "Ġà¤®à¥ĭ": 5344,
      "Ġà¤®à¤¹": 5345,
      "à¤Ĥà¤ľ": 5346,
      "à¥Ĥà¤ļ": 5347,
      ".;ĠTal": 5348,
      "Ġà¤¹à¤¿à¤¨à¥įà¤¦": 5349,
      "Ġà¤ķà¥ĩĠà¤²": 5350,
      "à¤£à¤¿": 5351,
      "yson,Ġ": 5352,
      "bot,ĠC": 5353,
      "BeforeĠEurop": 5354,
      "à¥įà¤¯à¤µà¤¸à¥įà¤¥": 5355,
      "à¤µà¤°à¥ĢĠ": 5356,
      "à¤¤à¤¿à¤¹à¤¾à¤¸": 5357,
      ".;ĠTalbot,ĠC": 5358,
      ".1": 5359,
      "2]Ċ": 5360,
      "62": 5361,
      "Tri": 5362,
      "eeĠ": 5363,
      "Ġà°Ńà°¾à°°à°¤": 5364,
      "à¥ĩ,Ġ": 5365,
      "à°¿.ĊĊ": 5366,
      "à¥Ģà¤ķ": 5367,
      "à±ģà°Ĺ": 5368,
      "à°Ĥ:": 5369,
      "à°Ĥ,Ġ": 5370,
      "à°Ĥà°ķ": 5371,
      "à¥ĢĠà¤¶": 5372,
      "à°°à°£": 5373,
      "à¥ģà¤¦": 5374,
      "leĠtoĠtheĠ": 5375,
      "Ġà¤¸à¤Ĥà¤¸à¥įà¤ķà¥ĥà¤¤": 5376,
      "à±Ģà°¨": 5377,
      "à¥Īà¤²": 5378,
      "à¤°à¥įà¤ľ": 5379,
      "Ġà¤ķà¥ĩĠà¤¬": 5380,
      "à±Ĩà°¦à±įà°¦": 5381,
      "Ġà¤µà¤°à¥įà¤·": 5382,
      "ĠNationalĠ": 5383,
      "à°Ĺà±įà°°": 5384,
      ",Ġà°¬": 5385,
      "Population": 5386,
      "à°Ĥà°Ĺà°¾": 5387,
      ",ĠDavidĠ": 5388,
      "à°¿à°Ĥà°ļà°¿à°¨": 5389,
      "CountryĠ": 5390,
      "CommissionerĠ": 5391,
      "2011ĠCensusĠ": 5392,
      "à¥ĢĠà¤®à¥ĩà¤Ĥ": 5393,
      "à°¤à±įà°¤à°°": 5394,
      "Ġà°µà±įà°¯à°µà°¸à±įà°¥": 5395,
      "à¤®à¥įà¤¬à¤°Ġ": 5396,
      ")\"Ġ(PDF).Ġ": 5397,
      ".7": 5398,
      "IL": 5399,
      "SinceĠ": 5400,
      "back": 5401,
      "dataĠ": 5402,
      "w.": 5403,
      "ĠâĢĵĠ": 5404,
      "ħà¤§à¤¿à¤ķ": 5405,
      "à¤¾Ġ": 5406,
      "à¤¾à¤ĸ": 5407,
      "asĠanĠ": 5408,
      "enty-": 5409,
      "à¤¾Ġà¤ħ": 5410,
      "à¤¾Ġà¤ªà¥įà¤°": 5411,
      "à¤¾à¤°à¤£": 5412,
      "à¤ķà¥įà¤°": 5413,
      "à¥įà¤¯à¤¾à¤ļ": 5414,
      "à¤²à¥ĩà¤²": 5415,
      "à¥Ĥà¤®": 5416,
      "ĠofĠIndiaĠ": 5417,
      "à¤¦à¤¾à¤°": 5418,
      "contain": 5419,
      "2010).Ġ\"": 5420,
      "à¤¿à¤ķà¥įà¤·": 5421,
      "Anthem": 5422,
      "Programm": 5423,
      "à¥įà¤µà¤¾à¤°": 5424,
      "2004,Ġp.Ġ": 5425,
      "à¤¾à¤¹à¤¿à¤¤": 5426,
      "à¤¿à¤µà¤¿à¤§": 5427,
      "1965,Ġ": 5428,
      "www.": 5429,
      "LinguisticĠMin": 5430,
      "Ġkm2Ġ(1,269,": 5431,
      "reedom": 5432,
      "à¤Ĥà¤Ĺà¥įà¤°à¥ĩà¤ľà¤¼": 5433,
      "LinguisticĠMinor": 5434,
      ",6": 5435,
      "119": 5436,
      "115": 5437,
      "113": 5438,
      "2ĉ": 5439,
      "75": 5440,
      "96": 5441,
      "Div": 5442,
      "Fl": 5443,
      "efĠ": 5444,
      "ue:Ġ": 5445,
      "¯à¥ģ": 5446,
      "°à¤¾à¤ľ": 5447,
      "Ċ(": 5448,
      "ĠC": 5449,
      "in-": 5450,
      ".ĊW": 5451,
      "à°¿Ġà°ªà±įà°°": 5452,
      "à°¾à°§": 5453,
      "à°¾à°ĸ": 5454,
      "ilomet": 5455,
      "à±ģà°®": 5456,
      "à°ĤĠ": 5457,
      "Ġà¤ķà¥ĩà¤Ĥà¤¦à¥įà¤°": 5458,
      "lyĠbyĠ": 5459,
      "à°Ĥà°§": 5460,
      "à¥ĢĠà¤ªà¥įà¤°": 5461,
      "à°¤à°Ĥà°¤à±įà°°": 5462,
      "à¤®à¥ĩà¤Ĥ": 5463,
      "à¥ģà¤ª": 5464,
      "s,ĠGovernmentĠofĠIndia.Ġ": 5465,
      "à¤Ĥà¤ļ": 5466,
      "à°¦à°ķà±įà°·à°¿à°£": 5467,
      "à°¾à°°à±įà°Ł": 5468,
      "Ġà¤ªà¥Ĥà¤°à¥įà¤µ": 5469,
      "143": 5470,
      "à¤ªà¤¨": 5471,
      "à¤ªà¥Ĥà¤°à¥įà¤µ": 5472,
      "à°ªà°¾à°²": 5473,
      "à°ªà±ģĠà°": 5474,
      "à°µà°¿à°": 5475,
      "à±ĭĠà°ķà±Ĥà°¡": 5476,
      "WorldĠEconomicĠ": 5477,
      "à°¾Ġà°¸": 5478,
      "à±Ĥà°ª": 5479,
      "1974": 5480,
      "Ġà°ªà±įà°°à°ªà°Ĥà°ļ": 5481,
      "à¤¾à¤¸à¥įà¤¤": 5482,
      "lookĠ": 5483,
      "Ġà°ķà°¾à°²": 5484,
      "Ġà°°à°¾à°ľà±įà°¯": 5485,
      "à°°à°¿à°¤à±įà°°": 5486,
      "partlyĠbyĠ": 5487,
      "à°Ńà±ģà°¤": 5488,
      "à¤¿à¤°à¥įà¤®": 5489,
      "ThomasĠ": 5490,
      "OutlookĠ": 5491,
      "à°ĸà±įà°¯": 5492,
      "à¥ĥà¤·à¥įà¤Ł": 5493,
      "Ġkilomet": 5494,
      "à¤¿à¤¤à¥įà¤°à¤ªà¤Ł": 5495,
      "LibraryĠofĠCongressĠ": 5496,
      "Ethnolog": 5497,
      "à°¾à°°à±įà°Łà±Ģ": 5498,
      "à°Ńà±ģà°¤à±įà°µ": 5499,
      "\".ĠI": 5500,
      ");Ġ": 5501,
      "04": 5502,
      "313": 5503,
      "41": 5504,
      "4,Ġ": 5505,
      "71": 5506,
      "99": 5507,
      "9][": 5508,
      "D.;Ġ": 5509,
      "NA": 5510,
      "NE": 5511,
      "RedĠ": 5512,
      "Rul": 5513,
      "RÄģ": 5514,
      "SS": 5515,
      "UT": 5516,
      "Word": 5517,
      "gleĠ": 5518,
      "getĠ": 5519,
      "liv": 5520,
      "m-": 5521,
      "ningĠ": 5522,
      "saiĠ": 5523,
      "ªà¥ģà¤°": 5524,
      "âĤ": 5525,
      "eĠisĠ": 5526,
      ",Ġà¤¸": 5527,
      "ed.Ġ": 5528,
      "edabad": 5529,
      "onk": 5530,
      "edĠMovement": 5531,
      "ankĠ": 5532,
      "aĠPradesh": 5533,
      "ouĠ": 5534,
      "emor": 5535,
      "eterĠ(": 5536,
      "ures,Ġ": 5537,
      "olsĠ": 5538,
      "à¤¿à¤ĸ": 5539,
      "à¤°à¤¤": 5540,
      "à¤°à¥įà¤¯": 5541,
      "aglia": 5542,
      "ofĠtheĠM": 5543,
      "enĠ(": 5544,
      "actĠ": 5545,
      "à¤¾Ġà¤Ķà¤°Ġà¤": 5546,
      "109": 5547,
      "à¥ĭà¤¡à¤¼": 5548,
      "à¤¸à¤Ń": 5549,
      "Chap": 5550,
      "ffer": 5551,
      "16/": 5552,
      "ott": 5553,
      "whichĠareĠ": 5554,
      "à¥ĩà¤£": 5555,
      "à¤¦à¤²": 5556,
      "eĠofĠtheirĠ": 5557,
      ".;ĠF": 5558,
      "121": 5559,
      "à¤ļà¥įà¤¯à¤¾Ġà¤": 5560,
      "symb": 5561,
      "disc": 5562,
      "Align": 5563,
      "à¤¾à¤Ĥà¤Ĺ": 5564,
      "seeĠ": 5565,
      "ĠAprilĠ2014": 5566,
      "ĠAprilĠ2016": 5567,
      "easeĠ": 5568,
      "articlesĠ": 5569,
      "nationalĠlanguage": 5570,
      "ressĠTr": 5571,
      "NationalĠInformaticsĠ": 5572,
      "IndiaĠandĠPakistanĠ": 5573,
      "descri": 5574,
      "hyaĠPradesh": 5575,
      "BhÄģr": 5576,
      "regionĠofĠtheĠ": 5577,
      "HistoryĠofĠtheĠ": 5578,
      "HistoryĠofĠIndia:Ġ": 5579,
      "Ġà¤ĩà¤Ĥà¤¡": 5580,
      ",ĠBarbaraĠ": 5581,
      "below": 5582,
      "composedĠ": 5583,
      "country'sĠ": 5584,
      "basedĠonĠ": 5585,
      "etraglia": 5586,
      "Duration:Ġ": 5587,
      "à¤¿à¤§à¤¾à¤¨": 5588,
      "Devanag": 5589,
      "\".ĠTheĠTimesĠofĠIndia.Ġ": 5590,
      "organisationĠ": 5591,
      "StatesĠandĠ": 5592,
      "Manipur": 5593,
      "Manipuri": 5594,
      "subjectĠ": 5595,
      "à¤¿à¤¸à¥įà¤¤à¤¾à¤¨": 5596,
      "Non-Align": 5597,
      "VolumeĠ": 5598,
      "à¤¤à¤¾à¤¤.Ġ": 5599,
      "GoldenĠ": 5600,
      "saiĠChin": 5601,
      "âĤ¹": 5602,
      "ressĠTrustĠ": 5603,
      "DevanagariĠ": 5604,
      "Non-AlignedĠMovement": 5605,
      "\"M": 5606,
      "&ĠA": 5607,
      "-IndiaĠ": 5608,
      "/s": 5609,
      "114": 5610,
      "5Ġ": 5611,
      "8]ĊĊ": 5612,
      "9-5": 5613,
      "Ari": 5614,
      "Ali": 5615,
      "Bod": 5616,
      "De": 5617,
      "Dr": 5618,
      "DataĠ": 5619,
      "Fut": 5620,
      "Gr": 5621,
      "Gond": 5622,
      "Leg": 5623,
      "Monso": 5624,
      "Rog": 5625,
      "Servic": 5626,
      "Tig": 5627,
      "TextĠ": 5628,
      "Will": 5629,
      "cil": 5630,
      "deĠ": 5631,
      "denĠ": 5632,
      "fram": 5633,
      "giv": 5634,
      "haĠ": 5635,
      "ith": 5636,
      "lv": 5637,
      "men": 5638,
      "neg": 5639,
      "nutri": 5640,
      "pit": 5641,
      "t,ĠM": 5642,
      "®à°¾à°°à±įà°Ĺ": 5643,
      "Ã¼": 5644,
      "ĊC": 5645,
      "Ġ\"": 5646,
      "ĩà°¦": 5647,
      "ļà±ĩà°": 5648,
      "à°«": 5649,
      ".Ġ2": 5650,
      ".ĠE": 5651,
      "thoseĠ": 5652,
      "er.Ġp.Ġ": 5653,
      "alm": 5654,
      "arti": 5655,
      "arah": 5656,
      "alĠofĠtheĠ": 5657,
      "isionĠ": 5658,
      "Ġà°¬": 5659,
      "itor": 5660,
      "etsĠ": 5661,
      "Thir": 5662,
      "ThreatenedĠ": 5663,
      "uredĠ": 5664,
      "1951": 5665,
      "ectĠ": 5666,
      "adas": 5667,
      "room": 5668,
      "à¤¤à¤®": 5669,
      "agre": 5670,
      "âĢĵ2012": 5671,
      "usedĠinĠ": 5672,
      "à°¿à°·": 5673,
      "à°¿à°Ł": 5674,
      "ations,Ġ": 5675,
      "à¥ĩĠà¤Ĩà¤¹à¥ĩ": 5676,
      "NĠRedĠ": 5677,
      "à¤¾Ġà¤¬": 5678,
      "abin": 5679,
      "ung": 5680,
      "à¥įà¤¯à¤¾à¤Ĥà¤ļ": 5681,
      "ChandĠ": 5682,
      "Ġà¤¸à¥ĩĠ": 5683,
      ",Ġpp.Ġ14": 5684,
      "plan": 5685,
      "à¤¹à¤¿à¤¨à¥įà¤¦": 5686,
      "261-": 5687,
      "à±ĭà°°": 5688,
      "à°¦à°¾à°¯": 5689,
      "à°ķà±ģ": 5690,
      "140": 5691,
      "à°¾à°²à°²à±ĭĠà°": 5692,
      "language,Ġ": 5693,
      "286": 5694,
      "28âĢĵ29": 5695,
      "areĠtheĠ": 5696,
      "à°ªà±įà°ª": 5697,
      "ewĠofĠtheĠ": 5698,
      "Ġà¤ķà¥ĩĠà¤ħà¤¨": 5699,
      "à°¿Ġà°®": 5700,
      "2007).Ġ": 5701,
      ",[25": 5702,
      "à¤¾à¤Ĥà¤®à¤§à¥įà¤¯": 5703,
      "à°¾Ġà°µ": 5704,
      "economy": 5705,
      "sĠinĠIndiaĠ": 5706,
      "Ġà°¸à°®": 5707,
      "itionsĠ": 5708,
      "populousĠ": 5709,
      "northern": 5710,
      "à°°à±įà°£": 5711,
      "à°°à±įà°ª": 5712,
      "à¥ĭà¤ĤĠà¤ķà¥ĭ": 5713,
      "à¤¶à¤¿à¤¯": 5714,
      "à¤¼à¤°": 5715,
      "46âĢĵ": 5716,
      "à°¾à°¤à±įà°°": 5717,
      "à°Ĥà°Ĺà±įà°²": 5718,
      ".Ġ(2000": 5719,
      "atters": 5720,
      "Ġà¤¹à¥Īà¤Ĥ": 5721,
      "\"Ġ(PDF).ĠCurrentĠ": 5722,
      "ity:Ġ": 5723,
      "1994Ġ": 5724,
      "Bihar": 5725,
      "BiodiversityĠ": 5726,
      "Assembl": 5727,
      "scholar": 5728,
      "constitut": 5729,
      "CentralĠIn": 5730,
      ".Ġdoi:10.1016/": 5731,
      "promot": 5732,
      "2005,Ġp.Ġ": 5733,
      "inters": 5734,
      ",Ġp.Ġ118": 5735,
      "à°ªà±įà°°à°§à°¾à°¨": 5736,
      "basedĠ": 5737,
      "fullĠ": 5738,
      "worth": 5739,
      ".ĠOnĠ": 5740,
      "à°ľà°¾à°¤à±Ģà°¯": 5741,
      "book.Ġ": 5742,
      "tiling": 5743,
      "independentĠ": 5744,
      "Stud": 5745,
      "ceed": 5746,
      "airĠpollu": 5747,
      "ļà±Ĩà°Ĥà°¦": 5748,
      "IntroductionĠtoĠtheĠ": 5749,
      "aroundĠtheĠ": 5750,
      "à±įà°ķà±ĥà°¤": 5751,
      "ĉĉĊà°ľà°¾à°¤à±Ģà°¯": 5752,
      "ConservationĠ": 5753,
      "à°¿à°Ĥà°¦à°¿.Ġà°Ĵà°°à°¿à°ľà°¿à°¨à°²à±įĠà°ªà±ĩà°ľà±Ģà°¨à°¿Ġà°ļà±Ĥà°¸à°¿à°¨Ġà°¤à±ĩà°¦à±Ģ:Ġ": 5754,
      "ichael": 5755,
      "à°ķà±įà°ķà±ģà°µ": 5756,
      "1996,Ġp.Ġ": 5757,
      "WildlifeĠ": 5758,
      "udget": 5759,
      "endraĠMod": 5760,
      ".ĠISBNĠ978-1-4020": 5761,
      "ListĠofĠThreatenedĠ": 5762,
      "Review": 5763,
      "CommissionerĠforĠ": 5764,
      "onkan": 5765,
      "Gondwan": 5766,
      "framew": 5767,
      "NĠRedĠListĠofĠThreatenedĠ": 5768,
      "northernmostĠ": 5769,
      "\"Ġ(PDF).ĠCurrentĠScience.Ġ": 5770,
      "\".ĠRe": 5771,
      "%.ĠInĠ": 5772,
      "'ĠtoĠ": 5773,
      "(2011).Ġ": 5774,
      ",9": 5775,
      "-hor": 5776,
      "-speak": 5777,
      "-likeĠ": 5778,
      "..Ċ": 5779,
      ".:Ġ": 5780,
      "/0": 5781,
      "0]ĠTheĠ": 5782,
      "0ĠinĠ": 5783,
      "1ĠmillionĠ": 5784,
      "1ĠDecemberĠ": 5785,
      "2.ĊĠ": 5786,
      "227": 5787,
      "2.ĠISBNĠ978-1-": 5788,
      "318": 5789,
      "4Ġ": 5790,
      "40-": 5791,
      "423": 5792,
      "446": 5793,
      "4-7": 5794,
      "4thĠed.).Ġ": 5795,
      "5ĉ": 5796,
      "51-": 5797,
      "50-": 5798,
      "500ĠBCE": 5799,
      "66": 5800,
      "647": 5801,
      "6ĠMayĠ": 5802,
      "6]ĊĠ": 5803,
      "7%": 5804,
      "7]ĊĊ": 5805,
      "8]ĠandĠ": 5806,
      "Aj": 5807,
      "AtlasĠ": 5808,
      "BĠ": 5809,
      "Ber": 5810,
      "BayĠ": 5811,
      "Bah": 5812,
      "BBCĠNew": 5813,
      "BetweenĠ": 5814,
      "Cal": 5815,
      "Cor": 5816,
      "Cris": 5817,
      "Canal": 5818,
      "Dand": 5819,
      "DanceĠ": 5820,
      "Dunleav": 5821,
      "Ec": 5822,
      "Eg": 5823,
      "Ep": 5824,
      "Es": 5825,
      "E.Ġ(": 5826,
      "Ety": 5827,
      "EasternĠ": 5828,
      "Femal": 5829,
      "Gat": 5830,
      "Hy": 5831,
      "Hav": 5832,
      "J:Ġ": 5833,
      "J.Ġ(": 5834,
      "Jhar": 5835,
      "JainĠ": 5836,
      "King": 5837,
      "Kad": 5838,
      "Karnatak": 5839,
      "Long": 5840,
      "LordĠ": 5841,
      "LocalĠ": 5842,
      "Mal": 5843,
      "Mun": 5844,
      "MemberĠ": 5845,
      "No": 5846,
      "Nam": 5847,
      "Nag": 5848,
      "Num": 5849,
      "Network": 5850,
      "OM": 5851,
      "Op": 5852,
      "Ov": 5853,
      "Ow": 5854,
      "Orig": 5855,
      "Oce": 5856,
      "Odish": 5857,
      "Pat": 5858,
      "Pol": 5859,
      "Prim": 5860,
      "Paul": 5861,
      "Plofk": 5862,
      "Puducherr": 5863,
      "Ris": 5864,
      "Righ": 5865,
      "Son": 5866,
      "Sind": 5867,
      "Sup": 5868,
      "S.;Ġ": 5869,
      "Syn": 5870,
      "Srin": 5871,
      "Tel": 5872,
      "T.;Ġ": 5873,
      "Treat": 5874,
      "Tecton": 5875,
      "Vers": 5876,
      "Wa": 5877,
      "War": 5878,
      "Wid": 5879,
      "WHO": 5880,
      "[3": 5881,
      "].Ġ\"": 5882,
      "a'sĠ": 5883,
      "ainĠtheĠ": 5884,
      "aud": 5885,
      "aĊM": 5886,
      "aâĢĶ": 5887,
      "bh": 5888,
      "bin": 5889,
      "bal": 5890,
      "besĠ": 5891,
      "big": 5892,
      "billionĠ": 5893,
      "backĠ": 5894,
      "born": 5895,
      "c.Ġ": 5896,
      "cin": 5897,
      "cro": 5898,
      "cle": 5899,
      "costĠ": 5900,
      "cru": 5901,
      "cutĠ": 5902,
      "crop": 5903,
      "cert": 5904,
      "cleĠofĠ": 5905,
      "craft": 5906,
      "cattle": 5907,
      "dic": 5908,
      "dep": 5909,
      "doc": 5910,
      "datesĠ": 5911,
      "dressĠ": 5912,
      "dens": 5913,
      "depend": 5914,
      "dyn": 5915,
      "ean": 5916,
      "ey,Ġ": 5917,
      "e.[3": 5918,
      "e)Ġ": 5919,
      "e\".ĠTheĠ": 5920,
      "eign": 5921,
      "equal": 5922,
      "fo": 5923,
      "ffĠ": 5924,
      "fol": 5925,
      "fif": 5926,
      "fellĠ": 5927,
      "fourĠ": 5928,
      "fashi": 5929,
      "func": 5930,
      "freedom": 5931,
      "gasĠ": 5932,
      "gir": 5933,
      "gav": 5934,
      "gress": 5935,
      "gend": 5936,
      "gold": 5937,
      "gainedĠ": 5938,
      "hr": 5939,
      "h,Ġ": 5940,
      "hand": 5941,
      "handĠ": 5942,
      "hol": 5943,
      "had": 5944,
      "hun": 5945,
      "hund": 5946,
      "hub": 5947,
      "ifĠ": 5948,
      "iedĠ": 5949,
      "iĠandĠ": 5950,
      "ipl": 5951,
      "itionĠofĠ": 5952,
      "ies.Ġ": 5953,
      "ies.[": 5954,
      "itherĠ": 5955,
      "jay": 5956,
      "ket": 5957,
      "kep": 5958,
      "kesh": 5959,
      "ling": 5960,
      "lati": 5961,
      "livedĠ": 5962,
      "lay": 5963,
      "ledĠbyĠ": 5964,
      "layĠ": 5965,
      "ledĠtoĠ": 5966,
      "mand": 5967,
      "mass": 5968,
      "man,Ġ": 5969,
      "mamm": 5970,
      "medic": 5971,
      "mÄģy": 5972,
      "maintain": 5973,
      "nin": 5974,
      "nal": 5975,
      "naĠ": 5976,
      "nationĠ": 5977,
      "ner,Ġ": 5978,
      "nations": 5979,
      "narrow": 5980,
      "oin": 5981,
      "oom": 5982,
      "oorĠ": 5983,
      "pet": 5984,
      "piv": 5985,
      "pil": 5986,
      "poli": 5987,
      "pons": 5988,
      "push": 5989,
      "pilgrim": 5990,
      "rati": 5991,
      "rad": 5992,
      "ranĠ": 5993,
      "rup": 5994,
      "rank": 5995,
      "sed": 5996,
      "sonĠ": 5997,
      "sum": 5998,
      "sover": 5999,
      "s\".ĠInĠ": 6000,
      "saw": 6001,
      "s:ĠTheĠ": 6002,
      "soft": 6003,
      "sbur": 6004,
      "sultanateĠ": 6005,
      "skill": 6006,
      "tol": 6007,
      "ters": 6008,
      "torĠ": 6009,
      "tedĠbyĠ": 6010,
      "tedĠtoĠ": 6011,
      "tableĠ": 6012,
      "town": 6013,
      "temper": 6014,
      "u-": 6015,
      "uv": 6016,
      "urid": 6017,
      "ubr": 6018,
      "uardĠ": 6019,
      "varyĠ": 6020,
      "winn": 6021,
      "wildĠ": 6022,
      "yasĠ": 6023,
      "yle": 6024,
      "youn": 6025,
      "yaĠ(": 6026,
      "ynam": 6027,
      "zer": 6028,
      "°à¤¹": 6029,
      "ĊS": 6030,
      "ĠonĠ": 6031,
      "Ġres": 6032,
      "ĠforĠ": 6033,
      "ĠthatĠ": 6034,
      "ĠEng": 6035,
      "Ġroti": 6036,
      "ļgved": 6037,
      "eĠH": 6038,
      "eĠtheirĠ": 6039,
      ".ĠD": 6040,
      ".ĠW": 6041,
      ".ĠTh": 6042,
      ".Ġ24": 6043,
      ".ĠLondon:Ġ": 6044,
      ".ĠOxford": 6045,
      "that": 6046,
      "thenĠ": 6047,
      "thos": 6048,
      ",ĠasĠ": 6049,
      ",Ġ10": 6050,
      ",ĠwithĠ": 6051,
      ",ĠforĠ": 6052,
      ",ĠIndia'sĠ": 6053,
      ",ĠitĠ": 6054,
      ",ĠwhenĠ": 6055,
      ",ĠincludingĠ": 6056,
      "sĠatĠ": 6057,
      "sĠorĠ": 6058,
      "sĠwhoĠ": 6059,
      "sĠinĠIndia,Ġ": 6060,
      "eraĠ": 6061,
      "erlyĠ": 6062,
      "ersĠofĠ": 6063,
      "ersĠandĠ": 6064,
      "eri,Ġ": 6065,
      "inaryĠ": 6066,
      "incom": 6067,
      "insp": 6068,
      "interm": 6069,
      "in,ĠB": 6070,
      "ina;Ġ": 6071,
      "inste": 6072,
      "al,ĠandĠ": 6073,
      "alsĠofĠ": 6074,
      "alsĠandĠ": 6075,
      "although": 6076,
      "alisedĠ": 6077,
      "althoughĠ": 6078,
      "theĠre": 6079,
      "theĠCh": 6080,
      "theĠmajorityĠ": 6081,
      "theĠupperĠ": 6082,
      "theĠThomasonĠ": 6083,
      "arc": 6084,
      "arv": 6085,
      "aris": 6086,
      "arath": 6087,
      "arÄģ": 6088,
      "edlyĠ": 6089,
      "orem": 6090,
      "tileĠ": 6091,
      "tifi": 6092,
      "onal": 6093,
      "oneĠandĠ": 6094,
      "edĠ(": 6095,
      "edĠduringĠtheĠ": 6096,
      "edĠterritor": 6097,
      "edĠthroughĠ": 6098,
      "ofĠCivil": 6099,
      "enac": 6100,
      "enhous": 6101,
      "eningĠofĠtheĠ": 6102,
      "anti": 6103,
      "ania": 6104,
      "anch": 6105,
      "antic": 6106,
      "anab": 6107,
      "ana,Ġ": 6108,
      "anotherĠ": 6109,
      "andĊ": 6110,
      "Industr": 6111,
      "Indones": 6112,
      "esĊĠ": 6113,
      "es,[": 6114,
      "India,ĠandĠ": 6115,
      "India\".ĠTheĠ": 6116,
      "India,Ġp.Ġ16": 6117,
      "andĠ8Ġ": 6118,
      "alĠ(": 6119,
      "alĠD": 6120,
      "rior": 6121,
      "rief": 6122,
      "rific": 6123,
      "inĠT": 6124,
      "inĠAm": 6125,
      "inĠ1950": 6126,
      "inĠintoĠtheĠ": 6127,
      "inĠruralĠ": 6128,
      "inĠturnĠ": 6129,
      "onĠofĠ": 6130,
      "onĠim": 6131,
      "ommar": 6132,
      "ometimesĠ": 6133,
      "isol": 6134,
      "ison,Ġ": 6135,
      ".ĊIndiaĠ": 6136,
      "chap": 6137,
      "chessĠ": 6138,
      "champ": 6139,
      "choic": 6140,
      "churid": 6141,
      "rend": 6142,
      "resĠ(": 6143,
      "erĠ2010": 6144,
      "ing:Ġ": 6145,
      "aĠth": 6146,
      "aĠnewĠ": 6147,
      "aĠCav": 6148,
      "atedĠinĠ": 6149,
      "atedĠbyĠtheĠ": 6150,
      "oĠofĠ": 6151,
      "ourish": 6152,
      "aseĠ": 6153,
      "assĠ": 6154,
      "asar": 6155,
      "iconĠ": 6156,
      "icsĊ": 6157,
      "ati,Ġ": 6158,
      "itch": 6159,
      "ingĠM": 6160,
      "ingĠup": 6161,
      "esĠaĠ": 6162,
      "esĠIndiaĠ": 6163,
      "esĠinĠtheĠ": 6164,
      "esĠwereĠ": 6165,
      "esĠ&Ġ": 6166,
      "emsĠ": 6167,
      "emen": 6168,
      "emission": 6169,
      "urg": 6170,
      ".ĊĠF": 6171,
      ".ĊĠCh": 6172,
      ".ĊĠProvisionalĠPopulationĠTotalsĠPaperĠ1ĠofĠ2011Ġ": 6173,
      "aman": 6174,
      "amĠ(": 6175,
      "amaj": 6176,
      "195": 6177,
      "1935": 6178,
      "ival": 6179,
      "ivas": 6180,
      "asĠwellĠ": 6181,
      "olon": 6182,
      "oli,Ġ": 6183,
      "olkat": 6184,
      "elag": 6185,
      ":ĠG": 6186,
      ":ĠOxfordĠUniversityĠPress": 6187,
      "ular": 6188,
      "ular,Ġ": 6189,
      ").ĠIndia'sĠ": 6190,
      ".[8": 6191,
      ".[13": 6192,
      "adivers": 6193,
      "ada,Ġ": 6194,
      "adwe": 6195,
      "adher": 6196,
      "adhyaĠPradesh": 6197,
      "igenceĠ": 6198,
      "]ĠtheĠ": 6199,
      "]ĠAllĠ": 6200,
      "forc": 6201,
      "fortifi": 6202,
      "stre": 6203,
      "stop": 6204,
      "start": 6205,
      "story": 6206,
      "stanti": 6207,
      "isĠinĠ": 6208,
      "isĠoftenĠ": 6209,
      "root": 6210,
      "roveĠ": 6211,
      "à¤¤à¤¿à¤¶": 6212,
      "anĠPlateau": 6213,
      "dĠsiz": 6214,
      "age,Ġ": 6215,
      "agement": 6216,
      "IndiaĠandĠtheĠ": 6217,
      "fromĠwhichĠ": 6218,
      "fromĠtop": 6219,
      "fromĠAfric": 6220,
      "ofĠtheĠD": 6221,
      "ofĠtheĠWesternĠGhat": 6222,
      "irrig": 6223,
      "âĢĵ39": 6224,
      "âĢĵ49": 6225,
      "ers.Ġ": 6226,
      "ers,ĠandĠ": 6227,
      "use": 6228,
      "usti": 6229,
      "usicalĠ": 6230,
      "usuallyĠ": 6231,
      "istentĠ": 6232,
      "angraĠ": 6233,
      "angamĠ": 6234,
      "enĠbyĠ": 6235,
      "Ġà¤ķà¥ĩà¤²": 6236,
      "789": 6237,
      "resent": 6238,
      "ress,Ġ": 6239,
      "restri": 6240,
      "respons": 6241,
      ";ĠN": 6242,
      ".ĠR.;Ġ": 6243,
      "conn": 6244,
      "construc": 6245,
      "concep": 6246,
      "chĠofĠtheĠ": 6247,
      "à¥ĩĠà¤¨": 6248,
      "à¥ĩĠà¤¬": 6249,
      "iment": 6250,
      "imag": 6251,
      "imper": 6252,
      "improv": 6253,
      "Arm": 6254,
      "Arn": 6255,
      "ArtĠandĠ": 6256,
      "à¤¾Ġà¤ī": 6257,
      "ovi": 6258,
      "à¤¨à¥ĩ": 6259,
      "terrac": 6260,
      "owe,Ġ": 6261,
      "IndianĠNationalĠ": 6262,
      "IndianĠclassicalĠ": 6263,
      "id-": 6264,
      "ideĠ": 6265,
      "idel": 6266,
      "idli": 6267,
      "ideĠtoĠ": 6268,
      "ticallyĠ": 6269,
      "abs": 6270,
      "ityĠandĠ": 6271,
      "ityĠinĠ": 6272,
      "ityĠrateĠ": 6273,
      "à¥ĭà¤·": 6274,
      "à¤¾à¤°à¥įà¤ļ": 6275,
      ".ĠRetrievedĠ4": 6276,
      "unres": 6277,
      "uniqu": 6278,
      "od,ĠG": 6279,
      "liz": 6280,
      "liesĠ": 6281,
      "à¥įà¤°à¤¿à¤Ł": 6282,
      "excl": 6283,
      "extend": 6284,
      "experienc": 6285,
      "inĠtheĠsummerĠ": 6286,
      "short": 6287,
      "showĠ": 6288,
      "shalwar": 6289,
      "icĠch": 6290,
      "icĠSanskrit": 6291,
      "ĊĊTheĠ": 6292,
      "sust": 6293,
      "super": 6294,
      "Architect": 6295,
      "Archae": 6296,
      "tuberculosisĠ": 6297,
      "arĠ2015": 6298,
      "1-2": 6299,
      ".Ġ(1994": 6300,
      ".Ġ(1970": 6301,
      "wasĠform": 6302,
      "wasĠfirstĠ": 6303,
      "wasĠdefeat": 6304,
      "Untouch": 6305,
      "Champ": 6306,
      "ChildrenĠ": 6307,
      ",ĠtheĠIndianĠ": 6308,
      ",ĠtheĠfirstĠ": 6309,
      "withĠanĠIndianĠ": 6310,
      "forĠaĠ": 6311,
      "Ġà¤¸à¤°à¥įà¤µ": 6312,
      "techn": 6313,
      "ght": 6314,
      "][4": 6315,
      "][26": 6316,
      "][38": 6317,
      "][39": 6318,
      "s,ĠbutĠ": 6319,
      ").Ġ\"Caste": 6320,
      ",Ġpp.Ġ13": 6321,
      "17][3": 6322,
      "earch": 6323,
      "18]ĠTheĠ": 6324,
      "Assoc": 6325,
      "compris": 6326,
      "combin": 6327,
      "plainĠ": 6328,
      "plantĠ": 6329,
      ".ĠArchivedĠfromĠtheĠoriginalĠonĠ7": 6330,
      ".ĠArchivedĠfromĠtheĠoriginalĠonĠ8": 6331,
      ".ĠArchivedĠfromĠtheĠoriginalĠonĠ20": 6332,
      ".ĠArchivedĠfromĠtheĠoriginalĠonĠ17": 6333,
      ".ĠArchivedĠfromĠtheĠoriginalĠonĠ13": 6334,
      ".ĠArchivedĠfromĠtheĠoriginalĠonĠ28": 6335,
      ".ĠArchivedĠfromĠtheĠoriginalĠonĠ12": 6336,
      ".ĠArchivedĠfromĠtheĠoriginalĠonĠ11": 6337,
      ".ĠArchivedĠfromĠtheĠoriginalĠonĠ29": 6338,
      "a,ĠwhichĠ": 6339,
      ".ĠISBNĠ978-0-674": 6340,
      "ourn": 6341,
      "ĠSabh": 6342,
      "overranĠ": 6343,
      "emberĠofĠ": 6344,
      "problem": 6345,
      "proces": 6346,
      "probablyĠ": 6347,
      "edĠbyĠtheirĠ": 6348,
      "ottaĠ": 6349,
      "ionĠofĠtheĠ": 6350,
      "239": 6351,
      "231]ĠTheĠ": 6352,
      "ainism": 6353,
      "ateĠchang": 6354,
      "priest": 6355,
      "stillĠ": 6356,
      "ishedĠ": 6357,
      "HinduĠandĠ": 6358,
      "HinduĠmathematic": 6359,
      "theorem": 6360,
      "hasĠtheĠ": 6361,
      "thatĠofĠ": 6362,
      "thatĠbothĠ": 6363,
      "]ĊĊInĠ": 6364,
      "endit": 6365,
      "endmentsĠ": 6366,
      "languagesĠofĠIndiaĠ": 6367,
      "formĠ": 6368,
      "formul": 6369,
      "formerlyĠ": 6370,
      "caleĠ": 6371,
      "calcul": 6372,
      "Consum": 6373,
      ".[39": 6374,
      ".[317][3": 6375,
      ".ĠTheĠs": 6376,
      "rail": 6377,
      "areĠdirectlyĠ": 6378,
      "iĠisĠ": 6379,
      "iĠ1998": 6380,
      "portĠofĠ": 6381,
      "inĠIndiaĊĊ": 6382,
      "inĠIndia\".ĠInĠ": 6383,
      "geĠofĠ": 6384,
      "ence,Ġ": 6385,
      "ence:Ġ": 6386,
      "ritsar": 6387,
      "assertĠ": 6388,
      "ism,Ġ": 6389,
      "er,ĠJ": 6390,
      "2010.ĊM": 6391,
      "aju": 6392,
      "wereĠre": 6393,
      "India'sĠmiddleĠ": 6394,
      "279": 6395,
      "2755": 6396,
      "South": 6397,
      "regist": 6398,
      "Ġà¤¹à¥ĭ": 6399,
      "esterĠ": 6400,
      "es,ĠincludingĠ": 6401,
      "ounc": 6402,
      "kĠofĠtheĠ": 6403,
      "undarb": 6404,
      "à¤¿à¤ķĠà¤¸": 6405,
      "ĠJulyĠ2011": 6406,
      "ĠJulyĠ2023": 6407,
      "ĠJulyĠ2025": 6408,
      "etĠal.Ġ": 6409,
      "orderĠ": 6410,
      "lature": 6411,
      "markĠ": 6412,
      "iesĠofĠtheĠ": 6413,
      "build": 6414,
      "...ĠB": 6415,
      "...ĠItĠisĠ": 6416,
      "culmin": 6417,
      "2018).Ġ": 6418,
      "2019).Ġ\"": 6419,
      "andĠtheĠRÄģ": 6420,
      "SouthĠIndia.Ġ": 6421,
      "grav": 6422,
      "e.ĠOxfordĠUniversityĠPress": 6423,
      "e.ĠTheseĠ": 6424,
      "itĠtoĠ": 6425,
      "itĠwasĠ": 6426,
      "tsĠinĠ": 6427,
      "allow": 6428,
      "allianceĠ": 6429,
      "à¤°Ġà¤Ńà¤¾à¤°à¤¤": 6430,
      "2007).Ġ\"": 6431,
      "enceĠandĠ": 6432,
      "deep": 6433,
      "deathĠ": 6434,
      "2014).ĠTheĠOxfordĠ": 6435,
      ".ĠS.;Ġ": 6436,
      ".ĠSomeĠ": 6437,
      "11Ġ": 6438,
      "ightĠ": 6439,
      "1966": 6440,
      "29]Ġ": 6441,
      "syn": 6442,
      "beĠm": 6443,
      "berg": 6444,
      "disci": 6445,
      "display": 6446,
      "discover": 6447,
      "AlanĠ(": 6448,
      "subordin": 6449,
      "substanti": 6450,
      "strong": 6451,
      "streng": 6452,
      "strateg": 6453,
      "coalitionĠ": 6454,
      "more": 6455,
      "mortal": 6456,
      "yearsĠinĠ": 6457,
      "egadivers": 6458,
      "WorldĠHealthĠ": 6459,
      "WorldĠTradeĠ": 6460,
      "okĠSabh": 6461,
      "22-9": 6462,
      "22ĠJulyĠ2011.Ċ": 6463,
      "seat": 6464,
      "ĠtoĠUS$": 6465,
      "ĠtoĠbottom": 6466,
      ".\"ĊM": 6467,
      "economy.[": 6468,
      "-9.ĊS": 6469,
      ".ĊĠMich": 6470,
      ".ĊĠMoln": 6471,
      "eĠofĠtheĠtwoĠ": 6472,
      "largest": 6473,
      "outsideĠ": 6474,
      "-07": 6475,
      "-0.ĊK": 6476,
      "ChinaĠandĠtheĠ": 6477,
      "ĠAprilĠ2023": 6478,
      "ĠAprilĠ2020": 6479,
      "ĠAprilĠ2025": 6480,
      "theirĠnatalĠ": 6481,
      "Ang": 6482,
      "Anthrop": 6483,
      "anceĠofĠ": 6484,
      "Proli": 6485,
      "energ": 6486,
      "continentĠ": 6487,
      "ĠinĠVedicĠ": 6488,
      "ĠOctoberĠ2010": 6489,
      "ĠOctoberĠ2008": 6490,
      "mostĠofĠtheĠ": 6491,
      "mostĠallĠ": 6492,
      "mostĠpopulousĠ": 6493,
      "2023).Ġ\"": 6494,
      "systemĠ": 6495,
      "systemĠinĠ": 6496,
      "tribalĠ": 6497,
      "triumph": 6498,
      "ineer": 6499,
      "ĠDommar": 6500,
      "easur": 6501,
      "easilyĠ": 6502,
      "atesĠinĠtheĠ": 6503,
      "decimalĠ": 6504,
      "Stre": 6505,
      "ĠSeptemberĠ2019": 6506,
      "ĠSeptemberĠ2014": 6507,
      "ĠSeptemberĠ2024": 6508,
      "s.Ġpp.Ġ": 6509,
      "ĠAugustĠ2010": 6510,
      "ĠAugustĠ2018": 6511,
      "ĠAugustĠ2012": 6512,
      "ĠAugustĠ2016": 6513,
      "EconomyĠ": 6514,
      "\".ĠInĠB": 6515,
      "\".ĠInĠH": 6516,
      "\".ĠInĠK": 6517,
      "manag": 6518,
      "peti": 6519,
      "soci": 6520,
      "cris": 6521,
      "popular": 6522,
      "consci": 6523,
      "commer": 6524,
      "commod": 6525,
      "commission": 6526,
      "committe": 6527,
      "north-": 6528,
      "northwest": 6529,
      "ersĠwereĠ": 6530,
      "360âĢĵ": 6531,
      "Cambridge": 6532,
      "afterĠwinn": 6533,
      "onĠtheĠleftĠ": 6534,
      "portalĊ": 6535,
      ",ĠSaj": 6536,
      ",ĠSarah": 6537,
      "betweenĠtheĠ": 6538,
      "awk": 6539,
      "aĠ(\"": 6540,
      ":Ġ\"TheĠ": 6541,
      ":Ġ\"ItĠisĠ": 6542,
      "ensiveĠ": 6543,
      "2017,Ġp.Ġ": 6544,
      "notĠonlyĠ": 6545,
      "odĠofĠtheĠ": 6546,
      "ĠMayĠ2012": 6547,
      "ĠMayĠ2017": 6548,
      "e-levelĠ": 6549,
      "ManyĠ": 6550,
      "Management": 6551,
      "intoĠIndiaĠ": 6552,
      "à¥ģà¤³": 6553,
      "CambridgeĠandĠNewĠYork:Ġ": 6554,
      "Ġserv": 6555,
      "Ġsecond": 6556,
      "rule": 6557,
      "rule.[": 6558,
      ".ĠByĠ": 6559,
      ".ĠB.;ĠTalbot,ĠC": 6560,
      "Ġc.âĢī": 6561,
      "loy": 6562,
      "loos": 6563,
      "herdĠsiz": 6564,
      "2015).Ġ": 6565,
      "2015).ĠTheĠ": 6566,
      ".ĠISBNĠ978-0-19-": 6567,
      "includingĠtheĠ": 6568,
      "2022.ĊĠ\"": 6569,
      "annualĠ": 6570,
      "annada,Ġ": 6571,
      "becameĠaĠ": 6572,
      "ĊĠĊAĠ": 6573,
      "largestĠproducerĠofĠ": 6574,
      "BuddhaĠ": 6575,
      "Buddhist": 6576,
      "entire": 6577,
      "regionsĠofĠ": 6578,
      "urryĠ": 6579,
      ",ĠwhichĠhasĠ": 6580,
      "classic": 6581,
      "2020).ĠTheĠ": 6582,
      ",ĠPakist": 6583,
      "Äģbh": 6584,
      "Ġà¤°à¥ĭà¤ľ": 6585,
      "ĠJuneĠ2023": 6586,
      "ĠJuneĠ2012": 6587,
      "grownĠ": 6588,
      "expandĠ": 6589,
      "expendit": 6590,
      "ĠJanuaryĠ2021": 6591,
      "domestic": 6592,
      "generatedĠ": 6593,
      "southĠ": 6594,
      "à¤Ĥà¤Ĺà¤¾à¤²": 6595,
      "state-levelĠ": 6596,
      ".Ġ(2004": 6597,
      "Ġà¤ķà¥ĭĠà¤®": 6598,
      "ankar": 6599,
      "ankarĠ": 6600,
      ",ĠandĠtheĠt": 6601,
      "Committe": 6602,
      "warm": 6603,
      "wardĠ": 6604,
      "warrior": 6605,
      "ectionsĠ": 6606,
      "IndiaĠhasĠbeenĠ": 6607,
      "English,ĠwhichĠ": 6608,
      ".ĠMinistryĠofĠ": 6609,
      ".ĠMalayal": 6610,
      "increaseĠ": 6611,
      "increasinglyĠ": 6612,
      "suppli": 6613,
      "Hinduism:Ġ": 6614,
      "\"ĠTheĠ": 6615,
      "historyĠ": 6616,
      "history,Ġ": 6617,
      "servedĠ": 6618,
      "subcontinentĠ": 6619,
      "ActĠ": 6620,
      "river": 6621,
      ".ĊĠBas": 6622,
      "varn": 6623,
      ".ĊĠDavid": 6624,
      "-2.ĊR": 6625,
      "defenceĠ": 6626,
      "defeatĠ": 6627,
      "president": 6628,
      "Form": 6629,
      "Gukesh": 6630,
      "GuideĠtoĠ": 6631,
      "Indo-European": 6632,
      "cymb": 6633,
      "development": 6634,
      "developmentĠofĠ": 6635,
      "ricketĠ": 6636,
      "risingĠ": 6637,
      "every": 6638,
      "everalĠ": 6639,
      "IndiaĠandĠPakistan": 6640,
      "harma,Ġ": 6641,
      "ĠOctoberĠ2021.ĠRetrievedĠ18ĠOctoberĠ2021": 6642,
      "HistoryĠofĠIndiaĠ(": 6643,
      "HimachalĠPradeshĊ": 6644,
      "non-EuropeanĠ": 6645,
      "transform": 6646,
      "duringĠwhichĠ": 6647,
      "northernĠIndia,Ġ": 6648,
      "489": 6649,
      "1984": 6650,
      "1989": 6651,
      "westernĠandĠeasternĠ": 6652,
      "2024).Ġ\"": 6653,
      "post-": 6654,
      "ageĠwasĠ": 6655,
      ").Ġ\"TheĠIndianĠ": 6656,
      "dancesĠ": 6657,
      "otechnolog": 6658,
      ".ĠISBNĠ978-81-7": 6659,
      ".ĠISBNĠ978-81-80": 6660,
      "playedĠaĠ": 6661,
      "withinĠtheĠ": 6662,
      "HindiĠwasĠ": 6663,
      "1.3": 6664,
      "antlyĠ": 6665,
      "antaĠCav": 6666,
      "ĠNovemberĠ2019": 6667,
      "ĠNovemberĠ2020": 6668,
      "primeĠministers": 6669,
      "descend": 6670,
      "scheduledĠ": 6671,
      "á¹£": 6672,
      "á¹ļgved": 6673,
      "oneĠbillionĠ": 6674,
      "controll": 6675,
      "ellĠ2000": 6676,
      "CentralĠAsia": 6677,
      ".Ġdoi:10.1080": 6678,
      ".Ġdoi:10.1093": 6679,
      ".Ġdoi:10.1007/": 6680,
      "GeographicalĠ": 6681,
      "rangeĠ": 6682,
      "ousandĠ": 6683,
      "leaderĠ": 6684,
      "leader,Ġ": 6685,
      ".ĊĠSteinĠ2010,Ġpp.Ġ1": 6686,
      "ofĠIndiaĊTheĠIndianĠ": 6687,
      "Plain": 6688,
      "ataĠandĠtheĠRÄģ": 6689,
      "influenceĠ": 6690,
      "belli": 6691,
      "belongĠ": 6692,
      "belief": 6693,
      "e.[16": 6694,
      "Columb": 6695,
      "divid": 6696,
      "familiesĠandĠ": 6697,
      "mathematicalĠ": 6698,
      ".ĠOxfordĠUniversityĠPress.Ġpp.Ġ": 6699,
      "culturesĠ": 6700,
      "horizont": 6701,
      "2005).Ġ\"": 6702,
      "country,Ġ": 6703,
      "producedĠ": 6704,
      ".ĠJohnĠ": 6705,
      "armiesĠ": 6706,
      "danceĠisĠ": 6707,
      "danceĠtradition": 6708,
      "architect": 6709,
      "architecture": 6710,
      "purchas": 6711,
      "à¤¿à¤®à¤¾à¤²à¤¯": 6712,
      "63ĠmillionĠ": 6713,
      "79.8%Ġ": 6714,
      "hasĠbeenĠanĠ": 6715,
      "groupsĠinĠ": 6716,
      "periodĠofĠ": 6717,
      "periodĠwasĠ": 6718,
      "Greek": 6719,
      "SanskritĠandĠ": 6720,
      "SanskritĠepic": 6721,
      "internalĠ": 6722,
      "interimĠ": 6723,
      "interven": 6724,
      "à¤¾à¤ªà¥įà¤¤": 6725,
      "operation": 6726,
      "operationĠandĠ": 6727,
      "basedĠonĠtheĠ": 6728,
      "MarketĠ": 6729,
      "humanĠfig": 6730,
      "birdĠ": 6731,
      "hamiri": 6732,
      "worship": 6733,
      "areasĠ": 6734,
      "Cloth": 6735,
      "lowĠ": 6736,
      "lower-": 6737,
      "small": 6738,
      "sideĠtheĠ": 6739,
      ".\"ĊĠS": 6740,
      "GangesĠCanal": 6741,
      "peopleĠwhoĠ": 6742,
      ".ĠOn": 6743,
      "signedĠ": 6744,
      "2Ġ(4):Ġ": 6745,
      "iesĊ": 6746,
      "madeĠfromĠ": 6747,
      "stateĠofĠ": 6748,
      "lastĠ50Ġ": 6749,
      "soleĠ": 6750,
      "wouldĠbeĠ": 6751,
      "Religion": 6752,
      "knownĠasĠtheĠ": 6753,
      "DuringĠtheĠ": 6754,
      "simpleĠ": 6755,
      "numbersĠofĠ": 6756,
      "Gujarati,Ġ": 6757,
      "bodiesĠ": 6758,
      "drainĠintoĠtheĠ": 6759,
      "akshadwe": 6760,
      "derivedĠ": 6761,
      "finelyĠ": 6762,
      "survey": 6763,
      "rigidĠ": 6764,
      "aĠmemberĠofĠ": 6765,
      "stead": 6766,
      "steamedĠ": 6767,
      "ArabicĠ": 6768,
      ".Ġ(1999": 6769,
      ".Ġ(1996).Ġ": 6770,
      "centuriesĠofĠ": 6771,
      "ĠMarchĠ2021.ĠRetrievedĠ17": 6772,
      "millenniumĠ": 6773,
      "sitarĠ": 6774,
      "1962Ġ": 6775,
      "Ġmi)Ġ": 6776,
      "Monitor": 6777,
      "President": 6778,
      "codil": 6779,
      "ustri": 6780,
      "ElectionĠ": 6781,
      "ittanc": 6782,
      "partition": 6783,
      "nuclearĠweap": 6784,
      "s,ĠtheĠMah": 6785,
      "well-": 6786,
      ".ĠCambridgeĠUniversityĠPress.Ġp.Ġ": 6787,
      ".ĠCambridgeĠUniversityĠPress.Ġpp.Ġ": 6788,
      "forest,Ġ": 6789,
      "coastalĠ": 6790,
      "parliamentaryĠsystem": 6791,
      "[...]ĠTheĠ": 6792,
      "adoptedĠ": 6793,
      "statesĠofĠtheĠ": 6794,
      "statesĠandĠ8Ġ": 6795,
      "unionĠterritor": 6796,
      "AccordingĠtoĠtheĠ": 6797,
      "300ĠCE": 6798,
      "à¤¾à¥¤[": 6799,
      "ChangingĠ": 6800,
      "Introduction": 6801,
      "Adjec": 6802,
      "AddressĠ": 6803,
      "Wile": 6804,
      "break": 6805,
      "breath": 6806,
      "condition": 6807,
      "dishesĠ": 6808,
      "sometimesĠ": 6809,
      "severelyĠ": 6810,
      "warĠofĠ": 6811,
      "worldĠchessĠ": 6812,
      "ritualĠ": 6813,
      "reformsĠ": 6814,
      "electedĠ": 6815,
      "consistentlyĠ": 6816,
      ".ĠISBNĠ978-0-19-9677": 6817,
      "remainingĠ": 6818,
      "middleĠandĠ": 6819,
      "nationalistĠ": 6820,
      "communiti": 6821,
      "Agency": 6822,
      "aĠasĠNataraj": 6823,
      "ictionaryĠ": 6824,
      "acrossĠ": 6825,
      "EvidenceĠ": 6826,
      "KeralaĠ": 6827,
      "Vijay": 6828,
      "affirm": 6829,
      "courtĠ": 6830,
      "far-": 6831,
      "fartherĠ": 6832,
      "model": 6833,
      "migrationĠ": 6834,
      "settl": 6835,
      ".ĠH.Ġ(": 6836,
      "institution": 6837,
      "institutionĠ": 6838,
      "arithmetic": 6839,
      ".ĠRetrievedĠ3ĠFebruaryĠ2022": 6840,
      ".ĠRetrievedĠ22ĠJulyĠ2011.Ċ": 6841,
      "princelyĠ": 6842,
      ".ĠISBNĠ978-0-19-88": 6843,
      ".ĠPMCĠ": 6844,
      "becameĠtheĠfirstĠ": 6845,
      "Bharatanat": 6846,
      "BlackwellĠ": 6847,
      "Blackbuc": 6848,
      "earliestĠextantĠ": 6849,
      "directlyĠrelat": 6850,
      "yyang": 6851,
      "à¥ĢĠà¤¹à¥Īà¥¤": 6852,
      "consider": 6853,
      "1200ĠBCE": 6854,
      "ii\".ĠI": 6855,
      "1ĉIndo-European": 6856,
      "Discover": 6857,
      "NarendraĠMod": 6858,
      "moistĠ": 6859,
      "odiversityĠh": 6860,
      "China'sĠ": 6861,
      "EducationĠ": 6862,
      "JohnĠJ.Ġ(": 6863,
      "Satpur": 6864,
      "TotalĊ": 6865,
      "UttarĠ": 6866,
      "]ĊĠĊAĠ": 6867,
      "caste.Ġ": 6868,
      "devo": 6869,
      "sixĠ": 6870,
      "sixteen": 6871,
      "telligenceĠ": 6872,
      ",ĠTel": 6873,
      "cheetah": 6874,
      "reachedĠ": 6875,
      ").ĠIndiaĠBeforeĠEurop": 6876,
      "industryĠ": 6877,
      "ideasĠ": 6878,
      ".Ġ(2010).ĠTheĠ": 6879,
      "UniversityĠPress.ĠISBNĠ978-0-691-": 6880,
      "inĠIndiaĊSeeĠalso:Ġ": 6881,
      "builtĠinĠtheĠ": 6882,
      "graduallyĠ": 6883,
      "ConstitutionĠofĠIndiaĠ": 6884,
      "predomin": 6885,
      "traditionĠ": 6886,
      "traditionĠofĠ": 6887,
      "grewĠbyĠ": 6888,
      ".ĊĠDysonĠ2018,Ġp.Ġ": 6889,
      ".ĊĠDysonĠ2018,Ġpp.Ġ": 6890,
      "rightĠ2010": 6891,
      "preventĠ": 6892,
      "independenceĠinĠ1947": 6893,
      "Princeton,ĠN": 6894,
      "anatom": 6895,
      "à¤¹à¤¾à¤°à¤¾à¤·à¥įà¤Łà¥įà¤°": 6896,
      "ÄģrataĠandĠtheĠRÄģ": 6897,
      "Identity": 6898,
      "CapitalĠ": 6899,
      "Dalit": 6900,
      "Dutt": 6901,
      "FloodĠ": 6902,
      "Flood,ĠG": 6903,
      "Food.ĠOxfordĠUniversityĠPress.Ġp.Ġ": 6904,
      "Under": 6905,
      "couldĠbeĠ": 6906,
      "dhoti": 6907,
      "festivalĠ": 6908,
      "method": 6909,
      "methodĠofĠtheĠ": 6910,
      "povertyĠ": 6911,
      "sex-selectiveĠ": 6912,
      "womanĠ": 6913,
      "likelyĠ": 6914,
      "decidedĠthatĠ": 6915,
      "EmergingĠ": 6916,
      "Emergenc": 6917,
      "EurasianĠ": 6918,
      "AmongĠtheĠ": 6919,
      "CompanionĠtoĠFood.ĠOxfordĠUniversityĠPress.Ġp.Ġ": 6920,
      ".ĠRoutledge.ĠISBNĠ978-1-13": 6921,
      "Wikimedia": 6922,
      "capitaĠ": 6923,
      "literacyĠrateĠ": 6924,
      "TempleĠinĠAm": 6925,
      "characterisedĠbyĠ": 6926,
      "AndamanĠandĠNicobarĠIslandsĊ": 6927,
      "à¤¹à¥ģà¤¤": 6928,
      ".gov.in.ĠArchivedĠfromĠtheĠoriginalĠonĠ": 6929,
      "Christian": 6930,
      "refersĠ": 6931,
      "dedĠtoĠtheĠ": 6932,
      "merch": 6933,
      "nameĠforĠ": 6934,
      "Ġà¤¸à¤¾à¤®à¥įà¤°à¤¾à¤ľà¥įà¤¯": 6935,
      "Assamese,Ġ": 6936,
      "3-540-": 6937,
      "Iran": 6938,
      "Mumbai": 6939,
      "Web": 6940,
      "Yakshag": 6941,
      "cameĠtoĠ": 6942,
      "cuisine": 6943,
      "famin": 6944,
      "hockeyĠ": 6945,
      "sacrific": 6946,
      "sĠfallĠ": 6947,
      "riya,Ġ": 6948,
      "inĠ1847": 6949,
      "roadcast": 6950,
      "uscriptĠ": 6951,
      "resultingĠ": 6952,
      "liberal": 6953,
      "complet": 6954,
      ".ĠArchivedĠfromĠtheĠoriginalĠonĠ9ĠMarchĠ2021.ĠRetrievedĠ17": 6955,
      "marriage": 6956,
      "AlthoughĠs": 6957,
      "subsequentĠ": 6958,
      "achievement": 6959,
      "possib": 6960,
      "Standard": 6961,
      "cricketĠ": 6962,
      ".Ġdoi:10.2307/": 6963,
      "humiliat": 6964,
      ",ĠRobertĠ": 6965,
      "expandingĠ": 6966,
      "subcontinent,Ġ": 6967,
      ".ĊĠRobbĠ2011,Ġpp.Ġ": 6968,
      "2026Ġestimate": 6969,
      "nearĠtheĠ": 6970,
      ".ĠAfterĠtheĠ": 6971,
      "prominentlyĠ": 6972,
      "smallĠfarm": 6973,
      "Madras": 6974,
      "TibetanĠPlateau": 6975,
      ".ĠPMIDĠ30": 6976,
      "AravalliĠ": 6977,
      "AfghanistanĠ": 6978,
      "Century.Ġ": 6979,
      "Chhau": 6980,
      "Ġà¤¦à¤¿à¤¸à¤®à¥įà¤¬à¤°Ġ": 6981,
      "crucialĠ": 6982,
      "ershipĠ": 6983,
      "Asher,ĠC.ĠB.;ĠTalbot,ĠC": 6984,
      ".ĠSpringer.Ġp.Ġ": 6985,
      "3rdĠ": 6986,
      "Ahmedabad": 6987,
      "Foot": 6988,
      "Myanmar": 6989,
      "Nationalism": 6990,
      "UPAĠ": 6991,
      "UNĠEnvironmentĠ": 6992,
      "honour": 6993,
      "son,ĠAlanĠ(": 6994,
      "togetherĠ": 6995,
      "ĠgeneralĠelection,ĠtheĠ": 6996,
      "returnedĠtoĠ": 6997,
      "thĠcenturies,ĠtheĠ": 6998,
      "acmillan": 6999,
      "shallĠbeĠ": 7000,
      "ogeograph": 7001,
      "complexĠ": 7002,
      "1500ĠBCEĠandĠ": 7003,
      "beyond": 7004,
      "28ĠstatesĠandĠ8Ġ": 7005,
      "SouthĠIndiaĉDance-dramaĉ": 7006,
      "Ġcourt": 7007,
      "Ambedkar": 7008,
      "extinctĠ": 7009,
      "attemptedĠtoĠ": 7010,
      "CollegeĠofĠCivil": 7011,
      ".ĊĠAsherĠ&ĠTalbotĠ2022,Ġp.Ġ": 7012,
      "heavilyĠ": 7013,
      "governmentsĠfollow": 7014,
      "ShivaĠasĠNataraj": 7015,
      "DeccanĠPlateau": 7016,
      "WileyĠ&ĠSons": 7017,
      "revenu": 7018,
      "therefore,Ġ": 7019,
      "BuddhismĠandĠJain": 7020,
      "FinancialĠ": 7021,
      "Uttarakh": 7022,
      ".ĊĠWolpertĠ2003,Ġp.Ġ": 7023,
      "advancedĠ": 7024,
      "PrincetonĠUniversityĠPress.ĠISBNĠ978-0-691-": 7025,
      "CommonwealthĠofĠN": 7026,
      "missingĠwomenĠ": 7027,
      "projectedĠtoĠ": 7028,
      "successfulĠ": 7029,
      "JanataĠPart": 7030,
      ".ĠISBNĠ978-0-415-": 7031,
      "trigonometry,Ġ": 7032,
      "IndusĠValleyĠCivil": 7033,
      "BourbakiĠ1998": 7034,
      ".ĠSAGEĠPublications": 7035,
      ".ĊĠTritschĠ2001,Ġp.Ġ": 7036,
      "Mohenjo-daro": 7037,
      "HomoĠsapien": 7038,
      "ĠkilometresĠ(": 7039,
      "GoldenĠTempleĠinĠAm": 7040,
      "William": 7041,
      "negativeĠ": 7042,
      "CentralĠIntelligenceĠ": 7043,
      "\".ĠReut": 7044,
      "6ĠMayĠ2025": 7045,
      "BayĠofĠ": 7046,
      "BBCĠNews": 7047,
      "Etym": 7048,
      "FemaleĠ": 7049,
      "Havel": 7050,
      "Jharkh": 7051,
      "Kingdom": 7052,
      "MemberĠstatesĠofĠtheĠ": 7053,
      "PlofkerĠ": 7054,
      "PuducherryĊ": 7055,
      "RightsĠ": 7056,
      "crocodil": 7057,
      "costĠofĠ": 7058,
      "function": 7059,
      "gaveĠ": 7060,
      "hundredĠ": 7061,
      "latitu": 7062,
      "mÄģyaá¹ĩ": 7063,
      "sovereign": 7064,
      "sburyĠ": 7065,
      "ubraman": 7066,
      "zeroĠ": 7067,
      "inspir": 7068,
      "insteadĠ": 7069,
      "theĠThomasonĠCollegeĠofĠCivil": 7070,
      "arathi,Ġ": 7071,
      "enhouseĠ": 7072,
      "Indonesia": 7073,
      "churidar": 7074,
      ".ĊĠProvisionalĠPopulationĠTotalsĠPaperĠ1ĠofĠ2011ĠIndia,Ġp.Ġ16": 7075,
      "fortifiedĠ": 7076,
      "storytellingĠ": 7077,
      "fromĠtopĠtoĠbottom": 7078,
      "imperialĠ": 7079,
      "terracottaĠ": 7080,
      "owe,ĠJohnĠJ.Ġ(": 7081,
      "IndianĠNationalĠCongressĠ": 7082,
      "Associa": 7083,
      "undarbansĠ": 7084,
      "2014).ĠTheĠOxfordĠCompanionĠtoĠFood.ĠOxfordĠUniversityĠPress.Ġp.Ġ": 7085,
      "discipl": 7086,
      "mortalityĠrateĠ": 7087,
      "egadiverseĠ": 7088,
      ".ĊĠMichellĠ2000": 7089,
      ".ĊĠMolnarĠ2015": 7090,
      "Prolifer": 7091,
      "ĠDommaraju": 7092,
      "360âĢĵ375": 7093,
      "afterĠwinningĠtheĠ": 7094,
      "Ġseconds": 7095,
      "ÄģbhÄģrataĠandĠtheĠRÄģ": 7096,
      ".ĊĠDavidson,ĠAlanĠ(": 7097,
      "GukeshĠDommaraju": 7098,
      ".Ġdoi:10.1093/": 7099,
      "ColumbiaĠ": 7100,
      "SanskritĠepics,ĠtheĠMah": 7101,
      "hamiriĠroti": 7102,
      "lower-bodyĠgar": 7103,
      "akshadweep": 7104,
      "worldĠchessĠchamp": 7105,
      ".ĠISBNĠ978-0-19-967733-7": 7106,
      "1ĉIndo-Europeanĉ": 7107,
      "Flood,ĠGavinĠ": 7108,
      ".ĠArchivedĠfromĠtheĠoriginalĠonĠ9ĠMarchĠ2021.ĠRetrievedĠ17ĠNovemberĠ2019": 7109,
      "attemptedĠtoĠexpandĠ": 7110,
      "GoldenĠTempleĠinĠAmritsar": 7111,
      "CentralĠIntelligenceĠAgency": 7112,
      "theĠThomasonĠCollegeĠofĠCivilĠEng": 7113,
      "ÄģbhÄģrataĠandĠtheĠRÄģmÄģyaá¹ĩ": 7114,
      ".ĊĠDavidson,ĠAlanĠ(2014).ĠTheĠOxfordĠCompanionĠtoĠFood.ĠOxfordĠUniversityĠPress.Ġp.Ġ": 7115,
      "SanskritĠepics,ĠtheĠMahÄģbhÄģrataĠandĠtheĠRÄģmÄģyaá¹ĩ": 7116,
      "Fact": 7117,
      "vte": 7118,
      "§à°¿à°ķ": 7119,
      "µà¤¿à¤§à¤¾à¤¨": 7120,
      "Ċ\"": 7121,
      "ħà°§à°¿à°ķà°¾à°°": 7122,
      "iaĠ(": 7123,
      "à¥įà¤ŀ": 7124,
      "Ġà°ĩ": 7125,
      "à¥Ģ[": 7126,
      "à¥ĢĠà¤ķà¥ĩĠà¤": 7127,
      "à±ģà°Ĥà°Ł": 7128,
      "à±ģà°Ĺà°¾Ġà°": 7129,
      "à°¿à°³": 7130,
      "à°¿à°ļ": 7131,
      "à°¿à°ľ": 7132,
      "à¥ĩĠà¤Ĺ": 7133,
      "à¥ĢĠà¤¯": 7134,
      "à¤¸à¤®": 7135,
      "à¤¸à¥įà¤µ": 7136,
      "à°¨à±ģà°Ĥà°¡à°¿Ġ": 7137,
      "à°²à±į": 7138,
      "à¤¹à¤²": 7139,
      "à±Ģà°ª": 7140,
      "Ġà°ªà°°à°¿à°": 7141,
      "à¤µà¥įà¤¯à¤µà¤¸à¥įà¤¥": 7142,
      "à¥Īà¤ķ": 7143,
      "à¤°à¥įà¤Ĺ": 7144,
      "web": 7145,
      "à±Ĩà°¸": 7146,
      "à¤¾à¤Ĥà¤¨": 7147,
      "à¤§à¥Ģà¤²": 7148,
      "à°¯à°¿à°¨": 7149,
      "à¤¿à¤¤Ġà¤ªà¥įà¤°à¤¦à¥ĩà¤¶": 7150,
      "Ġà°¸à°Ń": 7151,
      "à°Ĺà°°": 7152,
      "à°°à±įà°¤": 7153,
      "à°°à±įà°²": 7154,
      "à°ĤĠà°®": 7155,
      "Ġà¤ľà¥Ĥà¤¨": 7156,
      "Ġà°ªà±įà°°à°ľ": 7157,
      "Ġà°ªà±įà°°à°Ńà±ģà°¤à±įà°µ": 7158,
      "Ġà¤ªà¥įà¤°à¤ķà¤¾à¤°": 7159,
      "à¤¾à¤¸à¤¨": 7160,
      "Ċà°Ńà°¾à°°à°¤": 7161,
      "Ċà°Ńà°¾à°°à°¤à±Ģà°¯": 7162,
      "Ġà¤°à¤¾à¤·à¥įà¤Łà¥įà¤°": 7163,
      "à±Ĭà°¤à±įà°¤": 7164,
      "Ġà¤ķà¤°à¤¤": 7165,
      "Ġà¤²à¥ĩà¤ĸ": 7166,
      "à¤¾à¤Ĺà¤°": 7167,
      "Ġà°ľà°¨": 7168,
      "à°¿à°²à±ĭĠà°": 7169,
      "à±ģà°ķà±ĭ": 7170,
      "à°¿à°Ĺà°¾Ġà°": 7171,
      "ķà±Ĥà°¡à°¾Ġà°": 7172,
      "Ġà¤«à¤¼à¤°": 7173,
      "à±įà°°à±Ģà°¡": 7174,
      "à°¿à°²à±įà°²à±Ģ": 7175,
      "theĠoriginalĠà°¨à±ģà°Ĥà°¡à°¿Ġ": 7176,
      "Ġà°¨Ġà°Ĩà°°à±įà°ķà±Īà°µà±ģĠà°ļà±Ĩà°¯à±įà°¯à°¬à°¡à°¿à°Ĥà°¦à°¿.Ġà°Ĵà°°à°¿à°ľà°¿à°¨à°²à±įĠà°ªà±ĩà°ľà±Ģà°¨à°¿Ġà°ļà±Ĥà°¸à°¿à°¨Ġà°¤à±ĩà°¦à±Ģ:Ġ": 7177,
      "Gin": 7178,
      "Micha": 7179,
      "|ĠNationalĠ": 7180,
      "ĊâĢ¢": 7181,
      "Ġ[": 7182,
      "à¤ĵ": 7183,
      ",Ġà¤ķ": 7184,
      ",Ġà¤Ńà¤¾à¤°à¤¤": 7185,
      "alĠofĠIndia\".Ġ": 7186,
      "ive-": 7187,
      "à¤°à¤¬": 7188,
      "à¤¤à¤¿": 7189,
      "à¤¤à¤Ĥà¤¤à¥įà¤°": 7190,
      "à¥ĢĠà¤Ķà¤°Ġà¤": 7191,
      "à¥ĭà¤¬": 7192,
      "à¤¾à¤°à¤¿à¤ķ": 7193,
      "à¤ķà¤¿": 7194,
      "à¤ķà¥įà¤ķ": 7195,
      "à¥įà¤¯à¤¾à¤¨": 7196,
      "à¥ĩà¤¥": 7197,
      "à¤¾à¤Ĥà¤¸": 7198,
      "à¤¾à¤Ĥà¤§": 7199,
      "Ġà¤ħà¤Ĺ": 7200,
      "]Ċ\"": 7201,
      "Ġà¤Ńà¤¾à¤°à¤¤Ġà¤®à¥ĩà¤Ĥ": 7202,
      "à¤¾à¤¸à¥Ĥà¤¨": 7203,
      "à¥ģà¤·": 7204,
      "Ġà¤¦à¤ķà¥įà¤·à¤¿à¤£": 7205,
      "IndiaĠandĠSouthĠAsia:Ġ": 7206,
      "à¥įà¤¥à¤¾à¤¨": 7207,
      "3,0": 7208,
      "ĠofĠtheĠConstitutionĠ": 7209,
      "Ġà¤Ĩà¤¹à¥ĩà¤¤.Ġ": 7210,
      "Ludden": 7211,
      "à¥ĥà¤·à¥įà¤ł": 7212,
      "à¤°à¥įà¤¥à¤µà¥įà¤¯à¤µà¤¸à¥įà¤¥": 7213,
      "AĠShortĠ": 7214,
      "PortalĠofĠIndia\".Ġ": 7215,
      "à¥ĩĠà¤¹à¥Īà¤Ĥà¥¤": 7216,
      "ProfileĠ": 7217,
      "3,287,263": 7218,
      "à¤®à¥ģà¤ĸ": 7219,
      "2011ĠCensusĠDat": 7220,
      "à¤¿à¤ķà¥įà¤·à¤£": 7221,
      "à¥įà¤°à¤¿à¤Łà¤¿à¤¶": 7222,
      "Ġà¤«à¤¼à¤°à¤µà¤°à¥ĢĠ": 7223,
      "MichaelĠ": 7224,
      "|ĠNationalĠPortalĠofĠIndia\".Ġ": 7225,
      "IndiaĠandĠSouthĠAsia:ĠAĠShortĠ": 7226,
      ",500": 7227,
      "-m": 7228,
      "83": 7229,
      "900": 7230,
      "CC": 7231,
      "IC": 7232,
      "IN": 7233,
      "MinistryĠofĠ": 7234,
      "Way": 7235,
      "a)": 7236,
      "a.ĠO": 7237,
      "hel": 7238,
      "lli": 7239,
      "¢à°¿à°²à±įà°²à±Ģ": 7240,
      "¹à°¦à±įà°¦": 7241,
      "ĠTheĠ": 7242,
      "īà°¤à±įà°¤à°°": 7243,
      "ľà°°à°¿à°": 7244,
      "à°Ĩ": 7245,
      "à°ĩ": 7246,
      "thorityĠ": 7247,
      "Ġà¤Ī": 7248,
      "Ġà¤ĸ": 7249,
      "à¥įà¤¡": 7250,
      "à±įĊà°": 7251,
      "à±įĠà°ķ": 7252,
      "à¥ĩà¤®": 7253,
      "à±įà°¦": 7254,
      "à°¿,Ġà°": 7255,
      "à°¾à°ª": 7256,
      "à°¾à°¹": 7257,
      "à¥ĢĊ": 7258,
      "âĢ³": 7259,
      "âĢį": 7260,
      "à±ģà°Ĥà°¬": 7261,
      "à°¿à°¦": 7262,
      "à°¿à°¶": 7263,
      "à°¿à°¤à±įà°°": 7264,
      ";Ġ(": 7265,
      "à¥ĩĠà¤¶": 7266,
      "à¤¾Ġà¤¯": 7267,
      "Ġ(à°¸à°¾.à°¶.": 7268,
      "à¥ĭà¤°": 7269,
      "ĊĊà¤Ńà¤¾à¤°à¤¤": 7270,
      "à°¤à±įà°¸": 7271,
      "à°°à°¾à°·à±įà°Łà±įà°°": 7272,
      "à¤®à¤£": 7273,
      "à¥ģà¤ķ": 7274,
      "ĠMach": 7275,
      "à°²à±įà°²": 7276,
      "Ġà¤¸à¥įà¤µ": 7277,
      "18ĠAprilĠ2021": 7278,
      "266": 7279,
      "Ġà¤®à¤§à¥įà¤¯": 7280,
      "Ġà¤®à¤¾à¤°à¥įà¤ļ": 7281,
      "à¤Ĥà¤Ł": 7282,
      "Ġmin": 7283,
      "à°¾à°°à°ĤĠà°": 7284,
      "à¥Ĥà¤°à¥įà¤£": 7285,
      "à¥ĩà¤ª": 7286,
      "à±Ģà°°": 7287,
      "Ġà°ªà±ĩà°°": 7288,
      "à¤ªà¤°": 7289,
      "à°ªà°¤": 7290,
      "à°µ)Ċ": 7291,
      "à°µà°¾à°£": 7292,
      "bookĠ": 7293,
      "Ġà¤ķà¥ĩĠà¤¦": 7294,
      "Ġà¤ķà¥ĩĠà¤ª": 7295,
      "Ġà¤ķà¥ĩĠà¤µ": 7296,
      "à°¿Ġà°µ": 7297,
      "122": 7298,
      "à¤ļà¥įà¤ļ": 7299,
      "à±Ĩà°²à±ģ": 7300,
      "Ġà¤µà¤¿à¤¦": 7301,
      ".ĊĠSingh": 7302,
      "à¤§à¤¾à¤°": 7303,
      "à¤¿à¤¯à¤¾à¤ģ": 7304,
      "à¤ľà¤°": 7305,
      "trilli": 7306,
      "Ġà°¸à±įà°µ": 7307,
      "ĠAugustĠ2013": 7308,
      "à°Ĺà±ĭ": 7309,
      "1975": 7310,
      "à°Łà±įà°²": 7311,
      "Ġà°ªà±įà°°à°§à°¾à°¨": 7312,
      "à°¾à°¨à±įà°¨": 7313,
      "Ġà¤Ńà¤¾à¤°à¤¤à¥Ģà¤¯Ġà¤¸": 7314,
      "\".ĠTheĠHindu": 7315,
      "à¥įà¤¯à¤¾Ġà¤¸": 7316,
      "NationalĠAnthem": 7317,
      "ĠJuneĠ2016": 7318,
      "CommissionĠ": 7319,
      "à¥ģà¤°à¥Ĥ": 7320,
      "landĠareaĠasĠ": 7321,
      "ĠDecemberĠ2020": 7322,
      "sĠtheĠtotalĠ": 7323,
      "Bengali": 7324,
      "officialĠlanguageĠofĠtheĠ": 7325,
      "RelatedĠ": 7326,
      "Ġà¤²à¥ĭà¤ķ": 7327,
      "Ġà¤Ĺà¤£": 7328,
      "totalĠlandĠareaĠasĠ": 7329,
      "author": 7330,
      "à¥Įà¤¦à¥įà¤§": 7331,
      "219ĠsqĠmi": 7332,
      "à°¿à°¤Ġà°ªà±įà°°à°¾à°Ĥà°¤": 7333,
      "GDPĠ(": 7334,
      "à¤Ĥà¤¸à¤¦": 7335,
      "ognisedĠ": 7336,
      "à±ģà°µà°¾à°¤": 7337,
      "à¤¾à¤ķà¤¿à¤¸à¥įà¤¤à¤¾à¤¨": 7338,
      "à¥Ĥà¤²Ġà¤¸à¥ĩĠà¤ªà¥ģà¤°": 7339,
      "Ġà°µà±įà°¯à°¾à°¸": 7340,
      "à¤¾Ġà¤®à¥ĩà¤Ĥ": 7341,
      "ĠsqĠmi)": 7342,
      "listsĠtheĠtotalĠ": 7343,
      "ArticlesĠ": 7344,
      "ĠatĠtheĠWay": 7345,
      "Ġà°¸à±įà°¥à°¾à°¨": 7346,
      "ħà°¤à±įà°¯": 7347,
      "Twenty-": 7348,
      "RecognisedĠ": 7349,
      "à¤¾à¤§à¤¿à¤ķ": 7350,
      "à±ĩà°Ĥà°¦à±įà°°à°ªà°¾à°²": 7351,
      "1901": 7352,
      "à¤¦à¥įà¤¯à¥ĭà¤Ĺ": 7353,
      "backĠMach": 7354,
      "CommissionerĠforĠLinguisticĠMinor": 7355,
      "Ġà¤ķà¥ĭĠà¤®à¥Ĥà¤²Ġà¤¸à¥ĩĠà¤ªà¥ģà¤°": 7356,
      "2011ĠCensusĠData.ĠO": 7357,
      "|ĠNationalĠPortalĠofĠIndia\".ĠIndia": 7358,
      "ľà°°à°¿à°Ĺ": 7359,
      "trillion": 7360,
      "NationalĠAnthemĠofĠIndiaĠ": 7361,
      "listsĠtheĠtotalĠareaĠasĠ": 7362,
      "ĠatĠtheĠWaybackĠMach": 7363,
      "Twenty-FirstĠ": 7364,
      "à±ĩà°Ĥà°¦à±įà°°à°ªà°¾à°²à°¿à°¤Ġà°ªà±įà°°à°¾à°Ĥà°¤": 7365,
      "Ġà¤ķà¥ĭĠà¤®à¥Ĥà¤²Ġà¤¸à¥ĩĠà¤ªà¥ģà¤°à¤¾à¤²à¥ĩà¤ĸà¤¿à¤¤": 7366,
      "-Ġ": 7367,
      "-20": 7368,
      "124": 7369,
      "220": 7370,
      "700": 7371,
      "DateĠ": 7372,
      "WTO": 7373,
      "dat": 7374,
      "giveĠ": 7375,
      "new": 7376,
      "īà¤ª": 7377,
      "à¤Ŀ": 7378,
      "à¤¾Ġà¤ķà¤¾Ġà¤": 7379,
      "à¥ĩĠà¤²": 7380,
      "abas": 7381,
      "à¥ĭà¤ª": 7382,
      "à¤ķà¤¾à¤²": 7383,
      "à¥įà¤¯à¤¾à¤ª": 7384,
      "tionĠinĠ": 7385,
      "eworldĠ": 7386,
      "à¥ĩà¤·": 7387,
      "138": 7388,
      "à¤¯à¥ĭà¤Ĺ": 7389,
      "Ġà¤ķà¥ĩĠà¤¨": 7390,
      "Ġà¤µà¤¿à¤¶à¥įà¤µ": 7391,
      "-08": 7392,
      "Ġà¤ħà¤®": 7393,
      "à¥ĭà¤ĤĠà¤ķà¤¾Ġà¤": 7394,
      "Ġà¤ľà¤¾à¤¤": 7395,
      "à¤Ńà¤¾à¤·": 7396,
      "Ġà¤Ńà¤¾à¤°à¤¤à¤¾à¤¤": 7397,
      "Ġà¤°à¥Ĥà¤ª": 7398,
      "333": 7399,
      "purpos": 7400,
      "à¤¿à¤Ĥà¤¦": 7401,
      "OneworldĠ": 7402,
      "à¥īà¤²": 7403,
      "communityĠ": 7404,
      "à¥įà¤¹à¤£": 7405,
      "à¤¾Ġà¤¦à¥ĩà¤¶": 7406,
      "FinalĠ": 7407,
      "à¥ģà¤ĸà¥įà¤¯Ġà¤²à¥ĩà¤ĸ": 7408,
      "à¤¬à¤¸à¥ĩĠà¤¬": 7409,
      "JuneĠ2013": 7410,
      "à¤Ĥà¤ľà¤¾à¤¬": 7411,
      "à¤¾à¤¹à¤¿à¤¤à¥įà¤¯": 7412,
      "WorldĠEconomicĠOutlookĠ": 7413,
      "Ġà¤¦à¤¿à¤¸à¤®à¥įà¤¬à¤°Ġ2014": 7414,
      "Ġà¤®à¤¾à¤°à¥įà¤ļĠ": 7415,
      "à¥ģà¤ĸà¥įà¤¯Ġà¤²à¥ĩà¤ĸ:": 7416,
      "\"ĠandĠ": 7417,
      ".),Ġ": 7418,
      "128": 7419,
      "5,": 7420,
      "517": 7421,
      "7Ġ": 7422,
      "AL": 7423,
      "AT": 7424,
      "Au": 7425,
      "Act,Ġ": 7426,
      "Call": 7427,
      "ES": 7428,
      "Metcalf": 7429,
      "RL": 7430,
      "]ĉ": 7431,
      "a'": 7432,
      "aedia": 7433,
      "e).Ġ": 7434,
      "ge,Ġ": 7435,
      "meric": 7436,
      "pĠ": 7437,
      "t-": 7438,
      "ue,Ġ": 7439,
      "viaĠ": 7440,
      "¸à±įà°¥": 7441,
      "¸à±įà°ķà±ĥà°¤": 7442,
      "ĊNationalĠ": 7443,
      "ĊNe": 7444,
      "ĠG": 7445,
      "ĠarticlesĠ": 7446,
      "īà°Ĥà°Ł": 7447,
      "İà°ķà±įà°ķà±ģà°µ": 7448,
      "ıà°°à±įà°ª": 7449,
      "Ĺà°²": 7450,
      ",ĠCh": 7451,
      ",Ġà¤ħà¤Ńà¤¿à¤Ĺà¤®à¤¨Ġà¤¤à¤¿à¤¥à¤¿:Ġ": 7452,
      ",ĠThomasĠ": 7453,
      "er.Ġ": 7454,
      "inct": 7455,
      "theĠsubjec": 7456,
      "ties": 7457,
      "ony": 7458,
      "208": 7459,
      "anj": 7460,
      "es-": 7461,
      ".ĊB": 7462,
      ".ĊL": 7463,
      "Ġà°¹à°¿à°Ĥà°¦": 7464,
      "à¥ĩà¤ķà¥įà¤·": 7465,
      "à°¾à°¡": 7466,
      "à°¾à°¶": 7467,
      ":ĠD": 7468,
      ":ĠP": 7469,
      "à¤°à¤¾à¤ľ": 7470,
      "à±ģĊ": 7471,
      "st)Ċ": 7472,
      "à¤¤à¥įà¤ª": 7473,
      "agor": 7474,
      "à¤Ĥà¤ķ": 7475,
      "conqu": 7476,
      "à¤¾Ġà¤¥": 7477,
      "à¤¨à¤ķ": 7478,
      "10âĢĵ": 7479,
      "umĠ": 7480,
      "à¤¾à¤°à¥įà¤¯": 7481,
      "à¤ķà¤²": 7482,
      "à¥įà¤¯à¤¾à¤¯": 7483,
      "inĠtheĠDevanagariĠ": 7484,
      "à¤²à¤Ĺ": 7485,
      "à¤¸à¥ĩà¤ļ": 7486,
      "à°°à°¾à°ľ": 7487,
      "à¤®à¤¤": 7488,
      "à¤®à¥įà¤®": 7489,
      "à¤®à¤Ĥà¤¤à¥įà¤°": 7490,
      "1-5": 7491,
      "à¥ģà¤¦à¥įà¤§": 7492,
      "à¥ģà¤ľà¤°": 7493,
      ".Ġ(2006": 7494,
      "\".ĠO": 7495,
      "wasĠadop": 7496,
      "à°²à°¸": 7497,
      "à°²à°¿à°Ĺ": 7498,
      "à°²à±įà°ª": 7499,
      "à±ĩà°¨": 7500,
      "Ġà¤¸à¤¾à¤²": 7501,
      "Ġà¤¸à¤¿à¤Ĥ": 7502,
      "à¤¹à¥Ģà¤Ĥ": 7503,
      "26âĢĵ": 7504,
      "à°¦à°¾à°°": 7505,
      "à°¾à°°à°¸": 7506,
      "Ġà¤ªà¤¾à¤°": 7507,
      "à°ķà°¾à°²": 7508,
      "à°ķà±Ģà°¯": 7509,
      "à°ķà±ģĠà°ª": 7510,
      "à±Ģà°·": 7511,
      "230-": 7512,
      "primar": 7513,
      "à°¾à°²à°¨": 7514,
      "à°¾à°²à°¨à±ģĠà°": 7515,
      "formerĠ": 7516,
      "itsĠHindiĠ": 7517,
      "à±ĩà°·": 7518,
      "24ĠJanuaryĠ1950": 7519,
      "à°®à±Ĩ": 7520,
      "à°µà°°": 7521,
      ".ĊĠ\"NationalĠ": 7522,
      "à°¿Ġà°¨": 7523,
      "à°¿Ġà°ĩ": 7524,
      "à°¿Ġà°ļà±Ĩà°Ĥà°¦": 7525,
      "observ": 7526,
      "flictĠ": 7527,
      "grand": 7528,
      "à¥įà¤¤à¤°": 7529,
      "à¤°Ġà¤¦": 7530,
      "à¤Ĺà¤°": 7531,
      "uggleĠ": 7532,
      "haveĠaĠ": 7533,
      "à°¡à±įà°¡": 7534,
      "WorldĠFact": 7535,
      "economic": 7536,
      "Ġà¤Ĩà¤²": 7537,
      "à¥ĭà¤ĤĠà¤ķà¥ĢĠà¤": 7538,
      "ĠMarchĠ2017": 7539,
      "Ġà°ªà±įà°°à°¦à±ĩà°¶": 7540,
      "notĠaĠ": 7541,
      "-5196": 7542,
      "Ċà°ļ": 7543,
      "à°¾à°¤à°Ĥà°¤à±įà°°": 7544,
      "Ġbillion": 7545,
      ",ĠPeterĠ(": 7546,
      "à°Ĥà°Ĺà°¾à°²": 7547,
      "termsĠ": 7548,
      "otherĠthanĠ": 7549,
      "Haryan": 7550,
      "à°¾à°¯à°¿.Ġ": 7551,
      "à¤ħà¤Ĥà¤Ĺà¥įà¤°à¥ĩà¤ľà¤¼": 7552,
      "HistoryĠofĠModernĠ": 7553,
      "ĠDecemberĠ2014": 7554,
      "à¤¿à¤¸à¤ķ": 7555,
      "1,210": 7556,
      "à°¾à°Ĥà°Ĺà±įà°°": 7557,
      "à°°à°¿à°¹à°¦à±įà°¦": 7558,
      "HindiĠinĠtheĠDevanagariĠ": 7559,
      "1.7%": 7560,
      "2001,Ġ": 7561,
      "Ġà°®à°¤": 7562,
      "typ": 7563,
      "05:": 7564,
      "ScienceĠ": 7565,
      "3,4": 7566,
      "hasĠbeenĠtheĠsubjec": 7567,
      "versionĠ": 7568,
      "disputeĠbetweenĠ": 7569,
      "à±ģà°²à±ģ,Ġ": 7570,
      "utralĠ": 7571,
      "alongĠwithĠ": 7572,
      "GujaratĠ": 7573,
      "garh": 7574,
      "à°®à±ģà°¦à±įà°°": 7575,
      "fiers": 7576,
      "bordersĠ": 7577,
      "à±įâĢĮà°¸": 7578,
      "Kashmir,Ġ": 7579,
      "à¤Ĥà¤¬à¤Ĥà¤§": 7580,
      "2.3": 7581,
      "WikipediaĠarticlesĠ": 7582,
      "figures,Ġ": 7583,
      "languagesĉ": 7584,
      "languagesĉĊ": 7585,
      ".ĠInternationalĠMonetaryĠFund": 7586,
      "à°¾à°¬à±įà°¦": 7587,
      "1200âĢĵ": 7588,
      "scriptĠ": 7589,
      "Ġà°ļà°°à°¿à°¤à±įà°°": 7590,
      "à±Įà°ķ": 7591,
      "à¤¾à¤Łà¤ķ": 7592,
      "aranth": 7593,
      "debateĠ": 7594,
      "Ġà¤ħà¤¨à¥ĩà¤ķ": 7595,
      "Ġà¤ĩà¤¸à¤ķ": 7596,
      "à¤īà¤¤à¥įà¤¤à¤°": 7597,
      "ConciseĠHistoryĠofĠModernĠ": 7598,
      "administeredĠ": 7599,
      "Ġà¤ıà¤µ": 7600,
      "People": 7601,
      ")ĠAct,Ġ": 7602,
      "à°¸à±įà°¤à±ģà°¤": 7603,
      "ĊĊĠĊĊĠĊĊĠĊĊĠ": 7604,
      "Ġà¤¹à¥ģà¤Ĩ": 7605,
      "PPP": 7606,
      "à±ģà°Ĥà°¦à°¿.Ġ": 7607,
      "à°ªà±Ĥ.": 7608,
      "etcalf,ĠBarbaraĠ": 7609,
      "Ċà¤®à¥ģà¤ĸà¥įà¤¯Ġà¤²à¥ĩà¤ĸ:": 7610,
      "Symb": 7611,
      "SurveyĠ": 7612,
      "identifiers": 7613,
      ",ĠISBNĠ978-0-": 7614,
      "à¤¶à¤¾à¤¸à¤¿à¤¤Ġà¤ªà¥įà¤°à¤¦à¥ĩà¤¶": 7615,
      "à±Ĭà°¦à°Ł": 7616,
      "2]ĊDuration:Ġ": 7617,
      "à¥ģà¤¦à¥įà¤°": 7618,
      "Ġà¤ķà¥ĩĠà¤¬à¤¾à¤¦": 7619,
      "Ġkm2Ġ(1,269,219ĠsqĠmi": 7620,
      "Division": 7621,
      "D.;ĠMetcalf": 7622,
      "UTC": 7623,
      "discuss": 7624,
      "subjectĠtoĠ": 7625,
      "à°ªà±įà°°à°§à°¾à°¨Ġà°µà±įà°¯à°¾à°¸": 7626,
      "3,287,263Ġkm2Ġ(1,269,219ĠsqĠmi": 7627,
      "CCNĠ": 7628,
      "ĠJuneĠ2016.ĊĠ\"": 7629,
      "officialĠlanguageĠofĠtheĠUnion": 7630,
      "OneworldĠPublications": 7631,
      "ATI": 7632,
      "aediaĠBritannic": 7633,
      "ĊNeutralĠ": 7634,
      ",ĠCharl": 7635,
      ",ĠThomasĠR.Ġ(": 7636,
      "wasĠadoptedĠinĠ": 7637,
      "primarilyĠ": 7638,
      "à°¾à°¤à°Ĥà°¤à±įà°°à±įà°¯": 7639,
      "1,210,": 7640,
      "à°¾à°Ĥà°Ĺà±įà°°à±Ĩà°¸": 7641,
      "HindiĠinĠtheĠDevanagariĠscriptĠ": 7642,
      "hasĠbeenĠtheĠsubjectĠofĠ": 7643,
      "disputeĠbetweenĠIndiaĠandĠPakistanĠ": 7644,
      "WikipediaĠarticlesĠwithĠ": 7645,
      "etcalf,ĠBarbaraĠD.;ĠMetcalf": 7646,
      "etcalf,ĠBarbaraĠD.;ĠMetcalf,ĠThomasĠR.Ġ(": 7647,
      "(P": 7648,
      "-11": 7649,
      ".00": 7650,
      "118": 7651,
      "2Ċ": 7652,
      "2-1": 7653,
      "3-0": 7654,
      "3Ġ(1):Ġ": 7655,
      "421": 7656,
      "438": 7657,
      "5.Ġ": 7658,
      "520": 7659,
      "5-0": 7660,
      "8âĢĵ": 7661,
      "878": 7662,
      "9-6": 7663,
      "B.Ġ(": 7664,
      "BookĠ": 7665,
      "Edi": 7666,
      "HerĠ": 7667,
      "Hol": 7668,
      "Media": 7669,
      "MedievalĠ": 7670,
      "PublicĠ": 7671,
      "Post": 7672,
      "Rag": 7673,
      "Spring": 7674,
      "WarĠ": 7675,
      "West": 7676,
      "Wall": 7677,
      "Work": 7678,
      "[18": 7679,
      "[39": 7680,
      "a-": 7681,
      "day": 7682,
      "ethĠ": 7683,
      "egh": 7684,
      "fr": 7685,
      "fil": 7686,
      "hl": 7687,
      "hraĠ": 7688,
      "j.": 7689,
      "maĠ": 7690,
      "ministr": 7691,
      "raĠ(": 7692,
      "s.": 7693,
      "sw": 7694,
      "s)Ġ": 7695,
      "via": 7696,
      "yin": 7697,
      "Ġ&ĠA": 7698,
      "ĩà¤¤à¤¿à¤¹à¤¾à¤¸": 7699,
      "à¤ĺ": 7700,
      ".ĠU": 7701,
      ".Ġ2019": 7702,
      ".Ġ3Ġ(1):Ġ": 7703,
      ",Ġ43": 7704,
      "alnutri": 7705,
      "arsh": 7706,
      "ors": 7707,
      "ofĠKashmirĠ": 7708,
      "an-": 7709,
      "inĠAsia": 7710,
      "inĠaddi": 7711,
      "onĠtoĠ": 7712,
      "issu": 7713,
      "à¥įà¤£": 7714,
      ".ĊJ": 7715,
      "chinĠ": 7716,
      "ingham": 7717,
      "ateri": 7718,
      "as;Ġ": 7719,
      ".ĊĠV": 7720,
      "19-": 7721,
      "19âĢĵ": 7722,
      "1930": 7723,
      "ecolog": 7724,
      "uls": 7725,
      "à¥Ģĉ": 7726,
      "à¤°à¤¾à¤·à¥įà¤Łà¥įà¤°à¥Ģà¤¯": 7727,
      "isĠ(2004": 7728,
      "roff": 7729,
      "âĢĵ1947": 7730,
      "oplandĠ": 7731,
      "Ġà¤ķà¤¿à¤¯à¤¾Ġà¤": 7732,
      ";ĠetĠ": 7733,
      "imonĠ": 7734,
      "à¤¾Ġà¤Ń": 7735,
      "à¤¾Ġà¤Ĩà¤¹à¥ĩ.Ġ": 7736,
      "Ġ(20": 7737,
      "Ġ(4):Ġ": 7738,
      "hiĠ": 7739,
      "106": 7740,
      "à¥ĢĠà¤²": 7741,
      "akash": 7742,
      "akrishn": 7743,
      ",Ġp.Ġ3": 7744,
      "à¤®à¤¹à¤¾à¤°à¤¾à¤·à¥įà¤Łà¥įà¤°": 7745,
      "173": 7746,
      "26]Ġ": 7747,
      "265âĢĵ": 7748,
      ".ĠISBNĠ978-0-520": 7749,
      "ĠSikh": 7750,
      "Ġà¤®à¤¨": 7751,
      "Ġà¤®à¤¿à¤²": 7752,
      "156": 7753,
      "otaĠ": 7754,
      "à¥Ĥà¤¹": 7755,
      "ĊĠW": 7756,
      "à¤ªà¥ģà¤°": 7757,
      "à¤¦à¤ķà¥įà¤·à¤¿à¤£": 7758,
      "ra;Ġ": 7759,
      "portionĠofĠtheĠ": 7760,
      "à¤¾à¤¤Ġà¤µ": 7761,
      "27âĢĵ": 7762,
      "Ġà¤¹à¤µ": 7763,
      "perColl": 7764,
      "à¤¿à¤ķà¤¾à¤¸": 7765,
      ".ĊĠ\"TheĠ": 7766,
      "Ġà¤ķà¥ĩĠà¤®": 7767,
      "40Ġ(1):Ġ": 7768,
      "12,": 7769,
      "ridgetĠ": 7770,
      "2007,Ġpp.Ġ": 7771,
      "à¤£à¥įà¤¡": 7772,
      ".ĠISBNĠ978-1-85": 7773,
      "111": 7774,
      "diseaseĠ": 7775,
      "coexist": 7776,
      "an,ĠJ": 7777,
      "222": 7778,
      "-953": 7779,
      "Ġà¤ħà¤Ń": 7780,
      "Anal": 7781,
      "Prakash": 7782,
      "continent": 7783,
      "atedĠinĠtheĠ": 7784,
      "EconomyĠandĠ": 7785,
      "northwesternĠ": 7786,
      "à¤¶à¤ķ": 7787,
      "Prot": 7788,
      "à¥įà¤¯à¤¾Ġà¤®": 7789,
      "80,000": 7790,
      "ificĠ": 7791,
      "à¤¾à¤®à¥ģà¤³": 7792,
      "countri": 7793,
      "region,Ġ": 7794,
      "eshĠ(": 7795,
      ",ĠP.ĠJ": 7796,
      "à¤Ĥà¤Ĺà¤²": 7797,
      "state": 7798,
      "Harapp": 7799,
      "HarperColl": 7800,
      "historyĠofĠ": 7801,
      "preserv": 7802,
      "à¤¾à¤µà¤°": 7803,
      "viewĠofĠtheĠ": 7804,
      "à¥įà¤¥à¤¾à¤ª": 7805,
      "487": 7806,
      "withdraw": 7807,
      "despit": 7808,
      ".ĊPos": 7809,
      "usedĠforĠ": 7810,
      "54âĢĵ": 7811,
      "spee": 7812,
      "Ġà¤ķà¤°à¥ĭà¤¡à¤¼": 7813,
      "ed,ĠbutĠ": 7814,
      "GreaterĠ": 7815,
      "irect": 7816,
      "AndhraĠ": 7817,
      "Coast": 7818,
      "2ndĠ": 7819,
      "movement": 7820,
      "policyĠ": 7821,
      "inguisticĠ": 7822,
      "itterĠ": 7823,
      "eauĠ": 7824,
      "Onlin": 7825,
      ".ĊDyson,Ġ": 7826,
      "Health": 7827,
      "Reform": 7828,
      "WorldĠBankĠ": 7829,
      "SocietyĠ": 7830,
      "claimedĠbyĠ": 7831,
      "IndianĠsubcontinent,Ġ": 7832,
      "Naray": 7833,
      "initiativ": 7834,
      "recogniz": 7835,
      "similarĠtoĠ": 7836,
      "à¥ģà¤¨à¤¾à¤µ": 7837,
      "Ġ-Ġ": 7838,
      "126âĢĵ": 7839,
      "LiteracyĠ": 7840,
      "Literature": 7841,
      "effectĠ": 7842,
      "statusĠandĠ": 7843,
      "UnitedĠNations": 7844,
      "pactĠofĠ": 7845,
      "tigerĠ": 7846,
      "ArticleĠ": 7847,
      "à¥ĩĠà¤ľà¤¾à¤¤": 7848,
      "StateĠandĠ": 7849,
      "Ġà¤Łà¤ķà¥įà¤ķ": 7850,
      "AksaiĠChin": 7851,
      "Heitz": 7852,
      "Subcontinent": 7853,
      "CultureĠofĠ": 7854,
      "68âĢĵ70": 7855,
      "DefenceĠ": 7856,
      "Gopal": 7857,
      "ITĠ": 7858,
      "ilbert,ĠM": 7859,
      "tionĠtoĠHindi": 7860,
      "16âĢĵ17": 7861,
      "Ġà¤ķà¥ĩĠà¤²à¤¿à¤ı": 7862,
      "Assembly,Ġ": 7863,
      ".Ġdoi:10.1016/j.": 7864,
      "airĠpollutionĠ": 7865,
      "à¥įà¤ŀà¤¾à¤¨": 7866,
      "Ġà¤ħà¤Ĺà¤¸à¥įà¤¤": 7867,
      "aranth,ĠK": 7868,
      "inĠadditionĠtoĠHindi": 7869,
      ";ĠetĠal": 7870,
      "265âĢĵ266": 7871,
      "despiteĠtheĠ": 7872,
      "\"),Ġ": 7873,
      "%.[3": 7874,
      "'M": 7875,
      "',Ġ": 7876,
      "'theĠ": 7877,
      "(1": 7878,
      "(2": 7879,
      "(A": 7880,
      "(2003": 7881,
      "(includingĠ": 7882,
      "(stand": 7883,
      "(3rdĠ": 7884,
      ")ĠM": 7885,
      ").[3": 7886,
      ")\".ĠTheĠ": 7887,
      "-B": 7888,
      "-R": 7889,
      "-e": 7890,
      "-30": 7891,
      "-21": 7892,
      "-des": 7893,
      "-Himalay": 7894,
      "-majorityĠ": 7895,
      "-Dem": 7896,
      "-styleĠ": 7897,
      "-dayĠ": 7898,
      "-kameez": 7899,
      "-YarlungĠ": 7900,
      ".en": 7901,
      "..ĊP": 7902,
      ".64": 7903,
      ".UK": 7904,
      ".RL": 7905,
      "/2": 7906,
      "/978": 7907,
      "/IUCN": 7908,
      "0]ĊĊ": 7909,
      "1X": 7910,
      "1]ĊĊ": 7911,
      "1,000Ġ": 7912,
      "1.ĊĠHarleĠ1994,Ġpp.Ġ": 7913,
      "1]ĊĠĊ": 7914,
      "2:Ġ": 7915,
      "226": 7916,
      "223": 7917,
      "225": 7918,
      "211": 7919,
      "2.ĠB": 7920,
      "2-4": 7921,
      "2-7": 7922,
      "2-9.ĊS": 7923,
      "3ĉ": 7924,
      "3.Ġ": 7925,
      "3).Ġ": 7926,
      "327": 7927,
      "31.": 7928,
      "3,000Ġ": 7929,
      "343": 7930,
      "4A": 7931,
      "4ĉ": 7932,
      "424": 7933,
      "4ĠAprilĠ": 7934,
      "4-8": 7935,
      "4-4": 7936,
      "4.ĠK": 7937,
      "45âĢĵ": 7938,
      "428]Ġ": 7939,
      "5]ĠTheĠ": 7940,
      "5-9": 7941,
      "51]Ġ": 7942,
      "58]Ġ": 7943,
      "5261-": 7944,
      "6ĠJulyĠ": 7945,
      "6]ĠTheĠ": 7946,
      "6.ĊĠCravenĠ1997,Ġpp.Ġ": 7947,
      "6.0": 7948,
      "7.ĊĠ": 7949,
      "7%Ġ": 7950,
      "7-1": 7951,
      "731": 7952,
      "75âĢĵ": 7953,
      "7thĠcenturyĠ": 7954,
      "7ĠFebruaryĠ2022": 7955,
      "7.5": 7956,
      "7.ĠMalayal": 7957,
      "88": 7958,
      "8.Ċ": 7959,
      "8).Ġ\"": 7960,
      "846": 7961,
      "8-3": 7962,
      "8.ĠM": 7963,
      "8ĠmillionĠ": 7964,
      "8ĠDecemberĠ": 7965,
      "9/": 7966,
      "9]ĊĊ": 7967,
      "9]ĠTheĠ": 7968,
      "9]Ċ": 7969,
      "9%ĠofĠ": 7970,
      "9.ĠN": 7971,
      "964": 7972,
      "=Ġ": 7973,
      "Ach": 7974,
      "Are": 7975,
      "AĠM": 7976,
      "Act": 7977,
      "Aver": 7978,
      "Att": 7979,
      "Agar": 7980,
      "AsĠaĠ": 7981,
      "Atom": 7982,
      "A109": 7983,
      "Aá¹£": 7984,
      "B.ĠR": 7985,
      "Brow": 7986,
      "Boll": 7987,
      "Blo": 7988,
      "ButĠ": 7989,
      "Bakh": 7990,
      "BorderĠ": 7991,
      "Broadcast": 7992,
      "CD": 7993,
      "CR": 7994,
      "Can": 7995,
      "Cre": 7996,
      "Cres": 7997,
      "CĠ(": 7998,
      "Cup": 7999,
      "Co-": 8000,
      "Coh": 8001,
      "C.ĠM": 8002,
      "Cuis": 8003,
      "Cali": 8004,
      "City:Ġ": 8005,
      "CaseĠ": 8006,
      "CricketĠ": 8007,
      "Do": 8008,
      "Det": 8009,
      "Dig": 8010,
      "Dist": 8011,
      "Dog": 8012,
      "DiversityĠ": 8013,
      "DayĠ": 8014,
      "Dhy": 8015,
      "DictionaryĠ": 8016,
      "EU": 8017,
      "Er": 8018,
      "End": 8019,
      "Eff": 8020,
      "East": 8021,
      "Equ": 8022,
      "Fic": 8023,
      "Foc": 8024,
      "Four": 8025,
      "Found": 8026,
      "Filli": 8027,
      "Feat": 8028,
      "Follow": 8029,
      "FreeĠ": 8030,
      "FundamentalĠ": 8031,
      "God": 8032,
      "Gap": 8033,
      "Gra": 8034,
      "GavinĠ": 8035,
      "Hel": 8036,
      "Hag": 8037,
      "Hud": 8038,
      "Hass": 8039,
      "H.;Ġ": 8040,
      "Hotspot": 8041,
      "If": 8042,
      "Is": 8043,
      "Iy": 8044,
      "IsĠ": 8045,
      "Ior": 8046,
      "Ide": 8047,
      "Jus": 8048,
      "Jay": 8049,
      "JaiĠ": 8050,
      "Kh": 8051,
      "Kal": 8052,
      "Kes": 8053,
      "Kos": 8054,
      "Kum": 8055,
      "Know": 8056,
      "Kail": 8057,
      "Kuch": 8058,
      "Khan,Ġ": 8059,
      "Koch": 8060,
      "KangraĠ": 8061,
      "K.ĠS.;Ġ": 8062,
      "Le": 8063,
      "L.;Ġ": 8064,
      "Lif": 8065,
      "L.ĠV": 8066,
      "LakeĠ": 8067,
      "LokĠSabh": 8068,
      "Lakshadweep": 8069,
      "Mer": 8070,
      "Med": 8071,
      "Mor": 8072,
      "Men": 8073,
      "Mas": 8074,
      "Mit": 8075,
      "Mil": 8076,
      "Map": 8077,
      "M.;Ġ": 8078,
      "Moun": 8079,
      "Mob": 8080,
      "Mall": 8081,
      "Mart": 8082,
      "MoreĠ": 8083,
      "Mathur": 8084,
      "Measur": 8085,
      "Macmillan": 8086,
      "NP": 8087,
      "Nand": 8088,
      "NoĠ": 8089,
      "N.;Ġ": 8090,
      "Noun": 8091,
      "NovemberĠ": 8092,
      "Nilg": 8093,
      "Oj": 8094,
      "Odis": 8095,
      "Open": 8096,
      "OfficeĠofĠtheĠRegistrarĠGeneralĠ&ĠCensusĠCommissioner,ĠIndia": 8097,
      "Ph": 8098,
      "Pen": 8099,
      "Pand": 8100,
      "PerĠ": 8101,
      "Pear": 8102,
      "Past": 8103,
      "Pass": 8104,
      "P.;Ġ": 8105,
      "PewĠ": 8106,
      "PÄģ": 8107,
      "Penn": 8108,
      "PharmaceuticalĠ": 8109,
      "Power": 8110,
      "Pengu": 8111,
      "Rv": 8112,
      "Ran": 8113,
      "Rem": 8114,
      "Rad": 8115,
      "Ray": 8116,
      "Real": 8117,
      "RuralĠ": 8118,
      "Russ": 8119,
      "S.Ġ": 8120,
      "Sec": 8121,
      "Sim": 8122,
      "Shi": 8123,
      "Str": 8124,
      "Shar": 8125,
      "Sach": 8126,
      "SomeĠ": 8127,
      "Sea": 8128,
      "Sourc": 8129,
      "Seal": 8130,
      "ShortĠ": 8131,
      "S.T": 8132,
      "Spend": 8133,
      "SelectionĠ": 8134,
      "SriĠLank": 8135,
      "Sovi": 8136,
      "Ts": 8137,
      "Taj": 8138,
      "Tip": 8139,
      "Tris": 8140,
      "Tarl": 8141,
      "T.ĠV": 8142,
      "Trop": 8143,
      "TĠR": 8144,
      "Toward": 8145,
      "Tung": 8146,
      "TS.T": 8147,
      "Va": 8148,
      "Vand": 8149,
      "Vaj": 8150,
      "Varan": 8151,
      "Wind": 8152,
      "WallĠ": 8153,
      "War,Ġ": 8154,
      "Xav": 8155,
      "Yam": 8156,
      "Yep": 8157,
      "\\th": 8158,
      "\\display": 8159,
      "ao": 8160,
      "aË": 8161,
      "aonĠ": 8162,
      "aiv": 8163,
      "aism": 8164,
      "aitĠ": 8165,
      "audd": 8166,
      "a.ĠISBNĠ978-81-": 8167,
      "a;ĠS": 8168,
      "affair": 8169,
      "aoĠ(": 8170,
      "aĊĠĊTheĠ": 8171,
      "aemen": 8172,
      "bandĠ": 8173,
      "bli": 8174,
      "bear": 8175,
      "bour": 8176,
      "batt": 8177,
      "businessĠ": 8178,
      "budget": 8179,
      "brief": 8180,
      "cel": 8181,
      "cak": 8182,
      "cut": 8183,
      "ckĠ": 8184,
      "cessĠ": 8185,
      "cere": 8186,
      "carb": 8187,
      "coreĠ": 8188,
      "cgra": 8189,
      "citationĠ": 8190,
      "cott": 8191,
      "dri": 8192,
      "ding": 8193,
      "doĠ": 8194,
      "das": 8195,
      "dem": 8196,
      "drom": 8197,
      "dle": 8198,
      "dli": 8199,
      "de,Ġ": 8200,
      "dateĠ": 8201,
      "dough": 8202,
      "dhy": 8203,
      "drop": 8204,
      "down": 8205,
      "dynam": 8206,
      "eh": 8207,
      "eou": 8208,
      "eingĠ": 8209,
      "eers": 8210,
      "eep": 8211,
      "eak": 8212,
      "e.ĠISBNĠ978-0-": 8213,
      "eyĠofĠ": 8214,
      "eersĠ": 8215,
      "euri": 8216,
      "e\"Ġ(PDF).Ġ": 8217,
      "e.ĠArchivedĠfromĠtheĠoriginalĠ(PDF)ĠonĠ": 8218,
      "e.ĠArchivedĠfromĠtheĠoriginalĠonĠ21": 8219,
      "eetah": 8220,
      "eground": 8221,
      "eindia": 8222,
      "e.T": 8223,
      "eitherĠ": 8224,
      "fe": 8225,
      "fu": 8226,
      "fre": 8227,
      "fos": 8228,
      "fath": 8229,
      "fastĠ": 8230,
      "fall": 8231,
      "fru": 8232,
      "fost": 8233,
      "foodĠ": 8234,
      "favour": 8235,
      "gedĠ": 8236,
      "gig": 8237,
      "gap": 8238,
      "goldĠ": 8239,
      "gardenĠ": 8240,
      "groom": 8241,
      "hw": 8242,
      "hul": 8243,
      "hood": 8244,
      "hawk": 8245,
      "hankar": 8246,
      "iĉ": 8247,
      "i.Ġ": 8248,
      "iar": 8249,
      "i'sĠ": 8250,
      "ievedĠ": 8251,
      "itionĠ": 8252,
      "iĠS": 8253,
      "ienc": 8254,
      "i)Ġ": 8255,
      "ii,Ġ": 8256,
      "iograph": 8257,
      "ies:Ġ": 8258,
      "iedĠinĠtheĠ": 8259,
      "iary,Ġ": 8260,
      "iĠSh": 8261,
      "i,ĠtheĠhighestĠ": 8262,
      "jy": 8263,
      "jam": 8264,
      "jad": 8265,
      "jiĠ": 8266,
      "jÄģ": 8267,
      "jack": 8268,
      "john": 8269,
      "jhol": 8270,
      "join": 8271,
      "justi": 8272,
      "jid-": 8273,
      "journ": 8274,
      "kn": 8275,
      "k;Ġ": 8276,
      "kĠ(": 8277,
      "ke,Ġ": 8278,
      "kog": 8279,
      "ksĠandĠ": 8280,
      "ker,Ġ": 8281,
      "k,ĠM": 8282,
      "lk": 8283,
      "l.Ġ": 8284,
      "len": 8285,
      "lav": 8286,
      "lun": 8287,
      "log": 8288,
      "ly,Ġ": 8289,
      "lostĠ": 8290,
      "leng": 8291,
      "lesĠofĠ": 8292,
      "lack": 8293,
      "liveĠ": 8294,
      "lai": 8295,
      "lsĠareĠ": 8296,
      "listĠofĠ": 8297,
      "light": 8298,
      "lake": 8299,
      "l.),Ġ": 8300,
      "linguisticĠ": 8301,
      "mr": 8302,
      "ms": 8303,
      "mist": 8304,
      "mang": 8305,
      "mob": 8306,
      "mi,Ġ": 8307,
      "mrid": 8308,
      "m.ĠS": 8309,
      "mistĠ": 8310,
      "moh": 8311,
      "meat": 8312,
      "memb": 8313,
      "mult": 8314,
      "maĠGandhi": 8315,
      "monso": 8316,
      "myth": 8317,
      "musicalĠ": 8318,
      "mightĠ": 8319,
      "megadiverseĠ": 8320,
      "nsĠ": 8321,
      "nedĠ": 8322,
      "nel": 8323,
      "nop": 8324,
      "nov": 8325,
      "nativeĠ": 8326,
      "nextĠ": 8327,
      "neverĠ": 8328,
      "nathur": 8329,
      "niaĠPress": 8330,
      "oĊ": 8331,
      "oyĠ": 8332,
      "oat": 8333,
      "ooĠ": 8334,
      "othĠ": 8335,
      "ooll": 8336,
      "oork": 8337,
      "pa": 8338,
      "paĠ": 8339,
      "pop": 8340,
      "pap": 8341,
      "pear": 8342,
      "pot": 8343,
      "pip": 8344,
      "pedĠbyĠtheĠ": 8345,
      "politic": 8346,
      "pureĠ": 8347,
      "putĠ": 8348,
      "poĠ(": 8349,
      "piteĠ": 8350,
      "paperĠ": 8351,
      "power": 8352,
      "rar": 8353,
      "rak": 8354,
      "redĠinĠ": 8355,
      "redĠtoĠ": 8356,
      "roll": 8357,
      "redi": 8358,
      "ryingĠ": 8359,
      "rush": 8360,
      "r.:Ġ": 8361,
      "sem": 8362,
      "sev": 8363,
      "sav": 8364,
      "sun": 8365,
      "sĊĊ": 8366,
      "swi": 8367,
      "seĠandĠ": 8368,
      "snow": 8369,
      "s\".ĠTheĠ": 8370,
      "semb": 8371,
      "s\"Ġ(PDF).Ġ": 8372,
      "sultan": 8373,
      "summ": 8374,
      "sportsĠ": 8375,
      "savour": 8376,
      "sdic": 8377,
      "scaleĠ": 8378,
      "tch": 8379,
      "tas": 8380,
      "tev": 8381,
      "tsĠofĠ": 8382,
      "tainĠ": 8383,
      "tatt": 8384,
      "tellĠ": 8385,
      "toward": 8386,
      "uĠ(": 8387,
      "uff": 8388,
      "uĠS": 8389,
      "usĠandĠ": 8390,
      "uip": 8391,
      "ufac": 8392,
      "ualĠandĠ": 8393,
      "ually,Ġ": 8394,
      "ue,ĠK": 8395,
      "vas": 8396,
      "voc": 8397,
      "vot": 8398,
      "valle": 8399,
      "veh": 8400,
      "winĠ": 8401,
      "wind": 8402,
      "wak": 8403,
      "wear": 8404,
      "wareĠ": 8405,
      "was,Ġ": 8406,
      "wooll": 8407,
      "xvi": 8408,
      "yl": 8409,
      "yĉ": 8410,
      "y.[3": 8411,
      "y.ĠTheĠ": 8412,
      "yingĠtheĠ": 8413,
      "yetĠ": 8414,
      "y\".ĠTheĠ": 8415,
      "y\"Ġ(PDF).Ġ": 8416,
      "yaĠS": 8417,
      "yabh": 8418,
      "yamĠ": 8419,
      "ywood": 8420,
      "zen": 8421,
      "{\\display": 8422,
      "|Ġ": 8423,
      "°à±Ĩà°Ĥà°¡": 8424,
      "²à±ĭ": 8425,
      "¸Î": 8426,
      "¸Ċ": 8427,
      "¼¸Î": 8428,
      "½Î": 8429,
      "Ã¡": 8430,
      "Ä«": 8431,
      "Åļ": 8432,
      "ËĪ": 8433,
      "Î¸Ċ": 8434,
      "á¼¸Î": 8435,
      "âĵ": 8436,
      "ĉ0": 8437,
      "ĉKeral": 8438,
      "ĉ1ĉ": 8439,
      "ĉNortheastĠ": 8440,
      "ĊThisĠ": 8441,
      "ĊRaj": 8442,
      "ĊVi": 8443,
      "ĊAll": 8444,
      "Ċ2Ċ": 8445,
      "ĊÎ¸Ċ": 8446,
      "ĠT": 8447,
      "ĠIndianĠ": 8448,
      "ĠinĠIndia": 8449,
      "ĠWorldĠ": 8450,
      "ĠafterĠ": 8451,
      "ĠoverĠ": 8452,
      "Ġwar": 8453,
      "ĠisĠaĠ": 8454,
      "ĠduringĠ": 8455,
      "ĠGandhi": 8456,
      "Ġ2000": 8457,
      "ĠeastĠ": 8458,
      "ĠdanceĠofĠ": 8459,
      "ĠTerritor": 8460,
      "ĠlivingĠ": 8461,
      "ĠliesĠ": 8462,
      "ĠetĠal.Ġ": 8463,
      "ĠyearsĠinĠ": 8464,
      "Ġpartition": 8465,
      "Ġtrillion": 8466,
      "Ġe.T": 8467,
      "Ġgig": 8468,
      "à°¥": 8469,
      "eĠforĠ": 8470,
      "eĠofĠIndia'sĠ": 8471,
      "eĠ70": 8472,
      "eĠtoĠbeĠ": 8473,
      "eĠhasĠbeenĠ": 8474,
      "eĠtod": 8475,
      ".Ġ1": 8476,
      ".ĠG": 8477,
      ".ĠAĠ": 8478,
      ".ĠIndiaĠhasĠ": 8479,
      ".Ġ55": 8480,
      ".ĠTamil": 8481,
      ".ĠUrdu": 8482,
      ".ĠIndia,ĠtheĠ": 8483,
      ".Ġ[...]Ġ": 8484,
      ".ĠWithĠ": 8485,
      ".ĠWhenĠ": 8486,
      ".Ġ1.Ġ": 8487,
      ".ĠNewĠDelhi": 8488,
      ".ĠTel": 8489,
      ".ĠCambridgeĠandĠNewĠYork:Ġ": 8490,
      ".ĠAmbedkar": 8491,
      "nĠofĠK": 8492,
      "nĠhereĠ": 8493,
      "ther": 8494,
      "thyĠ": 8495,
      "thinĠ": 8496,
      "thali,Ġ": 8497,
      "threatenedĠ": 8498,
      "tharv": 8499,
      ",Ġ5": 8500,
      ",ĠH": 8501,
      ",ĠL": 8502,
      ",Ġà¤": 8503,
      ",ĠTh": 8504,
      ",Ġà°¨": 8505,
      ",ĠwasĠ": 8506,
      ",Ġ13": 8507,
      ",Ġà¤¯": 8508,
      ",ĠthisĠ": 8509,
      ",ĠGe": 8510,
      ",ĠthoughĠ": 8511,
      ",Ġcaus": 8512,
      ",ĠnowĠ": 8513,
      ",ĠUK": 8514,
      ",ĠbuiltĠ": 8515,
      ",Ġhowever,Ġ": 8516,
      ",ĠunderĠtheĠ": 8517,
      ",ĠGujarat": 8518,
      ",ĠUp": 8519,
      ",ĠnearlyĠ": 8520,
      ",Ġso": 8521,
      ",ĠthereĠwereĠ": 8522,
      ",ĠIndiraĠGandhi": 8523,
      ",ĠshallĠbeĠ": 8524,
      "sĠfromĠtheĠ": 8525,
      "sĠbecameĠ": 8526,
      "sĠatĠtheĠ": 8527,
      "sĠofĠIndiaĊ": 8528,
      "sĠintoĠtheĠ": 8529,
      "sĠlikeĠ": 8530,
      "sĠinĠIndia.Ġ": 8531,
      "sĠmustĠ": 8532,
      "sĠprobablyĠ": 8533,
      "sĠrisingĠ": 8534,
      "sĠworship": 8535,
      "erk": 8536,
      "eret": 8537,
      "erum": 8538,
      "ertion": 8539,
      "er\".Ġ": 8540,
      "eredĠbyĠ": 8541,
      "erousĠ": 8542,
      "eranceĠ": 8543,
      "erarch": 8544,
      "ereverĠ": 8545,
      "Ġà¤¡": 8546,
      "Ġà¤Ľ": 8547,
      "inia": 8548,
      "inel": 8549,
      "inst": 8550,
      "inac": 8551,
      "in;Ġ": 8552,
      "inform": 8553,
      "inationalĠ": 8554,
      "instr": 8555,
      "ino-": 8556,
      "inaĠ(": 8557,
      "ineĠtheĠ": 8558,
      "inha,Ġ": 8559,
      "inhock": 8560,
      "inatedĠbyĠ": 8561,
      "al-": 8562,
      "aleĠ": 8563,
      "aling": 8564,
      "alist": 8565,
      "alut": 8566,
      "aliĠ": 8567,
      "altw": 8568,
      "ales.[3": 8569,
      "aluk": 8570,
      "altern": 8571,
      "algrav": 8572,
      "theĠc": 8573,
      "theĠres": 8574,
      "theĠmostĠ": 8575,
      "theĠmoreĠ": 8576,
      "theĠHinduĠ": 8577,
      "theĠhighestĠ": 8578,
      "theĠwesternĠandĠeasternĠ": 8579,
      "ar-": 8580,
      "arter": 8581,
      "ar,ĠandĠ": 8582,
      "are,Ġ": 8583,
      "arra": 8584,
      "arrel": 8585,
      "ardis": 8586,
      "are:Ġ": 8587,
      "aridĠ": 8588,
      "arrang": 8589,
      "arria": 8590,
      "arkar": 8591,
      "ariesĠandĠ": 8592,
      "eded": 8593,
      "edor": 8594,
      "ed,ĠandĠ": 8595,
      "edaryĠ": 8596,
      "ed.[3": 8597,
      "ed,[": 8598,
      "edif": 8599,
      "ed,ĠandĠtheĠ": 8600,
      "edinĠ1847": 8601,
      "orab": 8602,
      "orsĠandĠ": 8603,
      "orge": 8604,
      "orbedĠ": 8605,
      "tiaryĠ": 8606,
      "tight": 8607,
      "tikĠ(": 8608,
      "yĠD": 8609,
      "yĠisĠ": 8610,
      "yĠinĠtheĠ": 8611,
      "yĠafterĠ": 8612,
      "yĠfish": 8613,
      "yĠYear": 8614,
      "tĠinĠtheĠ": 8615,
      "tĠmar": 8616,
      "tĠTrans": 8617,
      "tĠJud": 8618,
      "tĠNationalĠPark,Ġ": 8619,
      "tĠKail": 8620,
      "onig": 8621,
      "onist": 8622,
      "on;Ġ": 8623,
      "one,Ġ": 8624,
      "oneĠinĠ": 8625,
      "ons.[": 8626,
      "one'sĠ": 8627,
      "online": 8628,
      "onlineĠ": 8629,
      "ia,Ġ": 8630,
      "ia:Ġ": 8631,
      "ia,ĠandĠ": 8632,
      "iaĠinĠ": 8633,
      "fĠ2008": 8634,
      "20]ĠTheĠ": 8635,
      "edĠg": 8636,
      "edĠitsĠ": 8637,
      "edĠtwoĠ": 8638,
      "edĠoutĠ": 8639,
      "edĠduringĠ": 8640,
      "edĠmanyĠ": 8641,
      "edĠgroup": 8642,
      "edĠintoĠtheĠ": 8643,
      "edĠgradu": 8644,
      "edĠbefor": 8645,
      "edĠbutĠnotĠ": 8646,
      "edĠIL": 8647,
      "edĠBengali": 8648,
      "ofĠnon-": 8649,
      "ofĠeasternĠ": 8650,
      "ofĠDance": 8651,
      "ofĠsixĠ": 8652,
      "enis": 8653,
      "en:Ġ": 8654,
      "engeĠ": 8655,
      "ense": 8656,
      "enessĠ": 8657,
      "enabl": 8658,
      "enkat": 8659,
      "en,ĠRobertĠ": 8660,
      "eneuri": 8661,
      "an'sĠ": 8662,
      "ans,Ġ": 8663,
      "anek": 8664,
      "anaraj": 8665,
      "anti-": 8666,
      "anuj": 8667,
      "aniaĠPress": 8668,
      "andaĠ": 8669,
      "Indo": 8670,
      "IndusĠandĠ": 8671,
      "es'": 8672,
      "es)": 8673,
      "esc": 8674,
      "es)Ġ": 8675,
      "eseĠm": 8676,
      "es.[4": 8677,
      "espre": 8678,
      "estryĠ": 8679,
      "esvaraĠ": 8680,
      "IndiaâĢĵ": 8681,
      "India,[": 8682,
      "India\"Ġ(PDF).Ġ": 8683,
      "IndiaĊMainĠarticle:Ġ": 8684,
      "India.\"Ċ": 8685,
      "andĠph": 8686,
      "andĠsocialĠ": 8687,
      "andĠwesternĠ": 8688,
      "andĠCentralĠAsianĠ": 8689,
      "andĠmedievalĠ": 8690,
      "andĠSoutheastĠAsia": 8691,
      "andĠdefenceĠ": 8692,
      "andĠpolitic": 8693,
      "alĠAc": 8694,
      "alĠisĠaĠ": 8695,
      "alĠPal": 8696,
      "rich": 8697,
      "rist": 8698,
      "riot": 8699,
      "ribu": 8700,
      "rirang": 8701,
      "riceĠandĠ": 8702,
      "ripati": 8703,
      "inĠtheirĠ": 8704,
      "inĠIndiaĠandĠ": 8705,
      "inĠfac": 8706,
      "inĠeasternĠ": 8707,
      "inĠurbanĠ": 8708,
      "inĠtheseĠ": 8709,
      "inĠJain": 8710,
      "inĠherĠ": 8711,
      "inĠ15Ġ": 8712,
      "inĠContemporaryĠ": 8713,
      "inĠSikkim": 8714,
      "inĠSatpur": 8715,
      "inĠdhoti": 8716,
      "inĠKhan,Ġ": 8717,
      "inĠRay": 8718,
      "inĠVaran": 8719,
      "onĠitsĠ": 8720,
      "onĠHavel": 8721,
      "onĠKes": 8722,
      "omer": 8723,
      "ometri": 8724,
      "omsburyĠ": 8725,
      "isonĠ": 8726,
      "isingĠ": 8727,
      "isesĠ": 8728,
      "iswas,Ġ": 8729,
      "à¥įâĢį": 8730,
      ".ĊC": 8731,
      ".ĊBi": 8732,
      ".ĊLuddenĠ2014,Ġpp.Ġ": 8733,
      ".ĊHayashi": 8734,
      ".Ċà°ľà°¾à°¤à±Ģà°¯": 8735,
      "chain": 8736,
      "chall": 8737,
      "chedĠonĠ": 8738,
      "cheduledĠ": 8739,
      "chesterĠ": 8740,
      "re-": 8741,
      "repe": 8742,
      "ree-": 8743,
      "reign": 8744,
      "refin": 8745,
      "resĠinĠIndia,Ġ": 8746,
      "erĠaĠ": 8747,
      "erĠmarketĠ": 8748,
      "erĠinequal": 8749,
      "ing,ĠwhichĠ": 8750,
      "aĠc": 8751,
      "aĠCh": 8752,
      "aĠbe": 8753,
      "aĠPress": 8754,
      "aĠisĠtheĠ": 8755,
      "aĠVed": 8756,
      "aĠmark": 8757,
      "aĠlargeĠ": 8758,
      "aĠtermĠ": 8759,
      "aĠRam": 8760,
      "aĠbro": 8761,
      "aĠparliamentaryĠ": 8762,
      "aĠcommonĠ": 8763,
      "aĠNationalĠPar": 8764,
      "aĠvillag": 8765,
      "ater": 8766,
      "atur": 8767,
      "atureĠ": 8768,
      "ates:Ġ": 8769,
      "ate,ĠtheĠ": 8770,
      "attend": 8771,
      "ataram": 8772,
      "attrac": 8773,
      "atedlyĠ": 8774,
      "atmaĠGandhi": 8775,
      "oĠB": 8776,
      "oĠandĠ": 8777,
      "oĠtoĠ": 8778,
      "outhĠ": 8779,
      "ouli": 8780,
      "ous,Ġ": 8781,
      "asi": 8782,
      "asw": 8783,
      "asim": 8784,
      "ascentĠ": 8785,
      "icleĠ": 8786,
      "ics:Ġ": 8787,
      "iciar": 8788,
      "atiĠ": 8789,
      "atiyaĠ": 8790,
      "ited": 8791,
      "itanĠ": 8792,
      "itag": 8793,
      "ite,Ġ": 8794,
      "it;ĠS": 8795,
      "itary,Ġ": 8796,
      "itself": 8797,
      "à°¾Ġà°ª": 8798,
      "ingĠB": 8799,
      "ingĠandĠ": 8800,
      "ingĠanĠ": 8801,
      "ingĠfromĠ": 8802,
      "ingĠinĠtheĠ": 8803,
      "ingĠwithĠ": 8804,
      "ingĠitsĠ": 8805,
      "ingĠIndia'sĠ": 8806,
      "ingĠintoĠ": 8807,
      "ingĠforĠtheĠ": 8808,
      "ingĠeconomicĠ": 8809,
      "ingĠcontribut": 8810,
      "ingĠsecondĠ": 8811,
      "ingĠoverĠtheĠ": 8812,
      "ingĠUrbanĠ": 8813,
      "ingĠnetĠ": 8814,
      "ingĠCommitte": 8815,
      "ingĠworldĠchessĠchamp": 8816,
      "toĠanĠ": 8817,
      "toĠitsĠ": 8818,
      "toĠcre": 8819,
      "toĠUS$": 8820,
      "toĠwarĠ": 8821,
      "toĠaboutĠ": 8822,
      "toĠtheirĠnatalĠ": 8823,
      "toĠr.:Ġ": 8824,
      "esĠC": 8825,
      "esĠfromĠtheĠ": 8826,
      "esĠorĠ": 8827,
      "esĠofĠIndia": 8828,
      "esĠCh": 8829,
      "esĠIndia'sĠ": 8830,
      "esĠbetweenĠ": 8831,
      "esĠ1.": 8832,
      "esĠalongĠtheĠ": 8833,
      "emph": 8834,
      "etyĠ": 8835,
      "etaĠ": 8836,
      "etland": 8837,
      "et.ĠOxfordĠUniversityĠPress.Ġp.Ġ": 8838,
      "TheyĠ": 8839,
      "TheseĠm": 8840,
      "à°¿Ċ": 8841,
      "ursĠ": 8842,
      "uringĠ": 8843,
      "urch,Ġ": 8844,
      ".ĊĠTheĠ": 8845,
      ".ĊĠĊTheĠ": 8846,
      ".ĊĠĊAĠ": 8847,
      ".ĊĠĊAĠm": 8848,
      ".ĊĠLuddenĠ2014,Ġp.Ġ": 8849,
[...]
